,
the
.
and
of
to
in
you
I
will
a
that
is
for
he
his
Lord
;
be
with
not
them
they
``
And
your
it
from
him
all
God
have
was
who
''
are
me
their
my
:
shall
on
The
as
said
people
's
?
He
were
this
had
by
one
out
do
!
but
king
Then
Israel
up
But
They
has
son
land
man
You
there
when
at
what
unto
which
we
her
come
or
because
us
like
into
so
day
no
n't
So
made
against
came
did
those
'
For
before
men
go
house
our
thou
Jesus
thy
an
sons
went
am
down
also
make
things
over
these
if
give
its
say
away
put
may
Moses
<JUB>
<NKJV>
<YLT>
<KJV>
<MEV>
<DARBY>
<WEB>
<ISV>
<NLV>
<ASV>
<NIV>
<ESV>
<HCSB>
<NET>
<NRSV>
<NOG>
<LEB>
<RSV>
<NIRV>
<KJ21>
<BBE>
<GNV>
<NLT>
about
<CEB>
<GW>
<NCV>
<ICB>
<ERV>
Jerusalem
<DRA>
When
<NABRE>
know
<GNT>
thee
earth
hand
upon
children
let
been
can
<CEV>
Judah
must
time
city
<TLB>
David
place
ye
then
good
take
name
father
among
If
she
great
It
every
This
saying
see
would
brought
way
even
days
says
hath
other
any
Egypt
gave
O
own
sent
two
bring
My
took
Yahweh
Jehovah
now
Do
back
evil
offering
more
life
after
heart
Now
done
through
should
His
live
given
saw
right
heard
holy
eat
nations
many
than
set
In
Christ
word
where
told
words
again
years
whom
fire
love
We
called
water
left
sin
Let
heaven
work
does
Your
eyes
until
death
priest
according
gold
Jacob
how
some
King
servant
All
another
priests
first
A
only
each
tell
off
hands
seven
Aaron
person
together
answered
There
altar
himself
keep
cities
woman
blood
nor
What
very
speak
become
power
shalt
servants
three
long
without
)
(
law
die
same
side
wife
under
dead
As
commanded
brother
face
These
hear
year
old
glory
voice
Babylon
just
food
world
silver
never
sword
taken
hundred
young
head
temple
spoke
found
Therefore
around
everything
could
wicked
feet
family
might
peace
living
became
kings
fear
themselves
sea
drink
Spirit
hast
Who
asked
night
mouth
enemies
saith
Joseph
end
Father
destroy
rest
whole
turn
That
help
near
high
going
offerings
well
here
Levites
mother
fathers
Israelites
Abraham
forth
turned
thousand
therefore
strong
nothing
Why
being
Son
thing
kingdom
much
get
bread
while
gods
forever
descendants
Jews
seen
sins
pass
Him
faith
brothers
light
full
wine
cut
killed
ground
Pharaoh
want
coming
still
daughter
destroyed
body
anger
died
burnt
written
How
send
yet
ever
field
flesh
both
wise
Joshua
stand
comes
four
far
No
praise
stood
sheep
army
whose
tribe
anyone
After
women
month
everyone
grain
tent
unclean
Paul
oil
prophets
afraid
soul
Thou
daughters
Go
find
`
spirit
look
neither
gone
fall
listen
serve
covenant
prophet
behold
She
able
toward
--
worship
spoken
joy
Thus
return
kill
truth
poor
morning
lived
wisdom
strength
leaders
disciples
One
country
Holy
gate
nation
anything
yourselves
righteous
between
five
war
known
righteousness
cause
LORD
doing
Jordan
mercy
waters
Behold
On
little
show
too
why
kept
fruit
angel
cast
Because
having
ways
¶
front
times
Me
places
Temple
save
filled
others
along
Peter
money
obey
tree
'll
At
Their
mighty
wall
mountain
stone
cry
mountains
new
sight
From
offer
midst
though
gathered
thereof
heavens
number
trouble
Jeremiah
ask
lives
east
built
leave
clothes
angry
true
presence
battle
such
believe
part
wilderness
born
began
second
families
To
ancestors
judgment
Solomon
ten
call
judge
answer
always
pray
Moab
third
looked
knowledge
animals
chief
broken
open
returned
Is
works
blessed
home
child
Zion
message
male
brethren
hope
command
burned
wo
darkness
above
master
trees
Those
sacrifice
honor
<MSG>
fell
heads
thine
camp
named
concerning
walk
someone
wrong
Manasseh
idols
inheritance
dwell
sun
think
stones
houses
Isaac
Take
north
yourself
wrath
Ephraim
Hezekiah
longer
clean
Be
hearts
throne
mine
towns
order
Joab
Saul
ready
wind
pay
none
John
laid
understand
ones
makes
build
replied
May
'm
doth
gives
enter
free
receive
Assyria
desert
wood
seek
thus
Look
shame
led
chosen
myself
gather
gates
promise
twelve
used
burn
today
hold
elders
carried
Even
lie
Come
spread
lay
use
bear
kind
last
ark
saved
next
cubits
got
hosts
happened
six
princes
seed
since
iniquity
husband
something
charge
standing
alone
horses
Mount
incense
remember
hate
received
giving
appointed
rule
follow
've
evening
border
town
sister
lord
sacrifices
covered
rich
bless
present
Benjamin
meeting
happen
tribes
salvation
Give
peoples
pure
better
care
break
gift
enemy
sound
twenty
mind
understanding
rejoice
faithful
within
promised
soldiers
dust
deliver
trust
meet
door
seventh
throughout
south
Absalom
raised
Samaria
delivered
fine
Thy
pieces
art
Esau
most
cried
fight
speaking
half
large
inhabitants
carry
birth
surely
human
prayer
destruction
fat
alive
ears
wives
opened
flock
justice
outside
book
hard
sanctuary
lies
false
River
teach
need
grace
Yet
reign
punish
round
enough
sinned
sing
Where
sat
tabernacle
curse
river
cloud
whether
wild
walls
Edom
knew
rise
offered
followed
skin
rain
Gentiles
beast
officials
linen
goes
lifted
court
cattle
Tell
dry
bronze
Egyptians
animal
bow
friends
Have
rock
else
'I
stay
With
palace
Philistines
lips
service
deep
People
Nebuchadnezzar
certain
names
gifts
iron
bones
making
thought
Elisha
Yes
assembly
remain
belong
meat
ram
valley
slave
bad
Daniel
entrance
witness
teaching
buried
ear
1
god
Law
desire
fields
burning
leader
whatever
loved
Make
sake
multitude
small
cover
ate
possession
authority
special
west
angels
slaves
passed
Canaan
commandments
once
neighbor
beginning
By
commands
lead
stop
run
firstborn
wanted
eye
hair
generation
tongue
laws
harvest
lambs
thanks
Of
hill
chariots
See
grow
branches
Whoever
struck
happy
glad
prepared
fifty
soon
Some
sky
blessing
during
Gilead
blind
ashamed
lest
behind
Sabbath
declares
guilty
lion
already
sit
entered
Every
deeds
top
waste
poured
sign
Pharisees
guard
royal
till
olive
finished
Or
Man
ruler
eaten
wickedness
attack
foolish
please
Levi
foot
famine
prison
vision
officers
Are
Listen
dream
bodies
believed
wealth
caused
beautiful
lands
wash
birds
news
sure
Also
table
generations
greater
bed
wings
garments
Eleazar
wait
bull
Balaam
beside
fool
quickly
congregation
best
moved
reigned
knows
terrible
Gad
suffer
whoever
While
Our
Almighty
flocks
fourth
completely
feast
Hebron
forty
reason
healed
Job
powerful
Simon
road
few
Reuben
loud
committed
Will
slain
read
lamb
statutes
church
ca
desolate
punishment
scattered
Zedekiah
'@@
favor
Abram
're
Jehu
rulers
except
eternal
sleep
Sea
sick
white
Elohim
rules
indeed
goat
proud
walked
goats
hills
fled
really
'The
crowd
appeared
following
tents
portion
household
weak
matter
thirty
lot
cup
shut
write
]
hide
inside
placed
horns
wide
villages
plant
[
looking
grass
apostles
buy
rams
stayed
Blessed
perish
vessels
attention
dost
pour
escape
Galilee
secret
beasts
sold
oath
cometh
Praise
Baal
friend
faces
'You
lying
Jehoshaphat
sitting
share
apart
taught
Here
watch
Jericho
prayed
married
fallen
riches
sorrow
commandment
Mordecai
dark
Josiah
testimony
pit
served
continue
flee
guilt
reward
ox
possess
relatives
respect
Remember
prince
Passover
Isaiah
altars
arrived
wrote
entire
rose
cross
counsel
Hear
departed
Laban
stopped
agreement
aside
ordered
talk
song
parts
forget
streets
Everyone
bowed
signs
hurt
tenth
female
pride
—
removed
clothing
disease
broke
accept
held
Instead
Each
messengers
hidden
letter
arm
Get
Most
Lebanon
Jewish
lift
hour
bore
stars
early
Damascus
ran
anointed
armies
followers
sinful
showed
flour
pleased
Valley
brings
safe
captivity
threw
innocent
worshiped
refused
chose
Ye
judges
declare
kindness
dwelt
Put
clouds
prophesy
important
forgive
Noah
beyond
numbered
choose
room
doors
acts
Bashan
Esther
Haman
refuge
loves
crown
comfort
takes
Tent
divided
means
thoughts
certainly
captain
yours
wants
continued
belongs
instead
group
hated
plague
building
Pilate
courtyard
sacred
raise
pillars
past
captured
prepare
thrown
plans
Mary
Amorites
throw
age
High
breath
Tyre
atonement
across
Bring
remained
oxen
ourselves
bringing
Elijah
garden
Can
Did
pain
grave
middle
Zechariah
measure
neck
sweet
kingdoms
spake
vineyard
orders
beloved
established
territory
rod
learn
rivers
inner
fish
punished
Jeroboam
defiled
defeated
property
Please
Only
upright
remembered
taking
Say
ahead
bound
sisters
precious
Selah
sought
governor
smoke
fill
everlasting
Abner
greatly
itself
Dan
ends
close
hungry
shekels
Satan
planted
remnant
lost
Rachel
stranger
grapes
fast
moon
Surely
refuse
steps
path
ruled
troops
Ahab
mount
act
Sodom
manner
shepherd
disaster
joined
ago
Ahaz
womb
piece
purple
hearing
scroll
Jonathan
sides
sinners
Good
red
Not
empty
Many
Amen
measured
consumed
Like
chariot
hid
thyself
perfect
crying
fair
fifth
seeing
Ishmael
dwelling
changed
telling
commander
troubled
covering
eating
produce
change
'This
image
honey
months
circumcised
donkey
witnesses
area
remove
creatures
delight
vine
host
Simeon
shout
wheat
Gate
revealed
tried
obeyed
created
commit
walking
grew
community
bulls
mourning
labor
judgments
rings
Moreover
strike
Aram
clothed
bird
trumpet
stretched
shepherds
livestock
line
eight
bitter
clans
widow
feed
speaks
shown
kinds
rescue
Bethel
caught
quiet
fulfilled
judged
garment
ship
weeping
increase
arrows
religious
talking
clear
foreigners
try
baptized
wilt
later
bought
worked
length
fought
fools
therein
countries
marry
Chaldeans
met
youth
writing
didst
Azariah
rejected
forgotten
sexual
journey
Balak
Its
milk
observe
mixed
devour
terror
Messiah
glorious
lions
blue
Herod
messenger
force
noise
workers
vain
forward
pity
case
distress
Amaziah
captains
careful
purpose
account
edge
reached
satisfied
teeth
rather
camels
violence
plan
worthy
offspring
brass
continually
abundance
Zadok
pleasure
suffering
forgiven
washed
—@@
An
Joash
Yeshua
saints
un@@
wonders
shadow
However
Woe
attacked
heal
Sinai
company
price
robe
sees
arose
drunk
Lot
swords
Ahaziah
harm
vineyards
trumpets
swear
handed
language
suddenly
exalted
touched
Jehoiada
paid
yea
trying
lo
burden
swore
beauty
silent
slaughter
chains
mean
fury
Her
Anyone
adultery
decided
helped
Though
prisoners
cloth
staff
utterly
Sarah
control
crushed
camped
sad
treasures
cursed
seventy
Jehoiakim
needy
Speak
horn
mourn
straight
spring
wonderful
arms
Ammonites
spirits
Asa
praised
test
Shechem
gospel
thousands
miracles
Indeed
different
Naphtali
believers
sacrificed
smote
unless
visit
counted
depart
naked
willing
sending
foundation
fellow
weight
truly
boy
shield
compassion
least
sixth
ruin
tears
curtain
rebelled
shake
consider
victory
yoke
Before
draw
touch
Since
wear
warriors
wish
flood
Judea
tomb
Ammon
Oh
ashes
Canaanites
either
humble
pasture
Beth
Israelite
drive
low
including
started
fighting
prey
pillar
weep
captive
herself
forest
keeps
working
Shemaiah
Just
driven
foreign
horse
scatter
demons
Keep
Ai
Asher
strangers
bare
stick
ruins
heavy
Zebulun
clay
donkeys
corners
lose
inherit
advice
Shall
net
everywhere
images
belonged
future
troubles
Barnabas
sabbath
devil
sell
Again
parents
goeth
trusted
immediately
prayers
Judas
forced
tear
appear
fortified
Armies
minister
dies
souls
stumble
crops
drew
Philip
proclaim
wept
shouted
-@@
Leah
despised
Gibeon
daily
strange
cedar
goods
Asaph
beat
mouths
′@@
search
feared
clan
green
declared
desires
Syria
besides
pleasing
plain
faithfulness
meal
Heshbon
gain
teachings
flowing
commanders
deal
boat
turning
Joram
paths
enjoy
join
Issachar
abominations
widows
barley
report
poles
wherever
praises
waiting
Egyptian
News
feel
province
Uriah
captives
listened
appearance
gracious
preach
Rehoboam
restore
afflicted
prostitute
total
owner
seat
affliction
escaped
count
Seir
exile
synagogue
presented
groups
formed
thorns
sackcloth
lamps
Euphrates
torn
Which
threshing
heritage
fail
redeemed
tremble
Merari
heavenly
decree
stubborn
slew
lamp
former
spoil
greatness
boast
begat
Jew
golden
bury
instructions
tomorrow
reproach
thank
learned
Sihon
hears
Should
Everything
herds
queen
vow
floor
unleavened
honored
goodness
Caleb
horsemen
Lamb
letters
Bethlehem
forsaken
abomination
Thee
divide
guards
scribe
keeping
Jonah
fig
basket
outer
rebellious
safety
arise
Uzziah
allowed
songs
lightning
settled
turns
celebrate
Hamath
storm
tongues
instruction
Turn
preached
calf
stands
virgin
cruel
spiritual
instruments
members
becomes
Hilkiah
move
forces
Shimei
rooms
heat
cease
Kohath
stronger
shine
responsible
Sheba
homes
touches
churches
drinking
suburbs
rocks
bars
redeem
curtains
Rebekah
bases
Gedaliah
tore
thick
Nathan
eighth
Sing
carrying
anymore
majesty
establish
opposite
teachers
oppressed
separate
Amnon
scarlet
dried
falls
Korah
multiply
complete
blow
honour
hunger
older
traveled
officer
carefully
fact
hired
speech
streams
protect
nakedness
remains
thirsty
merciful
Yea
assembled
trap
ought
knowing
separated
fathered
fellowship
Tamar
Baruch
spices
eats
shed
minds
Boaz
devoured
Wherefore
dew
All-Powerful
surrounding
heed
Neither
terrified
leaves
Scriptures
honest
running
singers
Persia
Shaphan
pounds
ordinances
spare
defeat
foreigner
talked
vanity
hail
plunder
James
region
rebuke
perform
chambers
crowds
despise
flow
vengeance
promises
accepted
dear
posts
astray
spear
dreams
consume
waves
ruined
shields
bowl
drank
giveth
profit
neighbors
hates
Ezra
pleasant
murder
worthless
Does
height
crossed
leading
talents
weapons
hearken
ships
Nile
visions
add
disgrace
younger
behalf
bright
Sovereign
planned
shoulder
short
moment
iniquities
amazed
maketh
Hananiah
asking
fierce
desolation
leads
finger
detestable
testify
cherubim
grief
forsake
Nun
treat
abandoned
pot
root
sharp
Elam
Adam
endures
addition
rising
suffered
allow
loyal
Hebrew
treasure
plants
wheels
Benaiah
reported
foundations
Shallum
palm
hot
Darius
praying
begin
veil
ephod
blemish
blessings
Teacher
creature
Nevertheless
Sidon
prophesied
fruits
weary
less
weighed
dressed
Word
Jezreel
wounded
air
form
bowls
scribes
mark
steal
disciple
thinking
worse
appoint
upper
springs
godly
treated
dug
crucified
persons
jealous
confidence
single
borders
vessel
Jehoram
shekel
slaughtered
tower
sworn
included
breasts
Ark
Lo
deceit
using
armed
prosper
common
Sheol
looks
furnace
ninth
Hosts
possessions
'Do
Naomi
Send
comforted
regard
provide
duty
street
thence
valleys
pursue
plenty
prove
slay
Truly
putting
beaten
conceived
uncircumcised
Jeshua
considered
Savior
rescued
nine
puts
yeast
rejoiced
choice
glorified
Never
idol
watching
serving
warned
12
singing
Book
Gilgal
worth
pregnant
Master
rebuilt
festival
lovers
value
dedicated
roof
girl
lots
perfume
preaching
Arise
Johanan
jealousy
sow
eagle
calling
determined
smite
meaning
surrounded
Cyrus
seal
breadth
robes
serpent
fun
tables
proclaimed
happens
Abijah
salt
Heaven
increased
often
Meeting
finds
leaving
snare
likewise
Fear
unfaithful
music
branch
multiplied
fortress
sense
acted
division
—the
overcome
boundary
example
divisions
humbled
course
siege
baby
Jotham
roar
roots
wherein
relations
fully
dominion
resurrection
Suppose
crush
coat
thief
causes
tablets
slept
ephah
beings
repay
herd
Zerubbabel
Tabernacle
locusts
ended
None
cleansed
Mizpah
season
legs
request
hooks
gladness
Red
watched
Kings
begot
Nor
City
figs
defile
sand
winds
sanctified
sealed
loose
cries
Men
Meshullam
sits
greatest
'What
catch
grown
During
tax
added
smell
shouting
agreed
ring
Lachish
Abimelech
assigned
destroying
Midian
Next
sinner
endure
corner
Juda
official
reach
upward
circumcision
question
Place
Name
instructed
anointing
stead
flame
pestilence
Hazael
laugh
in@@
calls
invited
Og
fruitful
sore
Hittite
ancient
big
Has
Jehoahaz
transgressions
deceived
courage
kindled
nobles
thunder
repaired
Macedonia
Timothy
holiness
lame
interpretation
Babylonians
fourteenth
disgusting
Levite
neighbour
loaves
business
vows
Hittites
parable
summoned
drawn
waited
snake
Zerah
stretch
strengthen
cave
chiefs
direction
marched
males
seeking
sixty
base
Later
deceive
ass
20
joyful
beneath
steadfast
spend
Jehoash
knees
adversaries
harps
passing
loins
heap
uncleanness
snow
seized
'If
Tarshish
summer
suppose
gets
understood
Maaseiah
Syrians
teacher
Naaman
coals
dealt
strengthened
skilled
Caesar
restored
tells
sprinkle
whosoever
yes
Antioch
cleanse
dawn
seas
shows
provinces
Ruth
support
highest
Return
spent
abide
exceedingly
Mine
violent
ancestor
pulled
thirst
governors
Day
gatekeepers
Nazareth
thanksgiving
risen
cubit
square
Three
lampstand
although
Nineveh
conscience
depths
opening
reject
distance
condemn
justified
due
wages
Arameans
oppress
courts
Gomorrah
harp
shaken
wave
lack
breaking
freely
—and
wrought
windows
Today
loving
condemned
firm
husbands
Jebusites
Scripture
wounds
chest
execute
repent
prisoner
chamber
anguish
tribute
fulfill
Cain
secretly
decide
healing
Abishai
fatherless
danger
descendant
sorry
transgression
blew
Save
straw
recorded
afterward
re@@
silence
'We
acacia
secure
Once
drove
Gath
Ithamar
Haran
guide
lower
Zeruiah
bullock
reap
marriage
beg
rested
bride
asks
deserted
leprosy
prosperity
Great
pool
swallowed
Arnon
folly
afar
feasts
curses
fountain
settle
closed
merchants
shining
cords
twelfth
haste
borne
needs
approached
Two
patience
council
pursued
seated
breast
hell
mayest
splendor
point
safely
release
exactly
performed
fed
speaketh
prophecy
sex
saves
bands
Sir
black
solemn
Asia
win
warn
purification
however
acceptable
Ahithophel
pledge
yield
calamity
consecrated
sanctify
Jesse
story
holding
required
dove
tested
regular
faint
whatsoever
double
falling
sets
rebuild
Eden
taketh
graves
amount
arrogant
Hezron
tender
useless
wool
spears
whenever
Jehoiachin
plains
Priest
towers
Kingdom
getting
sockets
palaces
Ahasuerus
succeed
sinning
fourteen
pull
utensils
rage
desired
patient
completed
Queen
width
trembling
worshiping
Kadesh
numerous
statute
corrupt
Ephesus
believes
Ask
alike
Lazarus
begged
knoweth
warning
killing
wander
whither
stream
Stand
Silas
Gershon
inhabited
store
vines
ropes
provided
spot
tall
indignation
grant
deserve
Joel
relative
accuse
tied
payment
Himself
Seraiah
tired
defend
dogs
first-born
habitation
ministry
thigh
blameless
kiss
kissed
listed
soil
seem
synagogues
diseases
leather
Brothers
murderer
bringeth
travel
fly
covers
Nothing
boards
burnt-offering
bows
abroad
oppression
bottom
heathen
banquet
responded
twice
Nahor
sickness
result
cold
According
aloud
utter
Asahel
descended
oldest
latter
kills
cedars
dismayed
Peace
awake
sends
fresh
asleep
deny
Shem
demon
records
masters
public
kidneys
surround
grandson
porch
wound
belly
Beersheba
Stay
Ziba
play
youngest
Ahikam
announce
wearing
apostle
executed
pastures
shew
examine
needed
abundant
Asherah
Hadadezer
confess
charged
walks
approach
memorial
broad
scales
contempt
almost
Gehazi
space
likeness
shoot
Amon
rises
remaining
abandon
glorify
nights
finish
Sarai
shoulders
cakes
objects
seems
inquire
Babylonia
voices
strife
integrity
regulations
harlot
Amorite
felt
Shelah
object
reed
pleases
Nethaniah
Pay
Phinehas
potter
higher
facing
Moabites
trespass
wipe
march
father-in-law
matters
start
Love
languages
practices
plagues
Whatever
Write
corn
Nadab
realize
wonder
eunuchs
Caesarea
perished
gateway
won
jewels
encamped
distant
bridegroom
possible
Libnah
Set
hearkened
cups
Meanwhile
doings
hiding
possessed
Canaanite
gathering
Carmel
skies
chased
Any
profane
brag
sandals
practice
agree
Both
purify
ordinance
bind
hole
baptism
jar
Athaliah
nigh
preserve
below
wherewith
Show
stirred
astonished
charges
listening
remembrance
reply
Christian
perpetual
shook
deceitful
skins
sailed
eleventh
decrees
lake
pomegranates
frames
shave
aroma
nest
precepts
Israelis
provoke
answering
further
hundreds
loudly
seemed
Sennacherib
arrow
Eliakim
diligently
Majesty
rejoicing
nature
bathe
Perez
sixteen
disappear
proper
passes
burns
measuring
capture
questions
stolen
eleven
Micaiah
belt
rid
wrapped
accomplished
taste
plot
falsely
Leave
theirs
flight
especially
upset
confounded
Hagar
horrible
rebellion
fertile
valiant
den
smitten
continues
overtake
Ham
granted
claim
position
confusion
announced
recognize
dying
equal
Eliashib
acknowledge
knowest
swallow
actions
exiles
Uzziel
40
noon
Mephibosheth
Was
explain
barren
Finally
decision
Festus
chase
picked
receives
manna
realized
Wisdom
Greeks
About
pasturelands
Ramah
searched
dragon
'Thus
interest
mercies
Artaxerxes
Shiloh
half-tribe
twenty-five
towards
doves
subject
measures
finest
Am
Michael
backs
bag
tread
seeds
southern
fiery
Heman
Out
famous
deed
Stop
pronounce
Hivites
winter
hanged
wast
thither
Nebat
woven
Call
touching
Through
oracle
Mattaniah
anoint
Obed
slow
companions
destroys
memory
window
loving-kindness
owned
discipline
sprinkled
Anathoth
substance
uncovered
awesome
grows
Eliab
Tobiah
bearing
melt
band
stomach
standard
Assyrians
devoted
Rabbah
stir
overlaid
carved
First
statue
boil
Machir
disgraced
satisfy
flowers
Abel
en@@
Hur
10
Whenever
clearly
thrust
Kish
furious
Cush
myrrh
bent
Reubenites
daughter-in-law
cymbals
hang
encouraged
star
lawful
freedom
S@@
Teachings
wedding
testimonies
sayings
Amram
persecute
flower
Nebuzaradan
eastern
beseech
Open
Unto
loss
Greet
ours
hurry
mother-in-law
contrary
Thine
Mediterranean
exalt
pile
military
frogs
slavery
survivors
Hermon
huge
whirlwind
Susa
stronghold
Goshen
hardened
Eber
lament
health
entering
a@@
testified
Would
continual
Gather
foolishness
trampled
fixed
brave
eastward
Meshach
cows
Titus
ambush
countenance
Hazor
succeeded
soldier
stripped
Others
Shadrach
bosom
Amasa
liveth
plead
Arabah
oblation
hit
sin-offering
fault
forehead
Perizzites
purified
Martha
bitterness
Ahimaaz
Jephunneh
Eliezer
Rise
sown
Maacah
worshipped
Elishama
village
Whom
Covenant
Eliphaz
Otherwise
foes
fifteenth
watchman
scripture
island
Gaza
Hashabiah
weighing
ride
Cursed
ceased
doeth
Bani
Grace
calves
redemption
office
persecuted
fasting
roaring
mystery
betray
praising
produces
unable
shade
polluted
clothe
Joppa
Miriam
inches
trip
Rock
faced
northern
s—@@
rights
frightened
A@@
groan
deliverance
'Let
nets
breaks
Rejoice
flames
ungodly
pitched
follows
Priests
resting
Happy
asses
treasury
Although
approval
meant
brightness
nose
Gadites
issue
bears
custom
holds
blows
rebel
Roman
severe
orphans
heights
fifteen
30
Jehiel
South
flies
spreading
gentle
observed
duties
woe
liar
passover
released
Adonay
helper
envy
Amminadab
dirt
Festival
Rephaim
week
humans
Abiathar
tidings
thin
sang
statues
Teach
pots
require
Pray
exceeding
doctrine
judging
spies
faithfully
trusts
refuses
hypocrites
failed
consecrate
grieved
Sabbaths
dung
saving
seer
ancestral
commanding
Bela
accompanied
Seven
virgins
showing
Gog
stoned
afflict
causing
portions
households
sadness
setting
prevail
encourage
prophesying
advantage
dishonor
western
crime
lords
mourned
frankincense
security
100
est
dwells
fame
sounded
shouts
lights
perverse
played
happiness
misery
Amariah
discharge
seeth
robbed
Amalek
tempted
rebuked
evildoers
ing
s—
thrones
inhabitant
poverty
journeyed
Evil
earthquake
believing
denied
tops
Help
builders
Another
Bread
Pekah
seize
dread
Rimmon
withered
bone
Such
Death
Ethiopia
oak
rent
Lift
treasuries
Capernaum
Ephron
armor
shelter
graven
sort
mortal
ability
surface
Negev
festivals
sleeping
labour
Likewise
ting
necessary
welcome
lend
Ekron
provoked
Hushai
numbers
revelation
shore
wither
conduct
repairs
fingers
er
wars
compare
race
immorality
ages
concubines
row
locust
recompense
ministers
thinks
bondage
worry
mothers
Aroer
stored
profaned
warrior
Re@@
hin
50
li@@
Agrippa
Ashdod
horror
insult
notice
happening
seeks
announces
respected
natural
Verily
fortresses
liver
Rahab
Amoz
Among
secretary
eighteen
perhaps
sail
doorway
Sadducees
lamentation
metal
sounds
supper
prevailed
gained
success
e@@
cutting
obeying
strip
wasted
Pharisee
Better
'My
stumbling
scepter
uncover
waist
hanging
Angel
sir
worker
deaf
magicians
Hoshea
roll
begun
2
hatred
growing
Micah
Hebrews
helps
Feast
Iddo
Terah
permanent
ransom
riding
pick
reveal
repair
fornication
crooked
godless
Jeduthun
maid
entirely
belonging
Ananias
tail
finally
Greek
beard
Nebo
Whose
Horeb
trial
hung
firstfruits
wiped
nurse
Prophets
'Why
protection
flying
Certainly
falsehood
Hanan
trembled
Mahli
burial
sentence
ill
sovereign
multitudes
ted
Jebusite
Hamor
stupid
twentieth
se@@
simple
Follow
miles
rolled
kindred
list
burdens
dish
dog
bush
forgiveness
Samuel
Abihu
excellent
washing
period
survive
brook
events
trample
mingled
smooth
helpless
Someone
listens
mention
coast
bitterly
swept
demanded
dishonest
loveth
argue
gardens
abundantly
Hanun
swift
Ah
concerned
Enoch
decisions
successful
directed
revenge
baskets
es
repentance
turneth
section
guests
divorce
Suddenly
cloak
twisted
Kareah
Prophet
wake
Know
thieves
burst
eighty
wandering
lazy
worn
deer
valuable
tombs
staying
abode
mocked
Pashhur
Teman
Mighty
Edomites
d@@
dig
Medes
merchandise
'He
Prepare
cord
healthy
commits
Jethro
Obadiah
keeper
Jazer
error
poison
grievous
Lamech
Watch
New
weeks
Jeiel
Olives
Hor
chasing
traveling
afterwards
feeble
Elkanah
mud
'Who
tithes
weeds
chaff
'And
Ammonite
zeal
deeply
ers
East
ease
affirmation
breastplate
record
shaking
supplication
visited
tooth
Dead
correct
Japheth
betrayed
Stephen
twenty-four
robbers
accused
Jonadab
divine
Cry
celebrated
ti@@
Haggai
whence
cherub
strikes
appears
fit
obedience
surprised
Nahshon
insults
shameful
effect
drinks
crimes
ruling
Remaliah
Kedar
alien
proved
cow
Anah
noble
citizens
hire
arrested
adversary
enters
Consider
watches
liars
centurion
Cyprus
hither
rods
verily
morrow
taxes
wheel
di@@
thereon
fate
Desert
'It
split
welcomed
Hinnom
ordained
late
fastened
Assyrian
Dedan
Perhaps
abominable
frame
be@@
defense
bank
depend
scorn
proclaims
cistern
prudent
Thomas
load
board
warm
d—@@
proverb
Geba
chooses
mankind
besieged
Debir
persuaded
priesthood
render
Kohathites
ma@@
driving
defect
uncle
Shealtiel
oppose
produced
discovered
calm
fears
beheld
Baptist
necks
Dear
lust
toil
assemble
turban
rewarded
unjust
Jedaiah
lover
bags
grabbed
based
center
baked
declaration
i@@
entrusted
cost
Joah
sack
reading
Deliver
anywhere
corruption
note
uses
highway
calleth
Barzillai
filthy
dwelleth
Ramoth
Shephatiah
shot
yarn
Bilhah
babies
Abednego
sabbaths
drop
guarantee
secrets
Apollos
Elah
spared
benefit
issued
lieth
willingly
difference
watered
various
supply
powers
teaches
dreamed
deadly
Riblah
tithe
'When
extended
heareth
blame
greet
de@@
snakes
t@@
opens
Aramean
manifest
wickedly
Well
ignorant
moving
Rome
Uzzi
lasts
wrongdoing
walled
urged
u@@
history
flaming
magic
blowing
eth
prostitutes
trade
amazing
destroyer
overthrow
intercourse
Afterward
articles
causeth
Gibeah
ding
badly
copy
dough
marked
planning
transgressed
closely
Jubilee
ocean
Long
conquered
Bless
Babylonian
elder
mock
bullocks
Rezin
directions
signet
shattered
Human
dedication
Against
3
cursing
craftsmen
box
blown
attacking
bribe
Christians
Ghost
dis@@
spreads
raging
bald
GOD
pluck
wasteland
Peor
timber
Eat
Use
Maker
Maybe
triumph
melted
loops
authorities
Cornelius
Mark
wooden
freewill
Gerar
proof
sweep
Mahanaim
acting
rider
heaps
dip
'Come
Sanballat
Dathan
groaning
maker
treacherous
disobedient
'Look
Reuel
Er
Izhar
ivory
reckoned
repented
1,000
creation
watchmen
highly
Kiriath
rob
gathers
girls
arrest
nearby
mere
unpunished
basin
murderers
pains
dare
th@@
Nethanel
pronounced
oven
Dibon
accordance
wandered
Unleavened
thread
boys
boasting
prostitution
dwellings
jackals
overflow
opportunity
learning
hangings
Shout
easy
g@@
Tekoa
wells
westward
ra@@
Araunah
avenger
onyx
divination
winged
runs
Beor
exchange
rebels
shouldest
rows
la@@
heir
leaven
Zin
district
allotted
Felix
experience
Vashti
wail
Zelophehad
reaches
jubilee
crop
jewelry
d—
Art
customs
P@@
thirteenth
fragrance
sojourner
s@@
Until
Amos
Belteshazzar
dragged
cleansing
freed
bonds
pigeons
helping
member
void
flourish
Rechab
farmers
Jozabad
conquer
over@@
capital
fills
tribulation
Ner
Beriah
thirteen
arguments
teth
collected
holes
Congregation
creeping
correction
miraculous
entry
marries
serves
deeper
terrors
securely
ha@@
boldly
Lest
cares
quarts
vomit
endurance
trodden
girded
camps
delay
discouraged
molten
Abiram
recover
baptize
violently
doubt
limit
conspired
regarding
delights
confident
Judge
grandchildren
hyssop
jail
aware
plucked
greedy
liberty
eateth
Ezer
job
wailing
basins
offers
recognized
'They
dress
tonight
terrify
lifting
direct
Beth-@@
Kidron
Zoar
laughed
Gezer
p@@
Gershom
hunt
Moabite
contend
darkened
Obey
traded
keepers
larger
fragrant
godliness
Honor
wherefore
nostrils
footstool
Zobah
laying
perceive
proclaiming
injustice
ornaments
7
whereof
'Lord
overflowing
equipment
plundered
bowels
70
ripe
interpret
instruct
beds
unrighteousness
chain
Jair
dishes
wing
Harim
Xerxes
raiment
Babel
answers
wore
step
Geshur
openly
Elihu
supposed
Bethuel
earnestly
books
guarded
difficult
m@@
Whosoever
Mamre
6
perceived
insight
strongholds
Sit
expect
tie
colt
hairs
Hanani
'How
'Go
noticed
Andrew
spy
threescore
protects
steward
crippled
ascended
Milcah
Six
meditate
insulted
honorable
guided
smashed
altogether
hall
workmen
decreed
forgot
Asshur
selling
floods
Shelemiah
sickle
trusting
thunders
14
bit
eager
returning
hurried
reserved
Nehemiah
threshold
Uzzah
native
Think
Amalekites
chance
girdle
winepress
contribution
rot
fro
thoroughly
respond
Live
weapon
nails
Elizabeth
Hadad
lovely
debt
Adar
humiliated
complaint
heifer
dieth
spit
rough
mischief
vast
wroth
blast
array
blazing
playing
Wo
obtain
El
Box
dance
confirm
Philistine
collectors
becoming
real
lyre
constantly
fasted
Psalm
occasion
sufferings
Zephaniah
crowns
extend
k@@
shrines
Offer
pole
onto
pierced
Caiaphas
opinion
sacks
Ahitub
Barabbas
dumb
quick
census
hoped
sores
registered
accomplish
Bezalel
Immediately
avoid
ed
impurity
lovingkindness
lyres
Eliel
impossible
complain
sojourn
Immer
lofty
Were
exposed
ts
Dinah
Seth
kindly
trustworthy
stubble
Run
House
greetings
eighteenth
you—@@
gotten
dancing
begotten
roads
haughty
mad
inquired
moth
lifetime
pressed
obedient
Ornan
Rabbi
camel
obtained
firmly
shaved
carries
tumult
Sin
builds
vowed
loosed
stumbled
'Take
size
reputation
otherwise
appeal
Philistia
b@@
Soon
cheat
8
counselors
experts
returns
bricks
trapped
backward
le@@
endureth
Succoth
narrow
'Your
ca@@
Neriah
shone
explained
ointment
showers
twenty-two
believer
Hepher
oppressor
treacherously
coats
stationed
snares
Heavenly
Shebna
Zimri
Meribah
loot
murdered
abhor
Furthermore
4
paying
loaf
cud
knelt
penalty
citizen
parched
several
trained
Salt
Iscariot
Rehob
16
founded
slander
Shobal
Concerning
Remove
fortunes
Alas
breach
cake
Upon
physical
&
reeds
rushed
E@@
storehouses
withdrew
wealthy
fever
Rather
screen
demand
courageous
view
fowl
majestic
couch
Creator
forbid
midnight
lets
state
plate
resist
mildew
sendeth
outstretched
putteth
devise
shamed
Bethany
c@@
staves
locked
accord
create
an@@
treaty
doomed
concern
traps
regions
skill
messages
ly
Tsebaoth
loyalty
goest
spite
kinsmen
searching
sorrows
ri@@
overthrown
drunken
eunuch
pouring
sum
attacks
sticks
press
—that
rear
travail
Redeemer
ignore
handmaid
Saying
serious
wiser
separation
alarm
earlier
fairly
ascend
level
islands
Adaiah
y
Jeroham
Achan
archers
throwing
Early
Ram
coastlands
abound
funeral
corpses
shoes
temples
subdued
North
owl
foreheads
plow
bold
presents
Gershonites
stories
arrogance
united
block
worm
Mushi
sayest
pegs
delighted
Jobab
Cilicia
panic
Jeush
generous
Glory
eagles
Baanah
genealogy
temptation
areas
weights
Zebadiah
publicly
Daughter
twilight
southward
redeemer
exclaimed
th
cured
leper
ta@@
remind
Zabad
jars
keepeth
Ammihud
wondrous
Achaia
Having
moreover
uprightness
favour
Media
wholly
collect
rely
moves
owe
awe
seasons
Bozrah
distressed
Pour
avenge
Menahem
source
complained
wisely
Beer-sheba
regarded
aged
m
infection
earthly
bloodshed
blossom
torment
encamp
nought
hammered
Children
blasphemed
Paran
casting
tempest
Hast
rushing
dishonored
Corinth
ceremonially
besought
Ophir
stole
confirmed
dinner
marvelous
prospered
carcass
leavened
Woman
wondered
Shaul
intended
responsibility
Tubal
corrupted
Belshazzar
concubine
wanting
wagons
Makkedah
5
coins
riders
fowls
Jezebel
sapphire
prosperous
Meshech
fails
cared
Michal
pigs
woke
behavior
11
celebration
speckled
ignorance
obeys
traders
pardon
laughter
Jerahmeel
advanced
feeding
companion
Obed-Edom
Build
spotted
Awake
embroidered
emperor
delivers
charity
attached
residents
Seek
tribal
relief
ministered
—a
Tomorrow
B@@
condemnation
skillful
rode
Zaccur
sailors
offended
smash
Eglon
submit
reverence
overwhelmed
infants
T@@
out@@
Mishael
flows
sells
chronicles
permitted
supplies
pair
Zichri
Kenaz
wage
spoiled
leaf
ninety
resident
withheld
boughs
13
wishes
childless
sour
feasting
blesses
beating
quarrel
Pisgah
lodge
kindle
Onan
Topheth
shocked
Myself
owns
blossoms
Rehum
heirs
approved
fearing
savior
understands
diligent
invite
weigh
residue
haters
Jahath
Sherebiah
'But
Abinadab
Zebedee
Uz
Ebal
sounding
changes
pitch
sulfur
bracelets
Peleg
to-day
Without
passeth
patiently
'A
lilies
co@@
crossing
pattern
displeased
reconciliation
ar@@
Over
talent
pearls
expert
miracle
Water
finding
well-being
constant
gazelle
Kedesh
st@@
Command
gloom
lowly
Jehohanan
Cushite
prescribed
content
Greece
refined
evils
Whether
divorced
farmer
northward
worms
fulness
informed
conspiracy
Ziklag
walketh
sweet-smelling
uttered
peace-offerings
flute
swarms
Ittai
Megiddo
apparel
buildings
offense
shines
terms
copper
idle
deserves
confused
ses
o@@
Gomer
'These
sink
mules
solemnly
despair
Berechiah
manager
enthroned
e
15
cleave
mortals
vinegar
task
sitteth
Hallelujah
courtyards
Arabia
blot
slopes
Adah
banner
9
summon
preserved
Akkub
bother
Rescue
for@@
Pedaiah
Tirzah
victims
Adullam
restitution
religion
baker
consult
Kadmiel
Mattithiah
drag
descend
wax
Wait
Under
rejoices
beam
limits
astonishment
owed
ds
enrolled
y@@
elect
accepts
purchase
bath
standeth
er@@
swears
previously
lo@@
Edrei
thereby
F@@
Jerimoth
reproof
acquired
'No
parables
doest
attend
flowed
da@@
thorn
goddess
olives
Sharon
schemes
party
shewed
flag
self-control
withhold
Nebuchadrezzar
discern
purge
pan
En
O@@
desiring
easier
t-@@
vile
action
pans
wet
planting
canst
cases
compared
twined
18
Kir
mistress
Carmi
Binnui
mire
bend
Ashkelon
'Give
baptizing
joyfully
Malchijah
psalm
sakes
Mareshah
profitable
Hold
private
sacrificing
Beware
advisers
personal
Hide
sa@@
Molech
protected
gird
lusts
Zibeon
sufficient
oaks
merely
seventy-five
carpenters
government
Azmaveth
stirs
Cast
ordinary
C@@
proceeded
purposed
l@@
kid
gladly
eggs
Gibeonites
pen
Magdalene
Uri
urge
pavement
partiality
idea
oppressors
falleth
defects
Elioenai
—to
follower
settings
pagan
Asaiah
engaged
toucheth
bribes
lowest
ba@@
proclamation
opposed
Zilpah
fearful
dipped
derision
Drink
disobeyed
con@@
practiced
leprous
lied
magnified
tarry
stagger
lad
Wake
henceforth
ounces
fullness
candlestick
intend
site
inward
downfall
pomegranate
raises
Anak
related
Arioch
convinced
legal
Answer
hewn
tes
wolves
fold
plainly
Ethiopians
bud
te@@
designs
immoral
reprove
Makir
assemblies
compassed
pours
ites
resting-place
banks
closer
consulted
supplications
Wherever
easily
dispute
—all
stature
daylight
lacking
devices
Wilt
main
finely
shakes
cart
actually
*
frighten
remainder
cuts
plotted
Light
Syrian
jasper
handful
Zur
withdraw
'As
flat
Shelomith
ax
valor
advance
si@@
whereas
H@@
rim
Declare
sprout
Rabshakeh
begins
letting
cure
Huram
grind
Fire
conceive
Crete
includes
damage
push
strive
Samaritan
Blow
quietly
shaped
cypress
magnify
receiving
al
priestly
persecution
herbs
hides
Jared
Throw
lasting
honors
devised
Worship
weakness
Jabesh
ga@@
polished
tion
convocation
sorts
Cut
distributed
unrighteous
lean
Lotan
accusation
sudden
Shushan
herb
assure
vest
peaceful
loses
seats
do@@
flashes
dedicate
headed
24,000
—I
Shecaniah
tossed
Neco
Elnathan
Prophesy
loaded
owners
pro@@
wearied
beareth
committing
Timnah
accusers
err
throat
merry
pools
Gera
Hormah
afford
censer
material
boundaries
bake
begging
satraps
problems
'Where
worshipers
sepulchre
t—@@
excuse
overlay
Aquila
compass
grape
Tappuah
fountains
fleeing
incline
faithless
remembers
pierce
Kill
flew
looketh
Gospel
Writings
Zoan
self
it@@
evidence
25
—you
Pass
ment
seeketh
Jarmuth
storerooms
locks
booths
Right
circumcise
hailstones
ministering
shovels
boats
stays
injured
Jearim
one-year-old
Whoso
signal
tries
unbelievers
Lord—@@
seals
namely
invade
disobedience
missing
shoots
rope
custody
Dishon
beams
design
bite
Sons
Enosh
ascent
Elim
poisonous
purchased
supported
flax
testing
impure
'Because
waxed
arrive
cling
proceed
punishing
pits
questioned
pervert
brake
workman
burnt-offerings
refreshed
on@@
arranged
humankind
leap
Delaiah
standards
occupy
restrained
exist
Year
cubs
Eliphelet
plaster
crimson
drought
permission
ho@@
columns
genealogies
pe@@
consent
hoof
12,000
Thessalonica
devastated
Young
anxious
deceitfully
Ma@@
compassionate
Uzza
allotment
privately
revive
glass
examined
rains
Laws
hating
yesterday
setteth
condition
petition
ous
I@@
quench
ab@@
*I*
Hiram
Obed-edom
Heber
Ar
post
Persians
Unless
deliverer
bond
caves
claimed
vestibule
Ten
maintain
Jeshaiah
Hath
isles
'God
sole
Saviour
pays
Jehozadak
ms
Arba
pushed
humility
rotten
coasts
Gamaliel
withstand
intent
countryside
d-@@
Pharao
experienced
mounted
breathed
friendship
seest
Iconium
terribly
Cephas
Break
plowed
200
purposes
Doth
adversity
gavest
t
argument
believeth
lt
kinsman
Beeroth
Beloved
Ethan
sheaves
Buy
fishes
pale
engraved
graze
severely
Way
waits
sorrowful
o'clock
whomever
intelligent
zealous
breastpiece
whip
cornerstone
Depart
Memphis
paralyzed
spots
Nathanael
Azel
Heth
nursing
Moon
Judaea
prophesies
Chief
Javan
scriptures
Hurry
handle
Gedor
grieve
lowered
toe
knock
seventeen
attendants
homer
demands
flash
Stretch
Being
whore
Joiada
provisions
harder
parted
Methuselah
Tower
beforehand
Ahijah
Flee
forbidden
one-tenth
n@@
include
stink
Troas
Abihail
you—
uncircumcision
carcasses
violet
stringed
Meraioth
es@@
reminder
w@@
exult
En@@
rained
porters
Greetings
exhort
overthrew
crucify
orphan
accursed
or@@
Shammah
speedily
farthest
gall
figure
Ephah
Instruction
drawing
Life
24
Trust
preparing
hoofs
hoping
worketh
ite
scorpions
statement
marching
Righteous
60
tions
forty-two
rooster
uproar
roasted
Tahpanhes
terrifying
Baasha
despises
items
twenty-three
expensive
rebuilding
sware
te
greeting
almond
bowing
quenched
whoredom
serpents
cavalry
Galatia
Shishak
sincere
Beth@@
trick
Midianite
Besides
boiled
beget
howl
cheek
tempt
solid
guiding
devouring
maidens
forty-five
s—the
ings
mentioned
na@@
bar
Samaritans
Jeremoth
emptied
es—@@
well-@@
Hivite
positions
eagerly
bondmen
Oholibamah
attentive
Tabor
rash
birthright
disappointed
weaker
stops
Lystra
realm
growth
decorated
Other
disappeared
Jahaziel
10,000
discover
rush
Shebaniah
cooked
bushes
lewdness
appetite
gray
Enan
devils
Jamin
foolishly
musicians
murmured
column
glean
lampstands
helpers
climb
briers
makest
nests
hence
longed
evermore
loan
dynasty
vanish
devours
longing
Tahath
whereby
non-Jewish
affairs
unintentionally
Destroy
21
earned
designated
wouldest
dispersed
Omri
worships
abides
Shema
swarm
les
cheeks
devout
forests
twenty-fourth
deepest
basis
Abdon
justify
complaining
Meremoth
God—@@
ledge
proudly
pleaded
earrings
ac@@
collector
stripes
500
flint
Ezekiel
ter
Choose
aliens
goodly
'd
thumb
Seeing
allies
shaft
loads
consecration
'There
'Behold
stricken
Arpad
shadows
Nicodemus
malice
doom
Nations
Arphaxad
considers
covet
riseth
dungeon
predicted
transgressors
signed
ling
D@@
boldness
helmet
containing
powder
chew
worried
Shepherd
Aha
greeted
'In
stepped
dangerous
directly
Ariel
man@@
raising
me—@@
mightier
exchanged
sha@@
mortar
recovered
wolf
Sepharvaim
slumber
spoils
Zabdi
lobe
remaineth
magistrates
exiled
jaws
le
Hearken
Agreement
deserts
De@@
Draw
argued
labored
Abigail
dyed
pla@@
excellency
regularly
dim
Till
withers
settlements
waved
Sion
unfailing
Hosea
Libni
swelling
unknown
mo@@
controlled
inhabit
adorned
wit
smiteth
swine
al@@
piles
addressed
ancients
fade
covereth
leopard
Be@@
merchant
faraway
people—@@
forgave
ls
Five
Nahash
instrument
disobey
ceremony
ness
Elders
Chronicles
valuation
musical
companies
proverbs
Ahio
f@@
madness
clever
Judgment
farther
hateth
savor
Still
Rest
shining-greatness
Azrikam
dispossess
banished
binding
Fill
pleasures
Ammiel
Aijalon
Ishbosheth
Sanctuary
sunset
se
Gittite
rocky
dries
mi@@
Oholibah
Aramaic
barns
Shammai
Mahalalel
ward
Far
arrayed
Serug
humanity
key
Migdol
plots
de
diligence
receiveth
expecting
plea
bolts
fuel
pine
desirable
Athens
liquid
exact
hollow
smaller
Pit
enjoyed
lioness
borrow
pursuing
eternity
toes
Fools
display
uprooted
vi@@
ch@@
hallowed
Ethiopian
Ashtaroth
soft
organs
assistant
final
ro@@
tabernacles
wasting
slope
Azekah
wineskins
destined
prolong
dens
Jahaz
libations
Ira
nevertheless
bridle
persuade
perfumes
unbelieving
Havilah
Serve
arguing
Urim
pastureland
smallest
doorposts
guest
Anakim
corpse
adulterers
quiver
entrails
hateful
bedroom
Jether
Luz
Joktan
earthen
raw
tasted
manifested
grinding
injury
eyelids
passage
hem
tip
clap
Reu
sting
Abarim
Righteousness
Jediael
crushing
ded
invaded
sunrise
worst
no@@
pursuers
hill-country
squares
turtledoves
diseased
appalled
selected
he-goats
Josue
Forgive
Wilderness
suck
contributions
guides
feeds
—for
consolation
problem
sowed
overseers
scorched
oaths
Shaphat
encouragement
Dor
sed
them—@@
stump
passion
fasten
Yourself
Shemesh
lodged
saviour
groves
diviners
discerning
rubble
drunkards
depth
violated
harvested
hook
whoredoms
equity
deals
moons
minded
threatened
mob
Very
damsel
painful
ce@@
blasphemy
Always
tambourines
therewith
Chebar
rescues
estate
Zippor
ne@@
knife
tens
prays
—it
Shinar
k
millstone
Tarsus
victorious
wrongs
log
senseless
choicest
filth
lacks
Rephaiah
descending
embrace
Bildad
In@@
giants
Land
robber
unmarried
drunkenness
pointless
Four
lid
climbed
guarding
brimstone
fights
Aiah
lays
Elimelech
habitations
'On
overtook
ritually
scourge
lain
usury
parties
uttermost
drops
Abib
courses
lines
laughs
beryl
rejects
frost
age-during
wronged
filthiness
soothing
selfish
brick
sank
—this
meek
beards
provides
overseer
usual
bottle
mandrakes
clasps
Magog
Elath
Walk
divers
'Get
Jason
com@@
conceal
ordination
Priscilla
Mesopotamia
covetousness
study
weaver
Church
reaching
searches
'Here
Kiriathaim
located
lifts
surrender
counsels
Horon
subdue
bathed
harshly
M@@
Gozan
mysteries
Ishi
govern
Baalah
b
wastes
'Be
feathers
Timna
feeling
'For
reapers
apply
Ephrath
Ain
transgress
Machpelah
Ziph
Zacharias
Netophathite
disasters
nourished
Alexander
Jeconiah
tricked
Chemosh
Parosh
empire
trembles
outward
quarters
he@@
Judeans
Malluch
booty
y—@@
crystal
Se@@
marks
sows
Last
Un@@
permit
hopes
Jabbok
furnishings
me@@
farm
shared
mirth
crazy
coin
Girgashites
preacher
refrain
afflictions
Bichri
Leviathan
gossip
shares
wares
requested
punishes
stretching
sheath
drunkard
wormwood
z@@
lightnings
ice
Sa@@
el
Bebai
Eshcol
cu@@
ruthless
robbery
burying
incurable
Upper
dropped
Ur
Eliasaph
Levitical
fugitives
sandal
bo@@
Rekem
inherited
gentleness
fenced
R@@
mist
distribute
Destruction
sh@@
victim
soles
'Amen
abhorred
confessed
avenged
approaching
topaz
More
axes
Hoglah
Matthew
scatters
Prince
welfare
Gemariah
as@@
span
slayer
skirts
Basemath
dividing
Massah
Hosah
Bigvai
tormented
Twelve
myrtle
Ar@@
counselor
ignored
mute
monthly
measurements
bloody
labors
surprise
le-@@
fist
Ophel
examines
piled
Purim
stores
Cyrene
findeth
Nahath
s—and
citadel
Salmon
pangs
weaned
greed
abideth
totally
emerald
sober
associate
Salvation
heel
el@@
grasshoppers
rank
es—
Moza
twenty-eight
Gabriel
pa@@
molding
Hazeroth
—he
maids
tenths
ties
twenty-third
Ahiezer
salute
Hazar
Judean
flattering
situation
blinded
destitute
familiar
breathe
edges
hunter
cunning
Gaius
Pamphylia
ah
Medeba
one-third
sorcerers
mistake
foreskin
fir
pretend
Shimea
hooves
stocks
kin
hinder
Shimron
dared
formerly
strongly
ambassadors
swell
Raise
plates
deported
alongside
bestowed
withdrawn
territories
partly
odor
forgiving
i
t—
Amasai
underworld
subjection
heave-offering
hordes
Gilboa
23
Restore
Elon
rightly
Protect
plentiful
effort
tra@@
Potiphar
empty-handed
midwives
ex@@
sheaf
sprinkling
laborers
res@@
refusing
harden
ter@@
posterity
Malkijah
Eve
brooks
Bethsaida
Devil
ink
hurting
Pelatiah
Marah
oversight
sh
fatness
ridicule
declaring
taunt
pi@@
tarried
seashore
Ladan
Believe
erected
Lead
mistreat
devotion
valour
Romans
Hanoch
hours
shatter
quite
miserable
torches
gaze
Admah
buds
Sibmah
Jeremias
monster
killer
Achbor
comforts
welcomes
slip
hiss
reconciled
ripped
survived
fairness
bruised
'Then
commend
raven
disturbed
Wail
reigns
Lord—
existed
counting
Othniel
boils
uprightly
Kenan
provision
advised
Con@@
Anything
abuse
trials
supplied
masons
marble
enduring
spilled
prophecies
—but
rests
complaints
meets
Baals
W@@
fooled
inter@@
nearest
alms
Eder
claims
dross
ghost
sheet
Gentile
fierceness
strongest
Pallu
gently
Tola
expose
mu@@
Talmai
wa@@
reveals
bondman
exhausted
gallows
evil-doers
cook
response
pollute
—they
holocaust
converted
to@@
lesson
besiege
Together
confined
Midianites
Jachin
perfection
forts
Chaldea
passions
retain
swiftly
quarter
visitation
twins
over-against
censers
battles
Abiezer
increases
1@@
shi@@
Foreigners
′ah
wafers
firmament
craftsman
apple
decay
Me@@
maidservant
Tema
forsook
leaned
foods
Shittim
entreat
Negeb
surety
bits
bi@@
Achor
sluggard
brazen
Talmon
hammer
uphold
torrent
deception
ve@@
dismissed
appropriate
shape
17
mule
harmful
Dishan
expected
starting
fires
enraged
lap
placing
ransomed
Beth-horon
Cover
destructive
footsteps
Nay
simply
Lud
consuming
hypocrisy
ritual
marveled
Dost
answereth
afternoon
attain
Rehabiah
appealed
determine
ent
woof
fins
tunic
cheerful
perfectly
blindness
c
alert
testifies
ru@@
perfected
inscribed
h@@
handsome
rust
knocked
jailer
unfaithfulness
tails
grandfather
writings
beware
upstairs
affection
marketplace
hairy
Shammua
consumes
discretion
Helez
admit
tools
Mahlah
Horites
renewed
daytime
Thummim
Bukki
requires
scorching
stretches
sensible
thirty-two
Joiarib
ant
inclined
22
ck
inform
hallow
Interlude
r@@
ceremonies
Into
sexually
charging
Ben
grasp
Hattush
bu@@
Nazirite
decides
Mercy
arrogantly
harsh
cheer
warp
Bezer
mediums
hardly
edict
crowned
unbelief
circle
rubies
dignity
Hashum
Angels
selves
despite
Rephidim
Jozadak
me—
stuff
dashed
clusters
min@@
disperse
prophetess
up@@
Hammedatha
Assemble
owls
Sidonians
Nethinim
Testimony
unfair
facedown
fi@@
silk
expectation
Ishmaelites
appearing
neighbours
drivers
Japhia
gnashing
'Is
instant
capable
ze
amen
Hades
Thirty
s
Abishua
pursues
useful
doorkeepers
defenses
Ja@@
im
tons
Assir
provoking
Philippi
mate
melody
thistles
Temanite
leg
balances
ostriches
mindful
grazing
ravines
balance
bragging
asunder
Truth
comest
esteemed
Mortal
ci@@
concealed
E′phraim
Elealeh
lock
stuck
su@@
lodging
absent
'Cursed
Ataroth
contention
Manasses
Seba
disputes
honeycomb
Sheshan
local
dirty
ated
associates
awoke
psalms
tool
hadst
Bahurim
K@@
Zerahiah
blotted
mourners
exercise
Apostles
crawling
rumor
subjects
per@@
knives
friendly
ge@@
Wash
earn
witchcraft
overwhelm
gathereth
tin
motives
l
whereon
cereal
speaker
rewards
barefoot
unit
perverted
sanctification
Cana
Ben-Hadad
ters
blaspheme
whisper
Pekahiah
hasten
draws
ad@@
suffers
stubbornness
starve
Hodiah
barn
Hasshub
st
threats
Ono
arches
distinction
n
Lay
foothills
fattened
Ephrathah
Jehonadab
der
aid
contain
.Selah
Je@@
Ahimelech
Wise
insects
fetters
game
saddled
sighing
betrothed
goings
delayed
Ramoth-gilead
Zanoah
openeth
striking
gt
G@@
So@@
righteously
Beyond
27
V@@
Zohar
Annas
groans
kneel
sash
forms
sparrows
assign
whoso
self-@@
ranks
personally
Kiriath-jearim
drives
il@@
inwards
Oholah
stairs
layeth
o
ge
stroke
virginity
grapevines
straightway
tri@@
permanently
rainbow
rags
pound
credit
moan
THE
restrain
Raamah
units
stealing
balm
mound
foxes
astrologers
treachery
Aven
fourscore
idolatry
grains
ving
butter
g
Ater
debts
confession
commandeth
feelings
Away
Up
dest
occupied
Azarel
baths
entreated
75
reside
watchtower
acquire
Notwithstanding
prevent
Helon
burdened
Crucify
Wadi
Within
outcasts
ch
noonday
neglect
Hegai
quarreling
showeth
tests
Jaazaniah
hometown
Derbe
thighs
breaketh
aloes
revolted
vestments
recorder
population
Horonaim
pitcher
outcry
worldly
mocking
outsiders
murders
Search
roars
Could
fishermen
homage
cherubims
famines
shortened
'Make
partner
jumped
conversation
enmity
Barnea
sharpened
fifty-two
yearling
justly
mor@@
one-fifth
warnings
prudence
breaches
involved
daughters-in-law
Isshiah
sin@@
Women
reasoned
Guard
*ye*
stirring
Repent
stork
fainted
Ulam
Beer
underneath
byword
Zophar
twenty-nine
ders
im@@
pairs
Manas′seh
Hodaviah
Salute
extends
thanked
sailing
wished
husbandmen
Brook
Rameses
Jo′ab
lawless
ves
us—@@
logs
tearing
reliable
lawlessness
cloths
Rizpah
mat
cliffs
bottomless
yellow
exhortation
ending
Sha@@
Proclaim
casts
Di@@
ia
protector
Nimrod
testifying
sojourners
Wicked
woods
daybreak
ir@@
gra@@
Arad
gnats
trespassed
Abidan
Ahira
collapse
deth
swim
Jehudi
dst
mustard
hostility
sp@@
guidance
flees
mantle
trespasses
Golan
troop
mourns
dash
seventeenth
Meshelemiah
vexation
drowned
Hezeki′ah
reduced
Yah
arts
Urijah
represent
assist
Eleasah
purifying
renown
replace
Etham
sale
canopy
persecuting
ins
celebrating
enlarge
History
lusted
stopping
devote
flashed
sharing
quarrels
melts
palms
character
storehouse
sigh
badgers
mb@@
viper
hurled
dly
folds
hunted
inferior
Guni
enlarged
Onam
Jokshan
Sanhedrin
swarming
burneth
youths
Sheshbazzar
embraced
Count
uproot
favored
surrounds
lily
vultures
po@@
harmed
Above
AM
Messenger
busy
similar
'Listen
Celebrate
partners
Carry
cur@@
giant
Ha@@
illness
intelligence
ful
stew
becometh
increasing
Bilhan
bid
buyer
silenced
Mikloth
applies
hissing
Uriel
prominent
ing-@@
first-fruits
dwellest
Little
Agagite
poorest
beer
interpreted
fitting
approve
wi@@
equipped
crossbars
one-half
Jabez
Aristarchus
diminish
Shelumiel
Pagiel
certainty
lepers
Nebaioth
endured
dispossessed
perplexed
offend
controversy
hedge
Oholiab
magnificent
grab
perishing
sincerity
sport
Emperor
Keilah
Thyatira
stiff-necked
Mishma
elite
grapevine
Adonijah
Tychicus
Shur
sicknesses
300
quietness
Must
faded
Argob
cha@@
defiling
repaid
advisors
arrival
stormy
Trouble
aroused
journeys
ary
seers
150
renew
whithersoever
lady
roofs
Hagrites
cts
grope
vegetables
advise
conceited
cisterns
strips
network
marrying
destroyers
quake
powerless
roared
Keturah
imagine
embarrassed
imprisoned
sunk
heave
extremely
camest
fulfil
innocence
Ben-hadad
dealing
toss
Netophah
—not
befall
doubts
smart
Zattu
Epher
Receive
richly
defended
scab
furrows
Corner
fulfillment
insulting
boasts
fashioned
select
cargo
Pelethites
Incline
ve
Try
meal-offering
Elizur
principal
valued
pre@@
sustain
herdsmen
Howbeit
feareth
Sometimes
Ezechias
thirty-seven
ke@@
tetrarch
Shuhite
Korahites
plumb
liked
supervisors
cliff
wins
Zuar
Gideoni
Zurishaddai
swifter
strings
defiles
Shobab
Afterwards
cluster
ewe
adulteress
so@@
relent
cinnamon
sleeps
attitude
vintage
foul
Along
plowing
Hathach
bells
expanse
Announce
filling
'Father
truthful
hearth
heals
nursed
criminals
hasty
Pedahzur
voluntary
capitals
treads
Mesha
tablet
obeisance
unholy
Hakkoz
evil-doing
Terror
Henadad
sea@@
reproached
mistreated
slipped
vanities
Gershonite
honoured
Ga@@
starts
dreadful
'Sir
Shedeur
hearted
digged
bounds
rides
Geshem
sanctuaries
va@@
ing—@@
murmur
builded
gi@@
stained
Jehozabad
crieth
sion
excluded
Observe
slothful
spice
5@@
stray
mustered
presenting
purity
demolished
scale
stock
Arpachshad
thankful
quit
preparation
hardship
Zacchaeus
meditation
raisins
sixty-two
leth
sower
bereaved
dearly
Shimshai
lowland
sites
True
Taanach
profits
rend
garrisons
annual
attendant
twenty-one
allowance
Artemis
departing
raped
color
Present
savour
enslaved
performing
string
sinneth
buying
Half
rejoiceth
eldest
Strike
maybe
throws
life-giving
Field
Mahlon
Attai
neighboring
affirm
noisy
inflicted
descent
visiting
Ammishaddai
abstain
downward
pottery
opponents
mix
jump
survivor
guardian
Zeresh
homeland
article
loathe
cousin
Si@@
Elhanan
whips
Nepheg
Altar
Princes
accounted
ent@@
snared
Arah
luxury
fa@@
closest
forbear
hurts
estimation
housetops
Hadoram
guiltless
platter
Husham
baldness
Paddan-aram
casteth
commended
brighter
arrange
imagination
Nimshi
Cherub
wears
lick
19
treasured
steady
Pathros
generously
2@@
Reaiah
Enter
victories
seth
oceans
skillfully
ea@@
hypocrite
ni@@
razor
prolonged
Samlah
applied
meekness
Siloam
shortly
ging
straps
Oboth
Days
idolaters
crows
fetch
gains
proves
reviled
Jashub
ll@@
ered
individual
Fall
sycamore
gerahs
Beautiful
explore
explored
decent
kindreds
hindered
divorces
ninety-nine
Shuthelah
spiritually
obligation
drip
chastise
consequences
'So
Wealth
grafted
Thebes
it—@@
highways
abyss
examples
couple
contended
hip
persecutors
Heal
whoring
awaits
Wild
travels
beach
trading
Ararat
ation
thresh
mon@@
countrymen
Shemiramoth
delicate
declareth
market
precept
Council
Mo@@
forcing
Bow
despiseth
beholding
Brethren
darling
desolations
sevenfold
soothsayers
y—
rooted
treats
accusing
owes
mockers
Sun
Zorah
reports
separates
stamped
bundles
ver@@
Mountains
counsellors
inscription
'and
Aphek
wondering
nonsense
medicine
…
Melech
Pethahiah
credited
partakers
manslayer
union
water@@
controls
confronted
Naarah
semen
writer
harvests
debtors
Serah
wrong-doing
Alemeth
behaviour
shing
Har@@
cupbearer
comely
hostile
du@@
L@@
insisted
behave
shuts
tend
West
delivereth
growl
treading
overcame
Dumah
general
Earth
foe
Zeboiim
proportion
supports
clefts
Accept
p
thirty-three
guile
ges
speechless
arrives
son@@
Chaldean
Enough
snuffers
Hushathite
alarmed
assured
Hebronites
mature
binds
vulture
proceeds
intending
Lod
disgust
Moladah
showbread
Ish-bosheth
tightly
entice
Kohathite
Eshtemoa
corresponding
disappears
token
snatched
bruise
Zered
whomsoever
favors
Lydda
under@@
sawest
loving-favor
Salma
adulterous
bundle
servile
claiming
Kadesh-barnea
louder
wholeheartedly
doer
Kore
refresh
troubling
goldsmith
spied
honourable
ing@@
meaningless
utters
Le@@
stench
forks
gallons
residing
starvation
temper
strangled
stare
Lydia
countless
Tattenai
outsider
nineteenth
prize
difficulty
foremen
speakest
persecutions
results
Merarites
fifties
flashing
'Please
Mephaath
snatch
envious
reproved
weighs
requirements
sung
bushels
portico
—as
deceiving
desireth
temporary
Appoint
Perizzite
totaled
cool
Violence
Addar
Shelomoth
Hanamel
Libya
scoff
compelled
v@@
requests
oh
libation
police
Ahohite
Togarmah
training
29
120
shoe
futile
lacked
observing
misfortune
laughing
access
ideas
Senir
station
blocks
anyway
internal
offenses
tradition
chop
unity
fla@@
plus
vipers
ying
he-goat
liken
laver
Gallio
endless
Demetrius
possibly
corrected
harlotry
Shubael
buckler
ering
ments
approaches
am@@
For@@
les@@
leaning
tunics
excited
construction
rouse
Pick
adopted
she@@
belongings
Cainan
drained
occurred
deposit
entrances
bill
Joiakim
threaten
Pontius
dragons
harbor
benefits
Child
nailed
op@@
Ish-Bosheth
tribune
residence
ph@@
remission
vegetation
hereafter
'unclean
contributed
Beelzebul
reckon
suggested
confront
monument
graciously
communion
earnest
ornament
cooking
abounding
quart
Persian
Paseah
tolerate
fashion
vanished
God—
Dothan
Sardis
them—
handfuls
rebukes
costly
Azgad
Nazirites
doers
yielded
apples
Galileans
scall
Nazarene
yards
Beth-shemesh
catches
maiden
gu@@
aim
Egypt—@@
crawl
e—@@
devastation
feels
loathsome
grating
stalk
fiftieth
deceives
genealogical
*@@
dull
infirmities
cock
mercy-seat
connected
duke
counts
creditor
Adin
ked
mislead
revere
Giddel
responsibilities
sla@@
knee
Mijamin
shower
car@@
morsel
bushel
preachers
hi@@
treating
Arabs
disciplined
Hararite
Kedemoth
torch
Sell
battering
Baladan
sect
kingship
conflict
Hail
Elizaphan
caring
en
cruelty
Work
delicacies
shelters
Sheep
club
Ab′salom
unwilling
somewhat
hastened
des
ma
carcase
Feed
almonds
thornbushes
gloat
—oracle
Mi@@
fugitive
joint
Sanctify
sprang
ble
omer
gar@@
leaped
splendid
comprehend
corruptly
train
Disaster
original
goal
weather
undone
teacheth
har@@
platform
promote
coal
deceiver
to-morrow
Branch
ans
He@@
thi@@
honestly
prophetic
men@@
soever
mis@@
removing
Berekiah
deserving
Samar′ia
j@@
Bear
housetop
ctions
reins
looted
accusations
*he*
criminal
childhood
ps
comp@@
infant
Beth-el
sacrificial
confessing
ating
struggle
overcomes
restraint
3,000
distresses
publish
forgets
Chedorlaomer
audience
groom
Ruler
erred
Shua
compensation
income
offereth
Deuel
Tobijah
juice
travelers
hunting
lamented
nice
traveler
lea@@
grip
Whither
helmets
brim
league
furniture
Becher
hastily
laboured
departure
Shimri
thirty-five
rushes
ining
lling
comforting
hay
bigger
turbans
hawk
fancy
kine
humiliation
Attack
lonely
35
Cherethites
lit
alliance
Shuah
pleading
Says
bar@@
ravens
delivering
lled
equally
coverings
Shemariah
slowly
steals
seemeth
sowing
unbeliever
backsliding
Imnah
ordain
deceptive
deaths
Naboth
fort
Ex@@
Cause
overnight
Mica
sti@@
repairing
carts
ine
picks
accidentally
leadeth
pping
Pul
d—and
contentious
mill
contained
war@@
Jes@@
ally
psaltery
tastes
per
joyous
channels
worries
400
unimportant
Ashan
buildeth
Herodias
Naamah
cleanness
retreat
vexed
judgeth
175
bloom
killeth
pipe
Bind
granddaughter
plotting
bitten
Dodo
unsearchable
remembering
honesty
enchanters
5,000
guardians
thundered
Ho@@
Hananel
mediator
favorable
gems
imitate
Treat
enrollment
relation
imposed
Hushim
describe
Buz
opponent
vindication
Azubah
Bel
belief
displayed
Habor
producing
Except
horseman
reigneth
treasurers
Pontus
whitewash
ces
hireling
Italy
conscious
go@@
ear@@
Psalms
choked
Sacrifice
'Master
puffed
sewed
year-old
deprive
behaved
Much
disgraceful
Rebecca
lump
Jalam
perverseness
pulling
virtue
ah—@@
Ro@@
tu@@
trumpeters
careless
anchors
Halah
containers
insist
600
mightily
Japhlet
tly
'Hear
Paddan
adore
criticize
prayeth
ously
accountable
Nekoda
angered
blasphemies
cheated
accompany
constructed
pledged
3@@
Than
revolt
Berea
presses
opposes
130
'See
spoons
defied
products
42
emission
250
agony
stubbornly
'O
sings
Phrygia
Bernice
awaken
someday
jewel
immortality
thistle
Ahilud
Mattan
detest
Gihon
Claudius
penny
bleeding
knocks
Maachah
Zipporah
Phoenicia
visible
resides
Ebiasaph
concerns
Ab@@
storage
tation
trusteth
Huldah
turmoil
Arab
yarns
exalts
the@@
evil-doer
Remain
plateau
blush
pri@@
gushed
Naamathite
sometimes
purged
Amalekite
ons
lightly
stupidity
demonstrate
blesseth
menstrual
builder
Jo@@
imprisonment
ess
whelps
smiting
radiant
Mibsam
Gird
filigree
perfumed
*thou*
amethyst
'Bring
Aner
thickets
collar
Hena
Pentecost
Perazim
skirt
Na@@
perishes
Erastus
Annals
wrap
day@@
Malchiah
Outside
imp@@
Bathsheba
promoted
Gileadite
regards
ity
reconcile
unblemished
mocks
route
lifteth
all@@
babes
ramps
coupled
existence
charioteers
'Whoever
ry
leaping
shewn
boiling
attended
unchanging
Bury
fading
diamond
engage
motioned
violate
Throughout
grandsons
'Yahweh
scorner
pursuit
'clean
Zillah
regulation
disgusted
faster
limbs
domestic
speed
stalls
services
'the
firstling
stabbed
reared
evident
engrave
thicket
bites
meth
figures
ors
Faithful
defence
favorably
Hope
type
Ben-@@
Fathers
seizes
Ascribe
continuing
collection
ascending
venom
twist
Simeonites
Descendants
Words
ugly
Lie
barracks
bay
overturned
connection
Jezer
seventy-two
Night
underfoot
colors
Hirah
crafty
attach
denarius
changing
20,000
Hosanna
hereby
manifold
adoption
Miletus
enticed
knocking
sheth
ostrich
reddish
overtaken
ungodliness
date
subjected
hand@@
rubbed
Sallu
infirmity
ance
Pro@@
distinguish
dreamer
Old
'Suppose
ce
target
Geshurites
acknowledged
givest
smoking
longs
Archite
Th@@
buys
Kittim
Abdi
outskirts
belts
Li@@
Yours
Hori
Servants
Anakites
ing—
autumn
oth
tar
extol
confidently
Israel—@@
convert
concluded
Neariah
taskmasters
drinketh
admonish
Ahava
speck
Gerizim
queens
fellow-@@
slippery
recompensed
richer
flawless
mirror
makers
ming
storms
ven@@
beheaded
quantity
comforters
enclosed
shittim
ged
Saints
depends
forgives
foretold
preparations
mocker
brood
cor@@
twenty-seven
marvel
stairway
axe
workmanship
ck@@
Hamutal
stared
Kabzeel
N@@
clubs
Ad@@
vinedressers
Lower
yielding
Orion
reasoning
Booths
Kanah
Perga
qu@@
Shimeah
Ahiman
troughs
starving
enquire
raid
bestow
tongs
anxiety
joining
container
pipes
scorned
fix
contact
alienated
Ca@@
sceptre
reptiles
nobody
cting
sepulcher
budded
languish
brief
rebelling
hits
Mizzah
Stone
'S
Omar
shedding
Hamul
Jarib
desperate
pack
Stephanas
riot
sorceries
overpowered
Arabians
grate
sheets
cheating
Bakbukiah
Bartholomew
Holon
forevermore
perils
Carchemish
Oded
oppresses
procession
manure
4@@
fishing
unjustly
represents
stumbles
landed
reckoning
strengthening
reduce
inspired
wadi
sojourned
maimed
acceptance
land—@@
Sela
meetings
innermost
her@@
als
sepulchres
ravine
lent
unwalled
Bunni
extinguished
muzzle
extra
Trophimus
Zimmah
ditch
Justice
Israeli
hea@@
pitied
blade
Azmon
Tremble
Jeshurun
Galal
shamefully
check
couriers
Weep
ewes
colored
sinews
diadem
agate
veils
good-bye
saidst
dazzling
urging
shined
uttereth
undergo
′e@@
glorifying
horseback
extraordinary
laborer
Pool
regret
dine
relationship
bell
dri@@
extending
mayst
fellows
pomp
lighted
prepares
OF
described
da
Pha@@
Asenath
Thank
Ithran
intently
'Friend
heavier
Mahath
warfare
punishments
45
quaked
Preacher
Jattir
wanders
twenty-seventh
reaped
astounded
steep
establishes
mar@@
discernment
peg
qualified
Manahath
itch
heated
worshipping
normal
cancel
expelled
ur@@
physicians
Bamoth
Chanaan
Friend
shrine
Strength
him—@@
extortion
dissolved
tenants
Gatam
inflict
utmost
soaked
Sharezer
Jaddua
s—all
enriched
Commandments
nearly
Strengthen
demolish
Jetur
adjure
fig-tree
eliminated
Howl
couches
Su@@
committeth
trampling
Maon
staffs
e—
materials
heroes
crawls
denies
seller
Whence
wills
nowhere
removes
Elias
Alpha
Rehoboth
unprofitable
lighten
gleaned
glowing
awe-inspiring
scare
boastful
bla@@
Horonite
Jokneam
revile
En-@@
talks
80
sur@@
degrees
chrysolite
handbreadth
witnessed
Jashobeam
garbage
escapes
Abaddon
strove
She@@
Rapha
Shabbethai
heels
Alphaeus
Lake
sweat
enchantments
Siddim
divides
Hoshaiah
delightful
maidservants
unfruitful
Shelters
Tiberias
relied
recount
absolutely
favorite
Blood
war-wagons
whiter
origin
threshing-floor
chews
Sibbecai
Zephon
childbirth
rip
risk
election
Galaad
El@@
Understand
devious
thereto
excel
thresholds
fortieth
Etam
Weeks
ow@@
inwardly
tion@@
sorcery
profaning
destroyeth
spreadeth
harvesting
prevented
Azriel
pruning
Ahinoam
Kelita
appeareth
cane
impatient
leafy
nail
defender
Ashbel
par@@
Shual
points
thrice
fabric
—And
Ashkenaz
fraud
bodyguard
w
overwhelming
manger
fleeth
mer@@
wo@@
dangers
willows
traditions
Pelet
Pa@@
traitor
contentions
specially
Omega
sentenced
deserved
envied
unwise
law-keepers
draweth
grasslands
floors
tambourine
peaceable
Jah
gazelles
ning
Benhadad
hideth
Moabitess
untie
scoffers
circumstances
pins
d—the
des@@
Hadid
sest
Governor
trance
Pleiades
pointed
weaknesses
continuously
dares
worshippers
awful
Ne@@
Spain
Naphish
urgent
pu@@
strayed
document
entereth
Libyans
Ephesians
che@@
sprouted
verdict
pig
ridiculed
prefer
failing
flattery
genuine
mile
Ziha
requite
protest
event
efforts
worn-out
Mizraim
petitions
Mattenai
saddle
relented
turquoise
contrite
partake
stedfast
tive
sew
hers
bri@@
Ikkesh
brotherly
abiding
neglected
ramp
Gareb
marker
ruleth
kisses
nephew
hardships
grasshopper
Ithrite
bade
Shihor
32
7,000
slack
smile
Chimham
Azzur
encouraging
roe
Things
needlework
evenings
Smoke
bark
valiantly
ants
everybody
correctly
Kerioth
runner
Eliada
balsam
horrified
runners
Learn
crow
Puah
rolling
cruelly
mp@@
rinsed
attackers
fearsome
weariness
sweareth
harem
scarcely
amounts
Presence
Jeriah
commotion
forming
diminished
craftiness
Alexandria
dreaded
tame
glittering
Nemuel
Necho
Slaughter
ates
preserves
Joy
overpower
yard
rites
exists
med
native-born
'Have
Asriel
Nabuchodonosor
ks
esteem
mounds
Whatsoever
ching
asketh
information
pretended
grumbled
soap
Adiel
ki@@
tations
murmurings
greets
faileth
assuredly
accuser
sashes
whereunto
breathing
windstorm
pardoned
grove
Sisera
demanding
jacinth
ens
fatal
Elpaal
sta@@
kite
javelin
Maharai
ved
adding
Between
Bilgah
ently
intestines
batch
offence
Shemida
fulfilling
sparrow
kids
twenty-first
Silvanus
Fight
handmaids
covenants
Mehetabel
scent
periods
vindicated
condemns
renowned
befallen
Shunem
so-called
Fish
tight
prisons
degree
quarreled
mold
besieging
danced
Lo@@
deprived
self-controlled
Ivvah
utterance
mockery
bodily
bra@@
bl@@
y-@@
Synagogue
epistle
mission
Quick
cleared
tal
opposition
heaviness
Pelaiah
heaven@@
torture
Pride
innumerable
bea@@
Co@@
repeat
cra@@
porches
declaration—
dome
Kenites
Mar@@
evildoer
purest
speeches
Benjaminites
wrestled
him—
midwife
discussed
borrowed
Millo
at@@
envoys
occupation
March
scoffer
expense
froward
wafer
fe@@
Shunammite
onward
plagued
necessity
Shalmaneser
Adrammelech
corrects
warming
watering
smiths
Ibhar
highlands
pigeon
peradventure
carnal
molded
discussion
craving
definitely
mixture
God-@@
additional
sling
ot
headlong
paradise
measurement
failure
tur@@
illegal
aboard
Ezem
cted
cla@@
son-in-law
Change
neth
tricks
howling
Igal
lentils
Al@@
—so
raiding
ministration
him@@
'Our
lasted
adviser
Ahisamach
sli@@
sustained
sapphires
covetous
drown
Elishah
exhorted
upside
unaware
pastors
title
odour
supreme
humbly
water-@@
marketplaces
reproaches
forasmuch
skilful
planks
spider
stem
stooped
obstinate
comparison
ten@@
ned
winepresses
administrators
mass
abolished
cing
spending
followeth
Jotbathah
ban
Ard
Large
trimmed
accurate
thirtieth
thirty-six
hasted
sojourneth
kes
sharpen
Meshezabel
Song
two-tenths
Zidon
d
Jekamiah
cloaks
widowhood
reigning
contaminated
structure
dusk
completion
hymns
assault
vail
hurl
Touch
scheme
mast
blazed
7½
riddles
interpreter
weave
digs
craft
bees
Adversary
harlots
candlesticks
two-edged
ribs
acquainted
plated
laden
sixteenth
justification
illustration
whi@@
sca@@
harvesters
debtor
u
pained
ordering
translated
poureth
marvellous
ravished
presumptuously
...
principles
it—
uplifted
grievously
chi@@
keys
veiled
console
rite
invoke
demon-possessed
ct
wrists
fan
La@@
'She
acquaintances
orchard
dy
clods
threat
oracles
Gaash
vers
tic
ren@@
somebody
emptiness
Iron
Mahalath
fence
wick
cumin
contemptible
Forty
breathes
Baalath
patch
Kemuel
Fountain
conditions
necklace
barely
wea@@
orchards
great-grandson
nearer
giver
accepting
hear@@
muscles
′i@@
hillside
register
tru@@
holocausts
timbrels
'After
ction
antichrist
previous
earth@@
dam
den@@
th—@@
colleagues
occasions
gentiles
amongst
mer
delighteth
Toi
'May
purse
organized
gri@@
Kenizzite
forty-four
Jebus
fra@@
covert
lu@@
Shomer
quail
laughingstock
naturally
Sabeans
prefects
breastplates
attained
Goliath
supposing
insolent
Phicol
Galilean
spun
ol@@
fore@@
threshed
butler
Eli@@
rumors
yokes
folded
Tabitha
Aeneas
footmen
bly
Kiriath-arba
Find
influence
burdensome
inn
Rephaites
needle
here@@
tasks
Memucan
Treason
fortifications
diverse
infected
No@@
Miniamin
rest—a
similitude
runneth
shear
installed
ash
hangs
whispering
Thorns
indignant
wont
ts—@@
Preparation
provocation
Heldai
infectious
angle
conferred
Abimelek
attractive
Ephraimites
ere@@
silly
der@@
vats
comforter
dismay
fords
wizards
boss
mightest
Ibleam
Unni
prostrate
scattering
Obededom
accustomed
soweth
Slaves
Azaziah
Brother
goldsmiths
Blind
kest
coupling
crowded
Harsha
rumbling
refine
Wherein
Servant
accomplishments
loo@@
sparks
newborn
troublemakers
distribution
Living
salty
wrecked
shatters
doctors
Binea
Ziza
cal@@
6@@
strictly
revoke
incur
brow
attentively
match
hundredfold
contains
26
'Prepare
formation
assurance
fillets
honoring
plan@@
missionaries
convict
practicing
Rechabites
Ir
longsuffering
Chalde′ans
Y@@
decked
Melchizedek
Promise
Meon
cassia
ounce
clo@@
properly
'Now
elevated
somehow
Ancient
th-@@
'Surely
harmony
psalteries
halfway
pertaining
shirt
retribution
cultivated
homeless
consciences
boasted
obvious
Julius
streaked
hospitality
tolerable
heeded
stunned
pearl
dependent
oppressing
expedient
pressing
booth
generosity
ste@@
'Thou
Janoah
hitherto
Shoot
denying
Salecah
birthday
mating
embroiderer
Add
hart
commission
God-fearing
Separate
worrying
slandered
ping
crowed
28
fortify
published
pitchers
rai@@
desecrated
expenses
llest
bereave
fades
appointing
stalks
reasons
refugees
transgressor
′a@@
Ac@@
announcement
numbering
depended
increaseth
engravings
revived
ablaze
Bezai
archer
simplicity
farewell
Respect
Christ@@
faults
amazement
J@@
fu@@
partial
floodwaters
banners
Ch@@
Punish
Tear
meals
Terrors
farms
joke
earthquakes
Irijah
denounce
h
sponge
mariners
painted
sixty-six
stern
Judaism
driver
await
cal
malicious
seacoast
Ever
damaged
passageway
Mede
Taking
reviling
vigor
prophesieth
Canst
'From
proving
Jehonathan
restless
nether
scraped
Beerothite
work@@
tending
Chephirah
cleaveth
Daberath
leans
bunch
Whereas
vent
Mer@@
Lysias
ze@@
humiliate
armory
doubting
fy
wrongfully
dice
oblations
investigate
ces@@
quieted
leopards
flask
assisted
whipped
scum
adorn
understandeth
torrents
Onesiphorus
U@@
journeying
Ashhur
unfaithfully
lashes
fortunate
Shephelah
belongeth
senses
Foolish
expired
yelled
na
Sirs
regardeth
overflowed
Garden
Uzal
tassels
ser@@
allegiance
creeps
supporting
slaughtering
helpful
Hattaavah
repeatedly
minas
arises
Horse
Ebed-melech
stu@@
extreme
overboard
storing
crushes
Massa
Achsah
Immanuel
examination
lice
Jada
struggled
thickness
seduced
hen
entangled
insides
canals
Manassites
well-watered
Avoid
fork
extremity
mitre
screamed
poplar
Meunites
Parents
Ishvi
sts
fornications
Elea′zar
warmed
destiny
Elasah
Maakah
wagon
unauthorized
edification
behoveth
Jabin
pledges
'Therefore
enjoying
Matthat
miss
lls
Chaldaeans
express
Adonikam
conceit
stonecutters
fire@@
Tel
Arimathea
glutton
fied
relieve
outcome
servitude
spoon
shackles
Deal
shrewd
labours
withal
hewers
harass
manage
erase
splashed
heavily
returneth
Shuppim
herald
chastisement
baggage
caul
pilots
bountifully
tch
fangs
Kebar
petals
Everywhere
curds
kneading
buck
perfumer
devastate
swearing
taller
trough
Food
ashore
Riches
Tishbite
m—@@
dripping
Continue
ingly
Ben@@
hardness
blasphemous
Dung
Shebuel
Hu@@
'All
100,000
Tie
pleads
earliest
excrement
annihilate
happier
i′ah
lawgiver
bottles
convince
respects
captors
Wa@@
Tertullus
half-@@
hater
see@@
life@@
cho@@
braided
Chinnereth
'Are
revelations
Philadelphia
dropping
spouse
blight
protested
providing
Gob
unworthy
Per@@
flags
alabaster
loving-pity
doubled
saws
folding
apiece
gleanings
temptations
Mithredath
blocked
apportioned
Caphtor
Aran
Achzib
Sorrow
announcing
accounts
complex
sister-in-law
Hang
Knowing
forefront
ke
generals
cheese
offices
ointments
victuals
midday
Strong
risked
Forest
confesses
choir
Read
pant
tor@@
reflect
spacious
proconsul
distinguished
garrison
bearer
encircled
'Blessed
exercised
communed
flutes
rottenness
fortune
ar
fifty-four
castle
Huppim
flatter
counsellor
Daughters
reth
robbing
pped
Eldad
stewards
socket
confuse
jug
brutish
Agabus
Bohan
Nahum
defeating
Izharites
foreskins
ed—@@
clapped
muddy
Consecrate
adulterer
weakened
exhorteth
inasmuch
despoiled
readiness
Burn
vo@@
detail
bulwarks
zed
zing
striving
Going
ceasing
l-@@
routed
ignores
skull
Divide
clings
fervent
creep
uninhabited
hewed
loathed
insignificant
fying
haughtiness
charms
conquers
myths
candle
gatekeeper
writes
lookout
Skull
surnamed
Pelonite
hearers
humbles
marvelled
preaches
Esarhaddon
uncontrolled
crosses
Exalt
instantly
swallows
considering
egg
banish
shudder
sincerely
yields
Gazez
lawyer
Lucius
Gether
sections
Seled
Medad
upheld
colour
lawyers
scorpion
Jochebed
fawns
corruptible
Habakkuk
collapsed
Ruben
Tikvah
rea@@
gateways
Tabernacles
lineage
tes@@
pens
replaced
proven
hites
law@@
lip
surrendered
Milcom
Suffer
sixty-five
fortune-tellers
peacefully
thrive
piety
refrained
jambs
Bered
tting
handing
Eli
'By
winnowing
wor@@
reacheth
s—they
selfsame
whilst
adds
sweetness
qui@@
entrust
limb
deceivers
activities
estranged
twenty-fifth
chastened
Plead
attempt
million
Message
tenons
murmuring
sanctifies
fir@@
revenue
plenteous
living-place
ence
hatch
spells
le—@@
suggestion
Mountain
—one
thirty-ninth
conceals
rebellions
tanner
tempered
solitary
wave-offering
wretched
treadeth
enjoyment
instructing
33
cking
plows
Hul
fox
facts
publicans
Smyrna
Cappadocia
Ruach
firepans
imitators
gravel
camping
Elzaphan
nave
Power
ravaged
port
zes
Joanna
Humble
tors
discussing
illu@@
Hate
reclining
adulteries
Sound
Assos
Arkite
bounty
Adullamite
creepeth
war-carriages
lin@@
.@@
consoled
sprung
desirous
lowlands
edst
Forasmuch
iting
unfairly
dissension
patriarchs
wardrobe
ies
millstones
Hotham
Benjaminite
exits
bloodthirsty
eligible
fodder
roast
venison
stakes
seriously
ponds
poisoned
oars
Gold
Geber
hammers
consented
Ophrah
princess
lighter
thites
rendered
recently
lizard
mail
Josaphat
striped
quantities
Sosthenes
partaker
ceth
holiday
Kenath
aground
Nimrim
Nobah
Madai
Noadiah
Behind
Appaim
Segub
Crispus
deck
ensnared
blasts
ty@@
Zibiah
Demas
ambassador
Golgotha
abated
vindicate
10½
Luke
Paphos
vex
ser
chases
bindeth
tasty
Mattathias
Pisidia
angrily
nineteen
annals
Sar@@
immigrant
Imri
thite
brink
there@@
trespass-offering
Morning
ys
Kibroth
treatment
unhappy
device
percent
Baal-@@
threatening
untrue
ravenous
ths
process
grumbling
holders
smelled
excess
goodbye
trains
turtledove
slipping
brokenhearted
fetched
cl@@
ster
Sirion
explanation
votive
prospers
Ochran
blaze
blackness
criticized
quarrelsome
knewest
symbol
Zabbai
Beeri
gardener
Nisan
Justus
Proud
Dorcas
Ijon
Merom
Matthias
pilgrimage
pen@@
Amzi
crashing
Teresh
Harvest
dishonors
Lebo
lattice
truths
escaping
ner@@
Powerful
Potiphera
oils
eliminate
Recab
decrease
Chenaanah
extent
incorruptible
Pahath-Moab
halt
Ishmaelite
apostleship
arm@@
ted—@@
ev@@
por@@
floweth
1⁄2
Nehelamite
omens
lers
conduit
stiff
stallions
quails
papyrus
quicken
individually
darics
Plain
centurions
2,000
win@@
exhorting
groweth
alas
substitute
unloved
artisans
Telem
mon
consisted
summit
Orpah
Ohad
Penuel
peaceably
moisture
sweeps
pavilion
Abishur
Nation
prime
Pekod
Nabal
Irad
Nob
Ulai
towel
Jekameam
Mysia
Hethlon
Rezeph
Luhith
Hauran
Oreb
Helam
Helah
Tahan
expressed
Jemuel
treasurer
Shaaph
Atad
leadership
*we*
penance
Sudan
recall
Gadi
trays
misled
ves@@
Nephilim
intense
dishonour
Thanks
ce—@@
consumption
Pursue
Matred
Netophathites
ened
Carmelite
off@@
Release
et
serveth
lah
bearers
aught
devises
devoureth
removal
Ephod
raisin
Explain
traitors
magician
nay
Conaniah
store-houses
nettles
overflows
throng
slanderers
abounded
carnelian
script
renamed
limp
selection
ad
th—
delicious
tempting
ou@@
web
Zepho
roam
inmost
separating
beggar
explaining
babe
'Leave
impose
Shepham
allied
'Yes
enabled
stri@@
sa
roughly
Helkath
restores
plastered
whistle
adored
Evi
stretcheth
inspect
debate
Bithynia
Overseer
Zedad
Eldaah
impaled
celebrations
Publius
Tou
Strangers
ler
holdeth
Escape
Doing
defy
free@@
observes
suffice
Ehud
predictions
perversion
—who
iled
spurned
thirty-eight
ig@@
As@@
furnished
location
nard
ched
Chenaniah
cen@@
unstable
brea@@
accuses
Judahites
acquit
—because
agreements
ds—@@
obligated
Ra@@
finishing
appointment
murdering
nourish
waged
sheepfolds
Jakin
invites
whispered
aunt
likes
Shillem
Around
crew
'Tell
Nethaneel
haven
noses
jah
wonderfully
bidden
Adna
Elishua
shock
progress
ankles
heardest
pottage
Ber@@
Absolutely
'To
presently
Malchiel
Moriah
Hammon
Dagon
Eshban
chests
Zophah
Ozem
ceaseth
Ishbak
Bilshan
Didymus
Ezbon
Medan
Pithon
Adummim
Taberah
Amittai
Pethor
Tirhakah
Meshillemoth
Tiras
hostages
untying
Sheshai
thirty-seventh
Azazel
approves
spi@@
amid
Ginnethon
drink-offerings
strap
Lemuel
rampart
Belial
forsaking
peaks
throats
constellations
writhe
father@@
rever@@
fragments
husks
Zedeki′ah
eventually
trim
king@@
scar
stony
influential
Lebo-hamath
ridden
firewood
superior
remote
7,500
Inside
x
Jehosheba
cracked
carriage
departs
waterless
horde
All-powerful
wentest
Ashpenaz
Helper
Zicri
claws
three-tenths
engraving
chastised
educated
—those
assa@@
lace
Baalim
tre@@
ripened
Chaldees
hu@@
Beelzebub
lined
lends
circuit
fleshly
Koz
beautify
coral
India
ttered
mortally
successor
sions
Shobach
cub
admitted
solve
Cor@@
Mourn
forthwith
Knowest
Gederah
perishable
description
Ara@@
grieving
Anab
Rogelim
headbands
Cushites
Adnah
shorn
Nephtoah
Arvad
Hahiroth
Mehujael
haunt
Wine
trod
'Son
snorting
stag
Sheva
chopped
ners
ss@@
Theophilus
swung
transformed
Either
Rulers
deeps
mint
Merarite
Bo@@
agrees
Swear
betrays
spin
practise
Pahath-moab
cru@@
predecessors
Laodicea
terebinth
mite
head@@
Sedecias
ensign
retreated
Mor′decai
Beside
reserve
amend
principle
he-lambs
abhorrent
assistants
e-@@
depending
voluntarily
Something
perseverance
Ge@@
rate
lovest
dishonestly
shooting
conspire
whirling
gla@@
scattereth
stall
Ezion
thirsts
Cease
—even
Israel@@
—in
range
Beth-aven
Edomite
gang
holies
deliberately
handled
judgest
grudge
unawares
refreshing
triumphed
Gittaim
overjoyed
ambition
Helek
Hammath
Friends
Remind
disabled
Moreh
sons-in-law
Jaakan
heretofore
Test
Kirjath
Madon
Tanhumeth
buttocks
Hymenaeus
Sheariah
Zetham
Ananiah
undefiled
Duke
Jabneel
anathema
Zimran
31
menservants
foal
Ahi
sheweth
Bethphage
tter@@
learns
enti@@
pictures
scrape
lings
Cross
loincloth
spe@@
Blessings
fists
earth—
Free
brother-in-law
veth
Abida
ations
strict
slapped
somewhere
annihilated
roused
shrink
Jehosh′aphat
mistakes
Eli′sha
enjoys
studied
gs
adder
incited
sympathy
Encourage
Join
refiner
sive
recesses
ver
mightiest
hinds
hal@@
tness
attire
sedition
grumble
customary
beatings
breed
marches
34
reaping
chained
Ahlai
multiplies
moveth
25,000
ns
drink-offering
Peleth
tokens
channel
questioning
cre@@
Abed-nego
ah@@
undergarments
cell
arouse
Tidal
Amraphel
trash
Zaavan
allows
temperate
flaws
Haggi
stirreth
Haggith
wishing
paper
Cozbi
Jehdeiah
Sarid
Ether
Ephlal
stately
Jonas
inexperienced
carcases
Moons
embalmed
back@@
Nahaliel
overturn
Wi@@
dregs
this—@@
Zerahites
fortunetellers
unfit
pointing
eagerness
Ebed
deserting
tribulations
Circumcision
Juttah
pagans
knit
Dodai
cked
bor@@
timbrel
$
hedges
90
handling
vanishes
choosing
Libanus
arisen
way@@
pleas
despising
activity
urine
affrighted
bothering
God-of-the-Angel-Armies
beans
contract
fewer
blanket
repeated
overcometh
Z@@
avail
parting
withstood
exclude
graceful
remedy
begetteth
Reach
raged
affected
Beginning
Hadarezer
suitable
palate
consist
one—@@
startled
bemoan
persuading
:1
dictated
moral
assassinated
foremost
mina
wallow
congregations
Zemaraim
Avith
Adbeel
Anaiah
peace-offering
Jairus
Jetheth
Zabdiel
Eri
Abital
Ithream
Shuni
us—
Sered
Shashak
Eglah
disobeying
Eshton
Azor
knitted
brightly
Alush
Salem
Melchi
Dophkah
delusion
y—the
futility
fidelity
Doom
discussions
gores
Nisroch
Tob
Onesimus
Roll
'With
af@@
privilege
disorder
Tabeel
with@@
imported
Trans-Euphrates
Acacia
straitened
Tiglath-pileser
Darkness
Nicolaitans
raiseth
meats
yearly
cro@@
Making
Cushi
missed
thed
pushing
disputing
Pur
broughtest
levitical
discuss
myriads
juniper
Moresheth
palm-trees
manservant
unusual
Eliseus
Jeho@@
carpenter
borrower
sharply
ir
8@@
bur@@
sweeter
dollars
Nebuchadnez′zar
tribunal
Provide
eighty-five
peeled
ari@@
rainy
mid@@
immigrants
pursueth
Eshtaol
Bad
compel
land—
scourged
winnow
cloudy
waistband
sittest
uncertain
Mibzar
intercession
Looking
doorways
discourse
Mizpeh
Areli
Chilion
bucket
Azaliah
well-known
opposing
forty-eight
moaning
Jahleel
2:@@
lightened
Kolaiah
flourishing
Shamir
aromatic
challenge
ches
Ithiel
ws
sojourning
Dev@@
Hearing
Mered
saveth
800
awakened
fatted
well@@
Meunim
briefly
Debar
Corinthians
Chorazin
daubed
tters
hew
fowler
Ke@@
dill
stain
tenderly
frightening
dawns
sift
'At
Da@@
robed
legacy
tyrants
associated
notable
tended
lamp-stand
layer
Achshaph
steadfastly
detests
Tiglath-Pileser
forty-one
bucklers
pres@@
reverent
lender
Beth-lehem
bs
Enjoy
brutal
Noph
address
directs
disclose
lan@@
tha
Talk
ri
seduce
acquaintance
hello
Jeshimoth
—will
cleaved
Tra@@
charger
intimate
Paltiel
designer
Fallen
supervised
mirrors
seventy-seven
h—@@
Zi@@
Eliam
Pinon
Magdiel
Bedad
Joha
Hothir
Mahazioth
Jakim
Abimael
Madmannah
Ashnah
Sheleph
Matthan
Jarha
Diklah
ines
available
dunghill
False
Halak
Amok
Jerah
crash
Jaaziah
drenched
disturb
histories
insolence
Maacathite
′a
Vision
regain
Wall
privily
raided
coriander
Forget
alter
Hermes
Abba
Gudgodah
accurately
Izrahiah
losing
music-maker
canceled
Par@@
marshes
sunshine
waiteth
Preserve
madest
Honour
Smite
je@@
—if
gripped
non-Jews
imperishable
mixing
proceedeth
cleft
Maacathites
sor@@
acquitted
impurities
grants
Rosh
conducted
Family
Start
common-land
likened
year@@
landmark
70,000
handles
tragedy
ani@@
thorny
broidered
dea@@
student
Jehoiarib
eloquent
ba
shewing
marrow
Ezion-geber
ined
errors
disputed
hilltops
52
Areopagus
Thessalonians
supervision
Thyself
henna
paneled
Gibbethon
Iram
spokesman
dness
Besai
Joktheel
Calah
Evening
Punon
Hezir
Uthai
reckless
nativity
revi@@
lifeless
Gedi
yonder
Jezaniah
usually
Sismai
sorely
carve
misleading
favoritism
recite
Giloh
closing
Zalmon
wounding
addeth
habit
satisfies
Reba
smeared
pressure
Shophach
ty
betraying
Anathothite
sto@@
Silver
Gi@@
churning
artistic
avoided
deacons
physician
invisible
participate
retained
cage
perdition
cummin
smoothly
Shi@@
ening
chastening
repays
kneeling
transgressing
requesting
valuables
performs
lation
washbasin
stomachs
fatty
Aramites
vicious
—what
fifty-three
reaper
citadels
ents
tures
shes
navel
Redeem
despoil
kissing
trace
executes
eyesight
ja@@
Res@@
presidents
pleaseth
drain
repents
toll
secured
87½
brown
Zechari′ah
Zealot
selects
hol@@
gloomy
Elamites
maid-servant
ponder
nation@@
wards
Supper
Second
cate
takest
flatters
Joshbekashah
taunts
Mallothi
Dinhabah
Masrekah
Giddalti
cer@@
Ama@@
leaveth
savory
parent
pathway
Harhur
Horite
fitted
Almodad
Eltolad
Hazarmaveth
Gederoth
transfer
thirty-one
fo@@
Sal@@
110
brier
expiation
Joahaz
Bozkath
Isaias
rib
Galeed
Hallohesh
elderly
Hareseth
shriveled
Josias
dragging
perversity
intentions
convenient
chaos
id
consumeth
tremendous
emp@@
ref@@
mote
steeds
grain-floor
Buzite
stoning
thundering
satisfaction
posted
silently
plane
'Saul
disguised
The@@
4,000
rashly
Jehoaddah
Grant
-el
springing
lurk
tamed
tiny
wanton
hind
home@@
glorying
on—@@
shouldst
pertained
girdles
22,000
quarantine
unlike
insomuch
strait
endowed
rowed
erect
players
fables
enslave
encompassed
surname
elements
lawsuit
descends
stated
depressed
armour
il
Josi′ah
creates
Eliathah
overshadowed
'Well
Shilonite
scar@@
Emim
Coniah
imaginations
Shimeath
Naharai
viewed
Ribai
Mishal
brotherhood
sated
Abiud
er-@@
Zarephath
Zalmonah
Ju@@
idleness
calmed
shutting
stilled
senior
hunters
Abi@@
refuseth
Sword
7@@
Calneh
David.
fret
sharpens
soundness
dwelled
Mattanah
fee@@
Gebal
picture
Kibroth-hattaavah
Car@@
Nimrah
getteth
Noe
Deuteronomy
Gennesaret
ll
bountiful
climbs
brides
120,000
Riphath
firstlings
Aramaeans
Mahseiah
prune
stamp
Augustus
h-@@
kiln
curseth
ped
we@@
fiercely
um
again@@
Enaim
wakes
darken
discerned
Ocran
smear
Curse
carriages
Timotheus
Scribes
Che@@
Zikri
'—@@
fleeting
Cherubims
Sam@@
iling
mourneth
observance
administration
impart
crumbs
imputed
dawning
reads
toiled
moths
other@@
Joas
mulberry
predestined
wipes
cour@@
representatives
fishers
700
Summon
lush
displeasure
simile
husbandman
Eloah
profess
Bukkiah
Barkos
Keros
Mikneiah
Elzabad
Darkon
Gazzam
Plant
fours
them@@
Seventy
Padon
Rissah
Zelek
Rithmah
Gahar
Hatipha
Hattil
Bakbuk
execution
three-year-old
whereupon
Eliud
Ada@@
spill
one-fourth
enlarges
crafted
Hobab
is@@
Jeuel
unwittingly
voyage
Examine
famished
ascribe
Rhodes
Hanniel
sojourns
constrained
ore
three-@@
ft
Michaiah
overlook
colours
ration
mes@@
displeasing
exacted
Shu@@
singer
excessive
Ca
hailstorm
immortal
defilement
Said
gated
banquets
mountaintops
Zeus
shineth
doe
spectacle
cross-@@
multiplying
—with
eater
Drive
track
ousness
430
lintel
disguise
Deep
outermost
stumblingblock
gnash
revealing
awhile
high@@
Slay
enable
chant
designed
menstruation
swoop
fallow
wrong@@
house@@
protecting
robs
panels
foliage
childish
loans
Agag
people—
cracks
Hariph
Ahiam
stability
long-@@
contribute
Soco
teachest
foam
limited
hymn
requirement
outstanding
gro@@
denarii
cemetery
Room
Spread
injuries
hearest
admonished
bondwoman
Kedemah
Pirathonite
cult
tings
galleries
875
vomited
Jahzeel
arid
dukes
horizon
preferred
vial
Zillethai
rejecting
surviving
bloodguilt
vale
Shechaniah
thinkest
hugged
Diana
Fair
128
fluid
attempted
closes
Baal-hanan
quakes
day—@@
Enemies
Jehoiakin
shaven
reaps
hips
calamus
grounds
feedeth
fli@@
Pashur
iah
obscene
wanderer
bough
exploit
ger
manifestation
Tebah
scream
archangel
broom
Wonderful
Elymas
Watchman
Syene
Casiphia
Jahzah
'An
200,000
drench
Asherim
encourages
abused
chasten
peril
far-off
Move
sons—@@
Nogah
mysterious
departeth
isolate
cheweth
promising
Mahalaleel
stru@@
satisfying
Kedorlaomer
visitors
brilliant
wines
scoffing
submitted
Begin
Maaziah
fooling
newly
stewardship
obscure
medi@@
Israel—
Hatita
heaped
Neziah
Hashmonah
Moseroth
Mehida
Kehelathah
ils
Hakupha
'Will
Makheloth
Haradah
+God
dedicates
leanness
theft
bridesmaids
preserveth
Ba′al
1,@@
don
fare
liquor
splash
aries
cutteth
Eastward
god@@
To@@
Jezreelite
bal@@
cloven
effective
bow@@
dra@@
flogged
Comfort
se—
disappoint
Commit
Setting
Following
Beat
vapor
restoring
Sadoc
refining
investigated
Leshem
cornet
apportion
caps
prowl
furthermore
taunted
au@@
foursquare
furiously
world—@@
defraud
charmed
pounding
tares
har
doubted
Atonement
withholds
delegation
geth
snuffed
ath
Baptizer
softly
conversion
storeroom
snatches
twin
billows
prostituted
Seal
Father@@
'Peace
inheritances
cultivate
thunderings
Ru@@
kneeled
slu@@
Methushael
Sinners
asps
griddle
cy
gers
calamities
chair
Eli′jah
converts
waists
Azotus
parcel
particular
Waters
e—and
doctor
Tabbaoth
Sotai
aright
attempting
slayeth
calculate
mountain@@
fashions
kinsfolk
disposed
joints
star@@
openings
Share
Southern
beautifully
Tha@@
mornings
baptised
Fe@@
occur
impressive
common-lands
convicted
Number
Kishion
terrifies
Zeboim
astonied
Almon
rages
Shaaraim
badger
settling
sen@@
Meonothai
supervisor
ited
jumping
forefathers
shutteth
Tophet
bothered
Hazar-@@
disp@@
breakers
bel
antelope
Spirits
wine-@@
'Today
Foxes
fifty-five
Basan
thanking
Go@@
Arabian
oneself
Shepherds
raiders
minute
forsakes
Senaah
teraphim
jaw
farmland
ever@@
Attend
lewd
Ba@@
behaving
riddle
mated
whitewashed
frequently
Zaphon
haircloth
dense
ang@@
ban@@
lair
ances
Ahihud
stra@@
outwardly
youthful
sher
rare
perisheth
reproveth
choirs
Hasupha
unthinkable
Hereby
Soldiers
sufficiency
Eliahba
ster@@
breached
caterpillar
cover@@
offensive
expression
beats
pierces
holden
model
executing
sparing
rims
slaying
wood@@
stillborn
gaining
coffin
charmer
avenging
Socoh
cherubs
9:@@
intention
carving
grasped
lime
knop
Geliloth
resolved
overthrows
attending
Nahalal
scoffed
payments
Laadan
Shaddai
sardius
Jerobo′am
wheresoever
Spring
Baal-Hanan
fl@@
householder
hamstrung
man-servant
jo@@
alright
Ishvah
defending
supervise
Uphaz
wink
Azarias
Meribbaal
majority
nu@@
kin@@
garland
hare
markets
outgoings
examining
pilasters
pedestals
Knowledge
Ho
fire-offering
Us
gg@@
Jaasiel
hut
kah
plunge
proposed
ars
enlightened
excellence
Raphah
hero
supp@@
Ishmaiah
gore
spat
interests
Hashabneiah
sinew
Rogel
Shake
Folly
Untie
Tigris
spelt
condemning
undo
well-fed
sparingly
hesitate
founder
tyrant
say@@
know@@
wisest
liable
languishes
spark
baking
collateral
unlearned
comforteth
ly—@@
Reubenite
monite
mou@@
Zac@@
–@@
betrayer
confirms
betroth
blasphemes
maintained
watchful
Eli′@@
unite
Avvim
rented
winning
ture
venture
perpetually
mah
shu@@
bul@@
cks
thah
mes
allocated
purses
Shadday
intends
Helem
ensnare
war-@@
city—@@
1000
town@@
dreamers
taxed
bunches
lesser
137
Twin
Shaveh
salutation
scabbard
caravans
recessed
1:@@
fting
El-@@
beginnings
even@@
thumbs
hardens
Judges
enlisted
evil@@
tor
frustrate
Prisca
'—
Ish′mael
seekest
wholesome
beckoned
sages
Highest
principalities
Render
Giving
Over@@
marriages
expel
assessment
projecting
gazing
shiny
1,254
accompanying
Harbona
Ahi′@@
types
two-@@
disciplines
governing
divideth
36
gloriously
Hor@@
Sapphira
crack
shaketh
Shethar-bozenai
s-@@
commitment
sellers
exp@@
conformed
Too
Joshaphat
acknowledges
Burning
evi@@
discourage
physically
12@@
es—the
surging
probably
time—@@
confound
dar@@
strengthens
Mardochai
shofar
Achim
Ellasar
Peniel
removeth
Aholibamah
grass-lands
65
fies
watcher
oft
stretched-out
Scatter
stages
can@@
gged
potsherd
Kerethites
Eutychus
127
encampment
representative
ble@@
Defend
Pergamum
sub@@
rou@@
reminded
promiscuity
you—the
of@@
Wives
od
waving
Carefully
Beth-zur
disquieted
dart
sar@@
distort
furnish
Play
chicks
sands
men-servants
:@@
don@@
composed
director
chamberlain
thing—@@
plowshares
abolish
pouch
Grain
Azari′ah
liest
objected
ts—
consecrates
fro@@
Tekoite
gossips
flooded
challenged
earns
crouch
50,000
milled
Barsabbas
Husbands
fin@@
Shethar
projections
sorcerer
Terrible
Using
smith
Bicri
ere
sweeping
Goiim
scru@@
tank
44
gallon
administrator
sacrificeth
society
Temanites
theater
tempter
incorruption
Gur
Lion
aloof
Hundred
tal@@
butchered
devising
awl
steadfastness
inquiry
creating
bargain
Broad
x@@
severity
survives
fighters
confirming
Inasmuch
boweth
wayside
ard
'Even
stiffened
Rule
wider
neighing
richest
pertain
practi@@
flanks
governed
18,000
-offerings
doorpost
Anointed
ber@@
upholds
Forever
gluttons
sue
frustrates
reel
'Every
embracing
accounting
sneer
tent-circle
exceed
exalteth
r
you@@
men—@@
Correct
Shemuel
fal@@
arrangement
Zereth
Jehieli
Hushah
twain
treason
melting
preceded
encampments
cli@@
leveled
Beker
eal
phi@@
le—
overlooks
hearer
suggest
talebearer
blamelessly
cri@@
burnished
'One
Es@@
Abronah
meddle
Ravine
Chelub
ramparts
revoked
thirty-second
medium
beholdeth
sorrowing
disclosed
durst
Tarry
testicles
99
darkest
Jehallelel
rude
abandons
admonition
Rebuke
accessories
invoked
settlement
twigs
extinguish
'Love
incredible
pt
—do
Bezaleel
—your
quota
gleaning
Antipas
dwellers
hospitable
sieve
fulfills
lish
glance
Pi
kindles
Malchishua
Baal-perazim
stea@@
Sheerah
Do@@
wrathful
lessness
bred
Caphtorim
injure
revered
orderly
stab
necessities
joins
drinkers
details
sustains
clave
births
plays
caldron
landowner
ries
Excellency
drying
gorge
Melek
smelling
melteth
21@@
insi@@
shores
Ze@@
sses
Someday
truthfully
ims
deceased
Laish
bedchamber
miry
Greater
Elisabeth
offences
sheep@@
administer
spectacular
River@@
earth—@@
escorted
reverse
doted
decorations
Shobai
Jashar
Po@@
exploits
ravening
Ki@@
Lu@@
dishonesty
Rekab
Danites
shar@@
brick@@
stank
Jerusalem@@
—four
cells
decorate
Sukkoth
′im
crave
'Israel
roes
searcheth
Achaz
mped
darts
furbished
burners
groaned
hopeless
appease
teen
Hell
Baal@@
ner
lazuli
armor-bearer
desecrate
sunrising
instructs
ced
forsaketh
ceases
choke
Eliehoenai
blossomed
mea@@
pace
annulled
ten-stringed
representing
ai
fatlings
lending
staring
ineth
changers
grandmother
shameless
suit
lute
decline
by@@
Near
flu@@
creditors
pal@@
edifying
skip
ariseth
deviseth
checked
heron
lustful
settest
wombs
paws
consistent
defi@@
scabs
plummet
strengtheneth
War
40,000
'Arise
overgrown
h—
disorderly
person@@
instance
fish@@
bandaged
undertake
reservoir
algum
Reed
positioned
morsels
transferred
Enos
ambushes
Baal-zebub
skills
carriers
scared
bats
interpretations
144,000
intermarry
doorkeeper
Jarah
vehemently
seventy-three
Warn
perversely
pr@@
tends
grateful
Michmash
bolt
'People
weighty
dependable
Shepher
za@@
Cities
vesture
volume
selleth
fairest
daughter@@
sion@@
withereth
dumped
weeps
Abide
Core
KING
Fine
Cretans
faith@@
conclusion
Latin
Avvites
tempestuous
14th
haul
carvings
discord
magnificence
bandage
guardrooms
importance
meadow
bat
Ludim
stiffnecked
appeased
considereth
Consequently
Shemer
6:@@
elsewhere
kicked
redeeming
comm@@
end@@
Eltekeh
Gibeonite
'That
Everlasting
apron
overlooked
ans—@@
Emmaus
ff@@
predict
sleepeth
spiced
Judah—@@
excitement
tenant
perceiving
Beerah
valid
sively
ali@@
—his
Jambres
streaming
recompence
dainties
undisturbed
impoverished
Hassenuah
op
Benjamite
Zorathites
massive
Eglaim
Pi-hahiroth
Jannes
divinations
item
light@@
Aser
heeds
enquired
wove
unharmed
comfortable
millions
repulsive
them—the
dictation
Girgashite
adulteresses
plunged
commissioned
crumble
envying
llers
m-@@
gross
App@@
Pile
resolve
Birds
completing
hundredth
Nergal
affect
Alvan
pha@@
everyday
watery
'Ye
wayward
arriving
engulfed
enthusiasm
trans@@
imagined
deser@@
subdues
counselled
unruly
banded
sources
paint
blaspheming
Achab
zz@@
—is
folk
s—that
rideth
app@@
overtakes
Arbathite
reparation
came@@
swollen
winks
embroidery
Roi
rolls
vat
Ebed-Melech
gleaming
oppressions
successfully
grand@@
Vanity
Pi@@
smoother
lations
interior
baal
Unclean
Beracah
gush
36,000
chamberlains
Rich
barred
plaza
visitor
accident
10@@
Naph′tali
lengthen
Cha@@
alcoves
603,550
ninety-five
affirmed
historian
Lebaoth
joking
—whether
ep@@
proofs
stable
ous@@
wra@@
deposed
Bene
desolated
gullible
issues
cormorant
virtuous
sheds
dainty
Perath
packed
dreaming
'King
stomp
pretext
Beth-jeshimoth
Sabteca
allowing
Macedonians
hinges
s—to
Hophra
trembleth
Understanding
crea@@
forbidding
Hew
congratulate
harlotries
t—and
quote
sleek
defends
ce-@@
s—a
possessing
avenges
in-@@
submissive
charcoal
roo@@
Shepho
smells
Abiasaph
muscle
Record
flooding
counseled
tract
uni@@
ker
gl@@
cherished
die—@@
needful
Sara
smo@@
ana@@
Zaccai
byssus
staggered
ac
wash@@
relatives—12
fainting
Promised
reddish-white
thinketh
stove
Jez@@
lighting
Baal-Zebub
oni@@
poets
travailed
cti@@
canal
fifty-six
pinions
breeches
reference
wreathen
flared
Mix
lifeblood
Mel@@
tallest
Anna
unlawful
Kiriath-@@
Rab-shakeh
outnumber
sparkling
rafters
sprouts
justifies
defer
brand
ball
disqualified
Cheran
tying
gnashed
Arkites
eyewitnesses
campaign
forty-six
sights
sinks
apt
Zoheth
Sallai
scaly
scorns
reputed
holdest
resisted
Tyrians
troubleth
Gamul
Erech
charred
Jehucal
lapis
obstacle
redeems
fastings
insurrection
keth
chancellor
lleth
Stolen
breakfast
encounter
sendest
Trembling
affections
brasen
Zabulon
nurses
miseries
Forsake
transport
pur@@
anchor
dates
Harness
palsy
hop@@
accordingly
Blessing
sovereignty
stout
aring
inlaid
Barachel
evangelist
canticle
merciless
warms
spoiler
itching
insane
gli@@
-tree
great-grandchildren
ruddy
recline
handiwork
leased
slanders
misleads
anxiously
Anoint
owing
cleanses
Eventually
lessly
Synagogues
pretending
spares
enormous
inflamed
112
executioners
Decree
dawned
weakest
live@@
any@@
gaunt
well-beloved
a-whoring
unleash
offering—@@
ghosts
dearest
oa@@
circumference
idolatrous
convocations
Akan
Semei
raining
Hypocrites
on—
ment@@
Hezro
rays
1¾
rubbish
Act
tilled
competent
mutual
gourd
Jehoi′ada
burner
smashes
Hemdan
sunlight
webs
chaste
meadows
—then
equivalent
day—
hornets
maggots
wanderers
appearances
disregarded
shoulder-pieces
foo@@
marred
sledge
crossroads
deferred
idolater
Iphtah
Wickedness
mit@@
trea@@
warns
four-footed
drags
knead
potters
emb@@
rattling
Urias
Baana
forbearance
Spare
coveted
slips
grand
'Not
underground
rival
puttest
conception
shearers
Karnaim
bray
Akrabbim
cutters
solemnities
att@@
patrol
jobs
Chosen
energy
Meronothite
St@@
resound
seventy-four
pries@@
subsided
Weeping
dealings
strays
engraver
tar@@
troublemaker
blasted
Ammah
portrayed
traffic
favorites
soot
grape-field
Beth-hoglah
twisting
proposal
eli@@
Loose
9@@
independent
Beth-peor
Merodach
Esaias
'Oh
lance
yeth
carbuncle
enclosure
buckets
hasteth
Lo-debar
Jerusha
'Drink
unquenchable
sle@@
selfishness
realizing
Lahmi
foun@@
wiping
hearkeneth
Ce@@
blu@@
shades
Jabesh-gilead
rooftops
kick
peak
Clap
Dimon
shovel
honey@@
walkest
howbeit
provender
irri@@
Discipline
Lions
frustrated
Malachi
ther@@
threshingfloor
Lazy
isle
Des@@
Pu@@
q@@
submission
pertains
monsters
rumour
Sleep
bru@@
seizing
plunderers
lifestyle
far@@
Straight
ancestry
bends
resulting
certificate
mble
Temah
hou@@
Ger@@
zi@@
pelican
Rain
Sprinkle
dances
relate
lor@@
Coming
dered
jeopardy
Cleanse
bruises
Jahziel
Apostle
store-house
Notice
undertaking
towering
300,000
Canal
Eliphelehu
falcon
ani′ah
stoop
reproves
ounded
Heliopolis
copied
123
decorative
disloyal
yoked
spaces
washes
artificers
active
prepareth
Jo′ash
mingle
wring
hel@@
displease
hand-@@
recovery
door-keepers
tanned
Clear
specified
bran
taker
scorners
noises
Diblathaim
Cenchrea
travaileth
standest
Honest
Dis@@
Hacaliah
corded
i—@@
bewail
brags
dealeth
unintentional
railing
wineskin
testament
replenished
undertook
Han@@
ean
face-to-face
ruining
clung
registration
happily
sters
str@@
boun@@
gen@@
ankle
Turning
tered
disa@@
coun@@
weepeth
Caath
hurtful
unseen
resists
ovens
liberal
ruby
thir@@
liberality
controversies
species
commending
cy@@
rowers
briars
lifeboat
mischievous
Zeb′ulun
stings
felled
creator
foreknowledge
'Fall
doubtless
Is@@
twenty-second
summons
impudent
ty—
battered
ab
fruit@@
downcast
Figs
nobleman
dowry
relieved
rotting
borrows
blamed
ey@@
uncovers
trimmers
outlands
sinking
Vi@@
pan@@
bursting
costs
Fifty
you—you
collecting
cial
lity
acacia-wood
intercede
catching
willed
Counselor
strain
glow
cream
scheming
granaries
loosen
madman
Neri
nes@@
incensed
presentation
ene@@
overrun
differently
Philemon
mercenaries
dering
prospect
Mes@@
undertakings
sil@@
Korahite
Amramites
overshadow
current
disagreements
establishing
deviate
Angle
cup@@
Table
allot
harassed
Uri′ah
silversmith
referring
Had
'my
slaughters
endeav@@
symbols
warred
ry@@
Amazi′ah
bodyguards
—every
priests—@@
Micha
Beth-arabah
amber
quartz
—from
drunks
melech
opinions
ops
bakers
Gilonite
offering@@
persistently
greenish
low@@
Gannim
Az@@
straighten
affair
horse@@
quality
sucklings
Sh@@
hatest
provokes
slap
reporting
Churches
vine-garden
Settle
millet
entreaty
holder
conquering
secretaries
footed
verified
Faith
overlooking
Mach@@
cousins
wails
End
life-@@
'Cut
focus
sim
Prove
cucumbers
wed
rendering
Purify
Shalmai
depraved
unclean@@
bondservant
Withdraw
En-rogel
foaming
Phoenix
lawsuits
Raham
Eshek
watercourses
whirlwinds
travailing
insect
outcast
Poor
fornicators
—how
run@@
zer
fined
smen
excused
luxurious
execration
declined
wildly
surge
Really
morally
threads
Become
districts
mutter
untimely
tramples
Sur
administered
Alvah
Revive
stedfastly
weaving
reproacheth
protective
Kirjathjearim
overwhelms
bringest
cou@@
unlimited
dealers
defileth
ripen
unpeopled
Abi
onites
temp@@
Maim
illnesses
'Return
ness—
turtle-doves
Guardian
Clouds
awaiting
nuts
Sunday
sou@@
hidest
consisting
leftover
peculiar
dump
considerable
consecrating
Amasias
mers
ably
sheepshearers
encountered
cobra
s—one
soli@@
cringe
esi@@
Gadite
muster
char@@
hamlets
ninety-six
Temp@@
Aholiab
evaluate
spilling
swaddling
float
Shemai′ah
Sinites
inspected
confiscated
Imlah
relating
depravity
Merib-baal
Toward
Endor
chestpiece
Anger
Collect
Ships
ash@@
comparing
Shan
victor
cankerworm
three-day
phase
Peradventure
stake
warmly
odious
stomped
Hill
onite
deathly
Heled
Pharez
wise-hearted
Thick
readeth
restrains
abhors
minate
ruinous
ness—@@
Bethhoron
communicate
unripe
dan
deputies
reminding
thornbush
Nobody
commends
Jeshanah
Assuredly
Saph
separateth
tossing
nullify
Time
remembereth
universe
uppermost
pit@@
gate@@
Wor@@
perverting
indecent
Aman
fadeth
notorious
Jehoshabeath
Mnason
obscurity
Amasiah
riverbank
skipped
Tekoites
claps
too@@
Telassar
Ji@@
Boil
'Brother
Pelusium
mammon
burlap
Mara
Peresh
intercedes
rudder
rightful
Jehoaddan
cypresses
crane
Huri
harness
Pri@@
uttering
striketh
poli@@
mar
Macedonian
Favor
disregard
ston@@
Inquire
clamor
unction
ama@@
wield
long@@
growling
unfeigned
inflammation
Joakim
hornet
swooping
tured
tt@@
Ham@@
Glorious
half-family
invent
Y
spurn
yelling
developed
sar
bro@@
Towns
Addi
vine-gardens
suffereth
Rephah
sanctifying
Jude
oil@@
Mehir
53,400
Cu@@
Ahazi′ah
40,500
hunts
recounted
nee@@
crackling
dro@@
lamenting
gor@@
individuals
sulphur
supporters
Sepher
ra
involving
ignorantly
ag@@
bier
cleaned
Is′sachar
nourishment
vicinity
swing
our@@
holiest
Part
saluted
signifying
headquarters
Instruct
telleth
encircle
tely
Arvadites
repayment
odors
Execute
conver@@
enjoined
Warriors
consolations
restoration
—when
criticism
conspirators
Gadarenes
widely
obtains
z
gleam
Se′ir
seasoned
satiated
peals
Shekaniah
implements
38
damnation
Lahai
blockade
naive
willeth
abusive
dents
fringe
distributing
Shaalbonite
cs
Hazar-shual
Hethite
winnowed
Amorrhite
worshiper
eve
coastland
operation
leviathan
Bigthana
joys
accumulated
We@@
—no
Welcome
feasted
dent
Ela@@
hor@@
Elisheba
worthwhile
Claudia
riots
blessedness
vigorous
jubilant
resteth
Malchus
unnatural
cious
medicines
perplexity
faints
implore
clutches
'Jerusalem
lotus
fle@@
Shobi
persecutest
Attalia
Neah
Archelaus
Harran
Abdiel
surpass
willow
Salu
Arnan
bishop
Jahdo
JESUS
anite
Sheresh
prized
Festivals
Harhas
blazes
cus
Kain
God@@
gaps
Gath-rimmon
Tiglath
refute
Shame
Manna
leftovers
arrangements
Jehoi′akim
suppers
fellow@@
advocate
sed—@@
races
oned
dereth
mixes
Gallim
donated
God—the
largest
'Show
kindnesses
s—you
surpassing
resin
staggering
l—
Jorim
pact
Resheph
Telah
Salah
Esli
Cosam
brother@@
Tehinnah
Paulus
Comforter
Men@@
love@@
lumber
paved
missionary
cle
stretcher
injures
droves
groanings
erased
filleth
Abia
strategy
high-@@
shame@@
ctive
keepest
first-ripe
butcher
aforetime
lion@@
papers
Clearly
delivery
pint
Sea@@
esti@@
crags
crucible
'Anyone
colorful
W
dimensions
flock@@
shod
overthroweth
Pla@@
seam
guiltiness
loftiness
stems
reflects
—both
musician
-ha@@
bandages
Asa@@
demonstration
disgraces
Zemarites
necklaces
elevation
goads
drawers
woodcutters
Timnath
obligations
Arodi
Heroes
levels
'a
grabs
ds—
Nethinims
dad
monuments
succeeds
Zakkur
mounts
Ser@@
angles
appendage
Certain
deceiveth
he-lamb
Bocheru
Gra@@
disobeys
flieth
bellies
pp@@
ur
stage
Michmas
wrongly
Harodite
guilt-offering
Hazar-enan
Ramothgilead
overmuch
regi@@
narrower
Chi@@
presume
advi@@
crib
Anamim
wonder-workers
whelp
lacketh
yearns
greedily
flog
Gileadites
Virgin
wayfaring
abase
tain@@
Alleluia
decayed
trail
tassel
scholar
kindling
infirm
passionate
lon@@
tter
war-wagon
surpassed
Hephzibah
bewildered
goatskin
fainthearted
violates
Bar@@
*they*
calyxes
bulwark
Shimon
Persis
Hammuel
Pudens
Hathath
Rufus
Phlegon
Naham
Hermas
Nereus
rainstorm
Tertius
replies
overhead
666
Linus
Horam
marital
Gaham
moistened
Stachys
Locusts
me—the
Hesebon
salted
ligh@@
Vengeance
Houses
uncleannesses
245
jurisdiction
escort
backslidings
mainland
Doubtless
suspense
Aharhel
Emites
busybodies
hyenas
covenanted
Hadassah
¼
Jaroah
Jeshishai
Strip
Diotrephes
Sabtah
blinds
Standing
tingle
sheepfold
lye
Allon
frequent
cest
staggers
inventions
puff
manners
lavish
Ptolemais
resources
sooner
wert
Zethan
negligent
forty-seven
Jaaziel
bragged
doorframes
trickery
oppressive
knowledgeable
Worthy
neighborhood
Uzzielites
swa@@
reasonable
Bethshemesh
mobilized
equality
grips
now@@
Regem
Coun@@
scra@@
Vindicate
cles
way—@@
sundown
Ahoah
Rhesa
Melea
Horses
causest
Blastus
Sergius
750
t—the
safekeeping
Maath
print
Moloch
Beno
stripe
'Call
stadia
halves
unique
agreeing
tangled
children@@
banishment
beeves
walkway
whorings
solemnity
Ana@@
ose
Hatred
achieve
furlongs
head-@@
one—
rioting
bed@@
ski@@
circled
pious
indicated
One-third
Whereupon
'Pay
earlobe
shipwreck
Acbor
flux
f
alway
licentiousness
warring
bes@@
unending
vault
whet
lating
priceless
construct
Hamathites
restricted
Kishon
thanksgivings
Ahimoth
dresses
slings
adjacent
embraces
Ebedmelech
deposited
enchanter
Writing
battle-@@
Dress
quarry
Hilkijah
twig
wes@@
invading
admired
upwards
communal
terraces
steadily
Homam
AR@@
curved
multiplieth
paralytic
sentinel
fleece
Beth-shean
sho@@
Ramoth-Gilead
delicately
Mushites
puzzled
anybody
Tah@@
re
Mahlites
persisted
Hodijah
argues
settles
eness
meantime
ards
double-@@
one-@@
fright
thro@@
reprimand
Kimham
ran@@
oversee
Holiness
mp
avoiding
righ@@
Wrath
Geder
sixty-eight
overlaying
pers
aides
donations
ungrateful
altered
mps
Eight
look@@
continueth
evil-@@
watchers
gad
broad@@
Lightning
Aristobulus
Deborah
Achaicus
Jehu@@
Porcius
Fortunatus
Narcissus
Azbuk
Apelles
Patrobas
Rinnah
Julia
desperately
plump
Philologus
Eubulus
loom
atone
Andronicus
Ziphah
Asyncritus
normally
languisheth
Im@@
Reumah
Zaza
ravage
392
Heleph
commendeth
Pain
Ara
Ovens
Increase
flinty
Patara
picking
moth-eaten
Adriel
Defile
Resist
brushed
Mitylene
hedged
miscarry
Syracuse
Michmethath
Cleopas
Puteoli
Bedan
talkers
fathoms
recited
defeats
gallery
tumultuous
revealeth
unveiled
sprouting
shearing
consulting
Fi@@
Cook
hard-hearted
sucking
advisor
vered
polls
cit@@
5:@@
bearable
suckling
quaking
ul@@
inspection
amiss
wouldst
appointeth
Palal
Jecoliah
Jabal
Bera
00
influenced
Commander
reconciling
fervently
frail
sers
shapes
trustest
olive-tree
memor@@
ship@@
persist
abandoning
Fellow
oun@@
doctrines
lamentations
Ochozias
phe@@
wil@@
status
Distress
females
pertaineth
granting
Gorge
e—the
Zophai
head—@@
Circumcise
healeth
tering
undertaken
Milkah
combat
full-grown
Obal
Zela
tableland
treatments
Elyon
Emath
bending
Mis@@
Humans
seahs
ves—@@
hires
lee
ob@@
dwelling-place
Yesterday
ately
plough@@
fores@@
Pleasant
frontlets
sun@@
arch
plumage
coloured
denounced
Strive
Ammi@@
sur
surplus
purer
beseeching
ded—@@
discharges
identical
stingy
Bazluth
preacheth
mounting
ed—
shor@@
Lebanah
Ammi
Kephirah
Jacob—@@
kikkars
useth
Hilki′ah
Seest
fer@@
cedarwood
Hai
Lehabim
d—all
Naphtuhim
Libnites
IS
daughter-towns
good-@@
sk@@
immovable
Com@@
assumed
mocketh
she-@@
intimidate
roadside
vials
Offerings
conqueror
girding
Parah
blighted
backwards
tant
Altogether
substitutes
els
elites
bandits
melons
compe@@
core
—everything
awaked
embarrass
beguiled
seah
writeth
cors
shun
soup
girt
done—@@
believ@@
Manaen
bursts
Kir-hareseth
gray-haired
parallel
Nicopolis
clear@@
renewing
waver
newness
Magdala
habitable
rapidly
Iru
Timon
complacent
Artemas
Ezri
ely
Athlai
Judith
hitting
Sargon
Diblaim
Dragon
Molid
Patmos
poplars
Susanna
Tiria
Aziza
Sheal
Elead
wan@@
Kelaiah
Ardon
Dalmatia
Amal
Shapham
Sibraim
civil
Lahad
Tryphosa
Jeremai
Eunice
Ramiah
Crescens
Ahumai
regained
Naam
Legion
Zenas
Ethnan
Zebina
Samos
Jadon
summoning
Zair
3¼
spitting
contradict
spoilers
Carites
carefree
ree@@
Sinful
signified
copulation
'Alas
peace@@
tab@@
Mattatha
Asherahs
Myra
—my
productive
Jubal
plundering
tted
ty—@@
dging
Naggai
Abdeel
stal@@
Catch
inging
cobras
impressed
vine-@@
gazed
blo@@
divi@@
Tarea
parade
Merar′i
torments
Levites—@@
Zarhites
snout
introduced
countryman
sol@@
irons
tro@@
blemishes
masses
rai
Whi@@
Casluhim
stan@@
presumptuous
Pathrusim
clean@@
Moadiah
er—
bravest
heth
Azaz
nations—
pondered
agents
Seer
Deceit
lavished
slime
weavers
reclined
Ishbaal
Man@@
good-looking
reser@@
Porch
life—
bir@@
frustration
deceits
Nebuchadrez′zar
graving
'Set
lodges
impious
'Stand
forever—
sal
sewn
extensive
ribbon
self@@
llow
Ish@@
mountainside
sepulchers
Adoni@@
nor@@
Rivers
afore
Ai@@
sen
interdict
believest
thereunto
Kor@@
disposal
project
En-gedi
bal
thi
Adjoining
Migdal
Baalzebub
designate
Sheshach
cally
revenues
—its
procedure
sustenance
parks
kites
establisheth
ttering
craved
eighty-seven
popular
exchanging
central
bathing
ic
screech
communication
authorized
sackbut
Olivet
Hobaiah
fuller
cuttings
repaying
misuse
pha
pupil
lai
Nazarite
kingly
ownership
aprons
—yes
grandeur
childbearing
renounce
Instantly
darnel
Zorobabel
tches
rations
nazirite
Am@@
Skin
confesseth
demonic
bloweth
Pileser
quick@@
Palti
sigh@@
Pau
fared
harmless
beg@@
discreet
Eternal
'John
Thebez
—only
bas@@
contentment
new@@
hoopoe
Her@@
annul
weed
os
si
slanderous
'Some
withholden
succor
warden
rounded
′rah
Zaham
Ahban
Hobah
Jeriel
Eker
Ulla
Shinab
Jesher
Rhoda
Lycia
Rohgah
Jeruel
Sosipater
Anub
relax
Armoni
Berothai
Zeeb
Adlai
Zebah
Zalaph
Hadrach
Nicanor
Hara
Damaris
Dionysius
unclothed
Cushan
Manahathites
Shitrai
Baal-zephon
Ashima
Harum
Parmenas
Aretas
Eshbaal
Lois
unreliable
Illyricum
gain@@
launched
Philetus
Tyrannus
Hanes
Tartak
Betonim
Apollonia
Theudas
Ashvath
ammi
Nibhaz
Antipatris
Ziz
dle
West-of-Euphrates
Chloe
Nahamani
Rhegium
Bimhal
Birsha
Pharpar
Jerioth
Bunah
Pithom
snowy
Oren
Mishraites
Amphipolis
Tammuz
Nain
Molek
Carpus
Shelesh
Maroth
Jorai
profiteth
Nephtali
watereth
northwest
Herodion
justices
thefts
vation
Bishlam
apes
Tilon
proselytes
Olympas
Beri
comparable
Shimeam
Putiel
colony
discarded
Madmenah
expressly
swimming
comple@@
Haggiah
clou@@
-gate
king-@@
Plans
cul@@
80,000
readily
1,500
incinerated
Rev@@
requiring
Allow
possesses
instructor
harpists
deployed
fried
blasphemer
lasciviousness
Gu@@
Zeri
Meshek
wicke@@
exalting
Ri@@
hite
Ethni
rebuking
siegeworks
Kishi
statements
Actually
Addon
sternly
Zuph
invitation
Sent
Shebnah
irritated
lated
M
peacocks
Ephraimite
linger
hungered
free-will
boarded
n—
Sometime
consecrations
gods—@@
Ithrites
map
proceeding
dd@@
—let
TH@@
0@@
cherish
beset
screaming
owers
confer
Sichem
disagreement
inadvertently
Ithai
exterminated
Jaala
Hagabah
altar@@
law-@@
Salathiel
tracks
capturing
incident
tunnel
eased
ades
attendance
Jacob@@
yed
hurricane
41
re-@@
nationality
thorough
bribed
—three
menorah
slide
cent
Amorrhites
Hi@@
marsh
allotments
compasseth
gold-@@
noted
disturbance
carousing
investigation
beforetime
thirty-four
command@@
moles
body—@@
arti@@
proselyte
Merib-Baal
Sophereth
Streams
hoary
prospereth
allo@@
catastrophe
on—the
trousers
rumblings
function
mouse
exi@@
shallow
incurred
Gabaon
Jer@@
oppresseth
dial
Mor@@
sel@@
Beth-ha@@
bes
Kartah
Paradise
contest
sledges
Suph
uncovering
absolute
respite
spikenard
'Honor
shirts
ron
mesh
calyx
carelessly
vin@@
deciding
extortioners
prospering
Neri@@
pitiful
defected
pretense
flavor
untied
uncut
liness
hung@@
expounded
Shim′e-i
tone
oth@@
30,000
halftribe
ly@@
mare
collects
down@@
conclude
reform
overturns
Sephar
horrors
spiritists
stumbling-block
Bal@@
Tonight
llows
goblet
straightened
Sychar
pac@@
horribly
favoured
cures
wallowing
southwest
Shavsha
Zar@@
slanderer
cteth
reinforced
Hupham
Baalis
Lament
brandish
philosophers
Raddai
Sirah
Shamhuth
farmed
Kue
Ahishahar
Naaran
Neiel
abdomen
Abda
sand@@
Shamma
some@@
Igdaliah
Quartus
Sivan
Salamis
Kartan
Agur
Hod
doorframe
Jahmai
Shemeber
Harumaph
gru@@
Maaz
Hoham
Zaanannim
mmed
breeze
Zorites
flagons
Sceva
Dura
Shalman
Melatiah
Pull
Pethuel
Jedidiah
Tadmor
Jabneh
Hannathon
Nehum
Apollyon
Italian
Elishaphat
Gebim
Harhaiah
happeneth
Piram
Zia
Jehizkiah
untempered
Imna
planteth
impu@@
ditches
foot@@
earnings
Yisrael
publican
Toah
slays
composition
cucumber
digging
Baaseiah
dearth
Merathaim
survey
Gomorrha
Euphra′tes
sleeper
Meshillemith
seethe
cation
Ash@@
scapegoat
ower
Urbanus
sprinkles
tent-@@
chirp
Jahzerah
promiscuous
regretted
sure@@
Eloth
Bu@@
On@@
engines
appetites
sixty-one
fur@@
dee@@
earing
Ta@@
defrauded
demonstrated
Gib@@
thunder@@
thri@@
gement
east@@
tate
cymbal
ebony
gui@@
vice
sah
Submit
dow@@
500,000
Thereupon
mete
scarce
confide
disgra@@
resting-places
you—I
rabble
TO
difficulties
splintered
ford
Galatians
Clothe
disdained
Broken
ers—@@
d—you
spiri@@
Mithkah
ridge
relying
qualities
intreated
dah
perverts
financial
clad
side-@@
disse@@
non-@@
chronic
innocency
ken
clothe@@
Rehobo′am
prompted
Despite
gir@@
drachmas
reli@@
appro@@
carnally
Northwest
ware
lly
Bigthan
lured
Lycaonia
slaps
Baal-meon
Ben-hinnom
Ez@@
'Hurry
degraded
Naked
llings
failures
maid-servants
resided
Beth-El
chooseth
sleeves
capti@@
aha
conj@@
violating
attacker
employed
grouped
Padanaram
expand
quick-tempered
Zerahite
Helcias
hun@@
foreknew
List
Chinneroth
u′el
charm
sighs
dispu@@
Ahasu-e′rus
adjoining
Chislev
sorceress
Hezronites
craves
betwixt
Hello
Ozias
cheap
receded
guild
Quickly
Booz
perverteth
Baal-gad
Roboam
teeming
JEWS
sixty-seven
listen@@
firebrands
backed
are—@@
slandering
forty-three
37
gnawed
blood@@
fifty-seven
wn
Root
Tirshatha
mastery
Kirjathaim
Malkiel
Charge
assignment
pulls
sea-@@
Hon@@
Adamah
celestial
compete
double-minded
ron@@
disown
ha
Note
promiseth
Abed-Nego
polluting
adult
tune
Trea@@
labourers
snapped
markers
kening
timid
Prayer
Phanuel
Reelaiah
determines
Balac
sted
sedu@@
chatter
freshly
straits
assistance
ots
Mispar
gnaw
Archippus
executeth
Helbon
Lysanias
Atarah
Drusilla
Shilhi
recommendation
smi@@
saffron
Neapolis
Sheber
Heli
Sopater
Epaphras
Wars
Hermogenes
Seleucia
Shaashgaz
Ohel
Lael
Sippai
national
Bidkar
Nohah
unreasonable
Migron
Tolad
Pelaliah
diviner
Aniam
Jaziz
Obil
Secundus
Minni
Ephai
Likhi
Shoham
Ziphron
Neballat
Ibri
Uzai
Shiphrah
Lakkum
sneezed
lucre
sl@@
Resen
Hazaiah
Lo-Ruhamah
rivalry
reprobate
prison@@
Temeni
Shumathites
dirge
consoling
Jahdai
dressing
tortured
soar
flatteries
Shoa
Amana
Zaanan
Koa
Nodab
land@@
Zalmunna
Geshan
Hachmoni
Maai
Beera
'Aha
Shaphir
Iscah
Shuhamites
embalm
Phoebe
Nophah
Gabbatha
Raamiah
Chios
Berothah
crouching
Parvaim
Ahuzzath
Mispereth
correcting
Qedosh
recognizing
flo@@
shattering
biting
brushwood
kneaded
zel
epidemic
'Abraham
Gerasenes
val@@
pounded
Baal-peor
comeliness
despicable
3,600
remotest
upsetting
footprints
money@@
sensual
managed
shorts
flourished
care@@
Chanaanite
earnestness
guil@@
quickened
Nod
Bra@@
Mattattah
Nebushazban
agi@@
imperial
smoldering
Gishpa
radiance
eighty-four
E
Everybody
lurking
languished
cheats
totter
Hareph
hotter
signify
spo@@
explains
possessors
mil@@
Abel-@@
han@@
Advocate
glories
external
Cy@@
rape
swarmed
Bashan@@
fall@@
fect
Char@@
fringes
expire
Sy@@
espoused
disturbing
San@@
dru@@
gatherings
modest
Gracious
flay
int
deri@@
tempor@@
Report
infinite
directing
bracelet
nagging
pas@@
thankfulness
habitually
uniforms
boxes
face@@
Ahi@@
surpasses
circles
Praetorium
cutter
lon
immolated
secondary
excuses
Gedali′ah
frontier
sacrifi@@
ce—
wanderings
abi@@
Tab@@
fee
bdellium
kinswoman
Tartan
tho@@
literature
220
continuance
wraps
An@@
unceasing
ancestors—@@
woolen
eled
Lord—the
stack
hur@@
inhabiting
gum
thr@@
meon
offer@@
wreath
archives
Lying
hastens
symboli@@
Kir-heres
recognizes
ias
lun@@
Sellum
timbers
unproductive
spindle
cker
tful
forbearing
Beer-lahai-roi
humbleth
rigor
Fif@@
d′@@
Iim
thai
180
inte@@
knops
teness
entrea@@
harming
praiseth
ss
ye@@
cers
repa@@
'Depart
enrich
hottest
befalls
atoned
′lah
zites
vermilion
vated
flattereth
mother@@
imprison
cau@@
Delight
exhaust
coo@@
says—
Antichrist
faithlessness
black@@
man-made
rain@@
Messengers
Ak@@
Aija
brush
Bethul
Shuham
Eran
Hasadiah
Elul
Imrah
Tirhanah
lanterns
Bileam
Harnepher
Suah
Milalai
Nedabiah
Hashubah
Bariah
Jagur
Jathniel
Ozni
Haziel
Beten
dead—@@
Gilalai
Jedidah
Agee
identify
Ahian
Ophni
presentable
Zethar
Hoshama
Shimrath
Aharah
Zuriel
Ahiram
unspeakable
children—@@
Aiath
Kadeshbarnea
Tiberius
Adoraim
Joed
sleepless
Anan
Amam
Anim
Gaddi
Cnidus
Menna
Gethsemane
Apphia
onions
Abihud
Halhul
wooded
displays
bared
writhes
frozen
scout
ground—@@
mit
lal
cies
Offering
Besodeiah
sabachthani
Ishhod
absence
immense
Hassenaah
gourds
treader
broth
cheerfully
Zemirah
Haahashtari
Shiloah
combined
Ahuzzam
Cabul
door@@
Jezrahiah
Pasach
abased
Jupiter
Giah
Puthites
Sabta
eyebrows
Completely
noontime
number@@
Adramyttium
Othni
stamping
ful@@
product
draining
cheered
unchanged
indulge
ladder
careth
picture-story
wholehearted
Foreign
Law@@
-minded
consideration
erate
Else
Lor@@
covenan@@
man—@@
'Those
thank@@
Upright
promo@@
ctors
scolded
Forsaken
reck@@
forgetting
deep@@
dominate
caravan
hindrance
Workers
flaw
assume
wastelands
pl@@
Ba′@@
Marduk
Sithri
Atharim
enlighten
Garmite
Ascent
rescuing
meeteth
Asarel
mai
festering
volunteer
Arieh
sway
eminent
heresies
ta
2,@@
cross@@
vely
Grecians
Withhold
reviving
nite
peri@@
situated
fighteth
fitly
earring
providence
prediction
lives@@
ports
Spiri@@
ess—@@
Mu@@
revealer
ted—
omen
buries
hearkening
windy
Murderers
modesty
Beer-Sheba
plentifully
atta@@
refreshes
contem@@
puri@@
derided
tormentors
poem
southeast
commune
ceremonial
tened
sing@@
repeats
garnished
stammering
Uzzi′ah
renounced
Witness
con
subvert
lairs
herders
thirsted
pretends
gging
Engedi
forfeit
math
Train
wakened
six@@
halted
flow@@
hovering
irs
dig@@
place—@@
Migdal-@@
Hanani′ah
sycamores
gate-keepers
lite
donation
Melchi@@
dedicating
smites
deputy
Atroth
kiah
Chittim
twists
185,000
Chase
conflicts
Zebulunites
Union
180,000
95
interrupted
on-@@
Kenaniah
Highway
bondwomen
'Put
Complete
Aminadab
Bes@@
coastline
resorted
7,@@
cha
unison
knob
Pirathon
pacified
Tar@@
ania
persuasive
Shulammite
Avva
good—@@
mites
Aramaean
Cuthah
propitiation
outmost
endanger
traced
encamping
Buzi
maturity
15th
Siaha
ll-@@
Benai′ah
yell
Du@@
Dwell
deci@@
exposing
tire
peth
trieth
darker
spareth
pay@@
Dig
captures
Horem
Hali
Mozah
Rumah
defying
Dannah
Jotbah
Shilhim
Nibshan
Tophel
Bigtha
Ziddim
Rabbith
Balah
Adithaim
Hazo
Remeth
Middin
Nezib
Biztha
Humtah
Haruz
Dibri
Kibzaim
ouring
Zer
Pildash
Shobek
safe@@
Jidlaph
scraps
Anaharath
Zenan
Rakkath
Enam
Jehud
eighty-six
'Buy
genitals
Kinah
Kattath
Abilene
Tebeth
Jashen
403
Candace
Ami
Jannai
Salmone
provoketh
la
Semein
Gibea
disrespect
Hurai
emphatically
Shilshah
Jogbehah
pureness
ckle
two-thirds
lunch
tax-gatherers
discomfited
ky
irrational
barber
anew
advancing
'Keep
Rabsaris
ornamental
ppeth
gasp
faithlessly
school
corrup@@
bearest
lionesses
meanwhile
lukewarm
appoints
stains
ni
sanctifieth
haughtily
athlete
'Jacob
illegitimate
ly-@@
Niger
Hukkok
recognition
Wormwood
Nehushtan
Iri
wrung
indictment
herein
Already
rubbing
'Rejoice
sickbed
Jahdiel
Sow
Haroeh
inquiring
pruned
Calno
diadems
Naharaim
piped
fleshed
Calcol
fracture
Habazziniah
Rizia
gliding
Deacons
box@@
burnings
Tiphsah
Canneh
Jahzeiah
confusing
frees
wailed
rotted
temperance
ank@@
Flames
ppings
handkerchiefs
unafraid
buffeted
beneficial
squeezed
unacceptable
marvelously
volunteered
grape-fields
implored
accumulate
assembling
jokes
dragnet
adornment
liberally
blin@@
possessor
ctor
brandished
defenseless
sanctuar@@
fearest
summed
aimlessly
swamp
deride
sign@@
vegetable
grainfields
Army
respectable
conceiveth
circum@@
undergoing
apostasy
Shallun
abomin@@
matched
Zophim
specific
manslaughter
kers
Rabboni
savage
Tahash
fatally
blades
whores
earthenware
pretty
witnes@@
Meri@@
latticework
thenceforth
partridge
pants
obli@@
reproofs
Mid′ian
Gittites
rugged
Bac@@
fattest
esses
Jaalam
scalp
sely
struggles
contents
cot
hi
unsexed
cauldron
tumults
Beth-Horon
unexpectedly
thereupon
compassions
thing@@
652
cleaves
toler@@
fun@@
sparkled
artisan
tion—
nap
things—@@
ezer
Godolias
res
gifted
floated
exterminate
Dab@@
chisel
Order
Sustain
7:@@
me—I
swamps
plank
Seat
mbled
Ismahel
maintenance
Haze@@
moans
inkhorn
Davi@@
citizenship
Moserah
shepherded
mourner
marvels
richness
molds
fairs
Lycaonian
deportation
chang@@
ladles
Sehon
terrace
movable
pendants
faultless
silver@@
saint
begetting
loathes
copies
Nergal-Sharezer
triest
disfigured
uncondemned
Nergal-sharezer
Zarethan
corrupts
Joseph@@
guaranteed
loading
fourfold
Jaha@@
dispatched
specifically
fre@@
ud
bah
insisting
chin
san@@
Shammoth
Kenaanah
Silence
calculated
happen@@
Jered
defiantly
plough
chapiter
Burnt
meaneth
promotes
3½
healer
Mezahab
screams
Foundation
Sodi
Ammizabad
Muppim
Jekabzeel
Adina
Azaniah
Dimonah
Athaiah
Kallai
Mizar
Jogli
Salim
Hadashah
Aphekah
Shephuphan
Uel
Helkai
scouts
Sethur
Ehi
Mehuman
Magpiash
Meshullemeth
Ishpan
bowmen
Jokdeam
Rakkon
Nahbi
Ithnan
Abagtha
ows
Silla
Hagri
Adadah
Susi
Elienai
Raphu
ach@@
Piltai
Amad
Shamsherai
Maarath
Bealoth
Beeliada
Gimzo
Hagab
Shimrith
Beraiah
zither
En-gannim
Sharar
Hashabnah
Kushaiah
Heshmon
wanteth
meanest
swalloweth
Tahrea
Emek
fees
scornful
Elmadam
Thaddaeus
remarked
Anguish
Wear
Shenazzar
Idalah
Off@@
vy
intoxicated
Madmen
garlic
addicted
purifies
Lasea
Beauty
water-hole
tiers
refugee
grape-@@
poorer
Bikri
experiencing
naught
treasur@@
lordship
rebuketh
Oracle
shocking
igh@@
Mash
Parable
interested
ju@@
outrageous
Joanan
ery
Repay
Hea@@
shrub
achieved
'Men
flakes
Godly
thicker
good-for-nothing
280,000
resembling
plight
Malta
Fulfill
bored
understandest
yest
clearing
Jakeh
detested
Greek-speaking
tubes
abounds
allure
marking
Plunder
Hadlai
Achar
spits
Suphah
Sepharad
divining
stepping
tent@@
provocations
populous
Cos
tamarisk
Herein
imprisonments
minating
Fields
coarse
Hasrah
Lord—and
'Whose
Pavement
Beth-Lehem
Anammelech
God-like
scorch
convened
'Just
mber
turnest
nested
Counsel
Enlarge
bellows
super@@
door-@@
sealing
harshness
uel
plowmen
stumbleth
vulgar
tory
reco@@
Terri@@
dden
se-@@
Hac@@
dissolve
debauchery
Elpelet
comfortably
mely
resembled
adders
ential
fru@@
lingered
olive-trees
affli@@
wondrously
roaming
Saphan
restri@@
forgetteth
ordin@@
4,600
legally
fted
sunder
fences
funerals
conspicuous
assemb@@
profound
Shew
Tables
preva@@
oweth
ve-@@
Minnith
rue
Anani
name—@@
teams
together@@
bee
barrier
holi@@
wrongdoer
Hamon
—six
deluge
inven@@
alle@@
ploughed
repute
Elder
seven-day
Bo′az
nobility
particularly
shment
imper@@
sures
marrieth
Sacar
sticking
effectual
642
Leaders
prison-house
Purge
m—the
professing
′nah
comprehended
clerk
identified
pleasantness
6,000
hushed
Precious
chiefest
inspe@@
scented
hurls
sicles
whichever
needing
grea@@
Misrephoth
wielding
porter
Exodus
Decide
ascends
righteous@@
ored
stic
mealtime
dispensation
Has@@
moldy
Phares
Mene
contends
accomplishes
ce—the
people—the
leaks
forbade
peacemakers
sco@@
wrongdoers
Craftsmen
charmers
havoc
gat
skilfully
ama
natives
pinnacle
Cho@@
23,000
ever-flowing
prophets—@@
unicorn
e′@@
Kes@@
′or
Maachathite
62
Cari@@
horned
Farewell
Jeb′usites
entices
Te@@
Beri@@
drams
hin@@
Sin@@
Candlestick
prostrated
acquires
wavering
traffickers
Jordan@@
hardeneth
half-bushel
122
hopping
she-asses
setim
dite
Jizreel
760
H
owest
tiles
wandereth
gin
Eleadah
redee@@
pendant
neglecting
Shama
Asnah
grey
Paarai
Dimnah
Adalia
Heresh
Joezer
Elidad
Abiel
Seorim
Arisai
Gaddiel
cketh
Jeribai
ruthlessly
Ezbai
Dalphon
Ahasbai
Aridai
Meres
weaken
traveller
Huppah
Admatha
Eluzai
Shiphtan
Shashai
Shiza
Aridatha
Azzan
Netop@@
Beninu
Taralah
Havens
import@@
Ishmerai
refers
Nehushta
Sansannah
Eshtemoh
Shehariah
babbler
Gederothaim
Aenon
Lasha
Shion
Palace
aqueduct
fighting-men
clu@@
young@@
blasphemeth
'Obey
cor
ba′@@
promptly
sighted
well-pleasing
Shuhah
oliveyards
Joda
paraly@@
terrorize
scrip
Shimeathites
mess
Amashsai
that@@
leeks
Ahzai
hurrying
propose
Shean
thered
army—@@
tched
maintaining
yourself@@
To-day
anoin@@
'Rise
Include
Sto@@
wag
beliefs
education
Hand
tran@@
es—and
undeserved
'that
embers
heartless
Multiply
dry@@
persuasion
come—@@
treaties
stealeth
Refrain
rituals
awa@@
verse
double-edged
and-@@
releases
scor@@
awaking
gage
Sending
Levi@@
loyally
pursuits
envi@@
grazed
acy
conquerors
—there
tical
lev@@
denieth
scepters
L
broiled
insatiable
Abana
Clopas
maliciously
broader
Prochorus
graft
Quirinius
heroic
pillows
pilot
Birzaith
repenteth
Desolate
did—@@
raced
fishhooks
Aher
berries
'Rabbi
Shebat
dysentery
Tibhath
Hellenists
Parthians
Jehoaddin
attempts
armrests
pebble
affects
gorged
Chuza
fearfulness
defen@@
annoyed
Swords
ensure
edify
circumcising
tating
Create
invented
flown
'Send
ing—and
centers
occurs
layers
s—I
devoting
snar@@
all-@@
Tro@@
states
smashing
antiquity
galloping
Halelu-JAH
coworker
dripped
psychics
involves
seductive
ared
oured
Hukok
designing
Preach
babbling
lel
death@@
sentinels
Historical
suc@@
main@@
consci@@
devastating
provincial
bolted
scoundrel
instinct
II
390
tled
fear@@
inscribe
Pas@@
spontaneous
rub
Jezreelitess
expe@@
hardest
ality
spotless
Bath-@@
comb
sowest
Bethe@@
hair@@
realizes
swerve
measureth
trips
ckers
y—and
Abi′@@
lamen@@
hangeth
racing
Karmi
Ashur
grounded
finishes
availeth
escapeth
cash
shel@@
scorning
kernels
promi@@
barrenness
scrolls
Six@@
Galgal
bing
bb@@
blacker
Ampliatus
skulls
rest@@
contemned
Izziah
villa@@
resort
longeth
whisperer
Jaddai
destroyest
administering
gratitude
dismiss
oftentimes
Israel—the
spying
dwell@@
fermented
adamant
inherit@@
contamination
liftest
pregnancy
anced
fire-@@
Stir
nites
deformed
Lea@@
originally
sleepest
metal@@
bondservants
Esdras
variety
crow@@
ceiling
Ob@@
Rea@@
mini@@
crouches
profited
plowman
confiscation
atoning
tithing
rein@@
Sen@@
pestle
trades
wal@@
Clean
red@@
fragile
reeled
eruption
Kilion
Baa@@
inventory
Mac@@
flank
-day
chan@@
killers
bonnets
barbarians
1/2
gatherer
sensitive
ham@@
Salcah
Ashdodites
Joha′nan
gemstones
assassinate
Regarding
ahi@@
retorted
indicate
fleshhooks
Fasten
Ges@@
carrion
blood—@@
Nachor
Lam@@
lanes
Geuel
fireplace
Joelah
potsherds
Athenians
'Like
Shaharaim
Bilgai
Jokmeam
743
Elnaam
Marsena
Eliphal
345
Maher-shalal-hash-baz
30,500
Shelomi
Jiz@@
Elika
Uzzia
Brea@@
Mibhar
16,000
98
Parshandatha
rational
Ithmah
Rephael
Four@@
Misham
Mishmannah
74
Bealiah
gutter
Maadai
Aspatha
372
621
Bakbakkar
Joshaviah
Meraiah
Parmashta
223
Ilai
320
Sharai
Josiphiah
Vaniah
Gemalli
perfecting
Addan
Irpeel
Ummah
zor
Jaareshiah
Maasai
Melah
Shaalabbin
hen@@
Cabbon
Excellent
nut
straitness
Bar-Jesus
Gabbai
onycha
lists
score
hawks
rimmon
leaps
dined
'Move
oasis
moist
rewarding
Math@@
Dr@@
condemneth
′n@@
obje@@
Josech
Jonam
voi@@
splattered
Pishon
insert
ty-@@
Trachonitis
moni
yieldeth
Tirathites
Zephathah
Jemimah
Bethaven
—God
era@@
luck
praiseworthy
ject
Proverbs
Guide
mayor
ER@@
much-loved
tify
fog
withholdeth
upstream
worshippeth
tinkling
′iah
revel
loth
dder
ssi@@
bon
distracted
awakens
Ithra
reclaim
cedar-trees
chewed
Ephesian
ray
accepteth
ini@@
wedge
boast@@
communicated
rejection
compulsion
thrilled
visage
arrogancy
hideout
sword—
labouring
emerge
'Turn
Janai
Sharpen
justifieth
Zephi
1,260
Eshtaolites
bandit
wrinkle
Stoic
innkeeper
widowed
800,000
'Woe
dappled
Epicurean
spittle
humbling
shrubs
Aram-@@
non@@
wild@@
Jairite
pain@@
coated
Rakem
healings
Aswan
Iye
shemesh
Tubal-Cain
Sitnah
ator
Jorkeam
quivers
Esek
repentant
fication
Adoni-zedek
unsteady
remarkable
machines
Kinnereth
endued
ferocious
kicking
blasting
regeneration
Branches
descendants—@@
dignified
untrained
subside
crossings
disallowed
constructing
minor
isolation
perimeter
nighttime
popu@@
cations
Def@@
grain-@@
resi@@
b-@@
encompass
Full
fighter
Alexandrian
currents
mountaintop
managers
ravages
procure
night—
Gam@@
ound
repose
erce
streaks
8:@@
humili@@
enveloped
ling@@
Scribe
acknowledging
abhorreth
orting
Hadar
ints
prowling
you—and
Azareel
coworkers
swor@@
ef@@
Ir-@@
powerfully
Minor
ancestor@@
Round
sheltered
offender
triumphantly
Thamar
roebuck
power@@
carrieth
Jacan
tigh@@
tasting
Dearly
lowering
swir@@
plagu@@
harrow
appealing
eri@@
strokes
Abim′elech
fieth
Stor@@
castles
impute
hurries
produ@@
thunderstorm
Puvah
glorifies
festal
ciously
Confess
constra@@
Accordingly
hy@@
spends
Canaan@@
-trees
singed
shrivel
sof@@
defiant
basons
Armageddon
thirty-sixth
conceiving
Hizkiah
Or@@
Junia
dites
luxuriant
exultation
Bersabee
retur@@
animal@@
consenting
Poverty
mustache
swe@@
lobes
'because
impulse
—five
dom
differing
Rab@@
birth@@
heave-offerings
Padan
factions
Palm
documents
regiments
Jerusalem—
stride
—were
Mana@@
Ishiah
Regent
MENE
tun@@
storks
Rouse
mercy-cover
snail
wel@@
text
exaltation
cap@@
ach
Atroth-@@
za
emptying
chapiters
sprig
od@@
disguises
sha
destructions
Zerub′babel
lites
bapti@@
livest
guardroom
two@@
Peruda
450
hs
kitchens
bi
dung@@
vaulted
Acsah
Apply
headdresses
Perida
Saraph
Shemaah
gull
Pedahel
Bedeiah
Jorah
Mithnite
Vophsi
Hashem
Abitub
337,500
Hakkatan
Sia
Jeshebeab
Poratha
Tizite
Shemed
Hiddai
fearless
Jeziel
topmost
boasteth
gal
scars
Westward
'Truly
pectoral
uprights
commemor@@
3⁄4
Dodanim
Nebai
Kislev
Imla
Hapharaim
Hizki
Abi′jah
dwindle
Secacah
Jehiah
Jechoniah
Tel-harsha
driveth
Pilha
Hagrite
night-@@
blankets
Dan@@
rewardeth
scoured
hot-tempered
rich@@
diggeth
pursuer
scholars
chalice
courageously
Pre@@
ink@@
tranquil
tillage
requ@@
revelry
Ammonitess
tolls
interfere
spearmen
Samothrace
Kadmonites
Fa@@
Kenite
Confi@@
Dispersion
spell
Hamonah
custo@@
roof@@
Keziah
strifes
patched
chea@@
trigon
ckest
angelic
Them
yers
Stri@@
Cri@@
squ@@
helpeth
pled
Sweet
keneth
to-night
collections
appreciate
subclans
s*
suggestions
Ought
shaving
Jan@@
dejected
sadly
appropriately
doub@@
well-trained
visits
Meshul′lam
vehement
lle@@
sea-lands
Stu@@
cowardly
pasturing
compensate
unsuspecting
watch@@
eling
infamous
herdsman
damages
'David
prostituting
sty
defective
7,337
delighting
dings
42,360
inserted
butt
ridges
hilltop
—like
973
triumphs
wrongdoings
retire
splendour
adorns
kindleth
ong@@
Imp@@
vote
pastor
Leader
chargeable
disheartened
Pity
intervened
demonstrates
echo
grow@@
witnessing
trust@@
grasping
'Babylon
Joachaz
snee@@
Habaiah
devourer
Herodians
Comm@@
conviction
swi@@
silverlings
Chidon
En-shemesh
Shethar-Bozenai
Shiphmite
tioned
latchet
Merab
ast
Teaching
brilliance
1,700
unthankful
shri@@
eared
addressing
triumphant
ripening
troublesome
women@@
leash
spewed
'Cornelius
phrah
gap
Netaim
skinny
gasping
inten@@
parchments
Ashtoreth
shipwrecked
Ibsam
Starting
Epaenetus
erring
lawfully
stacked
7,700
S
dried-up
—on
mbles
Hanameel
justi@@
achievements
charitable
sentries
weighted
disdain
invaders
reader
landmarks
ences
side@@
storm-@@
worthily
projects
durable
struggling
bia
catcheth
develop
notwithstanding
eventide
gushing
lengthening
banqueting
say—
surrenders
enthusiastic
upholdeth
buildest
decks
human@@
another@@
fearfully
Cuth
haply
metalworker
ham
consists
Tears
discovery
therefrom
Esh@@
cape
focused
drachma
Apo@@
'Shall
bles
exercises
8⅓
framed
Adoram
lar@@
criest
inviting
rounds
over-@@
ara
stupor
Jewess
tr@@
near@@
subju@@
fired
respectful
changeth
gor
scre@@
conversed
39
steth
terror@@
seams
chasti@@
cripple
placeth
und@@
'Gather
exceeded
forceful
Isa@@
sister@@
nations—@@
whir@@
bon@@
recei@@
gre@@
Phe@@
adorning
reptile
underwear
dated
brothers—
superfluous
stuffed
pasch
you—for
Malcam
inj@@
Rodanim
artificer
separately
ses—@@
Pretend
Anakims
Sharp
dissensions
divorcement
conscripted
Establish
Safe
-offering
counter@@
wielded
sails
Israelites@@
ti
body-guard
en-@@
l′@@
decently
head-dress
transported
ratified
mag@@
lovingkindnesses
Sel@@
Chelal
toils
plating
heaved
Several
Mashal
Hen
inflicts
burying-place
32,000
Izri
'Man
Tri@@
delu@@
—or
fes@@
regardless
instructors
Hel@@
bounding
Za@@
blunt
3,@@
vai
Jalon
kettle
2,600
Anem
tapestry
mber@@
bidding
ker@@
caldrons
1,052
2,172
Magbish
home-born
1,247
1,017
Hilen
Shimeon
Ibneiah
showered
Gibbar
eighty-eight
past@@
ea
heritages
blindfolded
Arod
ele@@
bac@@
laments
mended
llu@@
Sham@@
woes
conveyed
gar
Gerson
Ash′@@
forcefully
Iphdeiah
Tel-melah
Zior
Dibon-gad
galbanum
'Absalom
Eltekon
fondled
Hard
Jashu@@
calms
floodgates
corresponds
Shelishiyah
ssed
craftsmanship
Wherewith
En-ha@@
4,500
'Since
overheard
tempers
metals
needeth
patrolled
unsealed
backbone
extolled
Revelation
pronouncement
discharged
Heres
loun@@
Goah
Maralah
crocodile
z′zar
Dabbesheth
Pai
fluttering
Havvoth
deluded
adju@@
Tebaliah
Karka
'you
bordering
ctur@@
class
witchcrafts
spattered
braces
Tel-@@
figured
Girl
wallet
tappuah
out-places
armorbearer
nur@@
Fearing
Crush
IN
poor@@
pounce
dishonoring
Shalt
waked
trench
memories
pence
nazirites
respectfully
isolated
passerby
gloated
kidnapper
mournful
Sur@@
definite
presi@@
barri@@
lates
salva@@
list@@
Grass
lla@@
dining
'Pick
swings
Desire
yings
Bake
—we
Province
nings
royalty
Caphtorites
remnants
ry-@@
Fast
contri@@
testifieth
spoiling
gnat
gh@@
vate
plu@@
precisely
Creature
reapeth
purposing
bull@@
battle-coverings
Arrest
mean@@
interpreters
vindicates
tified
Syrtis
omers
seraphim
furrow
smiled
restorer
ill-@@
unspiritual
Tokhath
session
boasters
Gederite
thirty-fifth
acqu@@
Dodavahu
napkin
Taverns
gainsaying
shuttle
entertained
fulfi@@
Cauda
AND
Pharaoh-@@
rafts
naming
Ecbatana
festive
Jealous
renewal
Adoni-Zedek
Magadan
Nazarenes
bravely
mending
invades
118:@@
Decapolis
unload
goblets
well-doing
gear
moneychangers
zithers
outran
glor@@
infi@@
wall@@
Tyrus
oper@@
exacting
eper
loosened
bruising
Behemoth
prolongs
notes
tality
ender
progres@@
gest
horrifying
contented
cated
bribery
begets
Horsemen
compassing
noblemen
roareth
fits
reprover
roster
Mortals
interpreting
transparent
convincing
earthy
suspicions
entertain
predecessor
scanda@@
exception
reasonings
blasphemers
Wal@@
scoundrels
exulting
inhabits
uneducated
fini@@
wonder@@
Keeping
Glorify
reassured
differ
chur@@
magistrate
there—
JAH
ghts
Crowds
wrong-@@
rump
shewbread
Inter@@
rap@@
Marcaboth
tripped
certify
afflicting
inju@@
gna@@
caterpillars
fts
Pal@@
cravings
rowing
coastal
Earlier
Northward
Haste
April
hoarded
defe@@
fling
ff
brute
draught
swee@@
stling
wantonness
tempts
ephi
preparest
vision@@
annu@@
stacks
273
equals
sever
k-@@
benefi@@
Ben-Hinnom
servant-girl
outrage
honor@@
drapes
gan@@
′as
Lia
ranges
Pe@@
Jokim
pin@@
Honey
weak@@
Jekuthiel
persistent
Leaving
68
Further
offici@@
Twenty-@@
Laadah
blended
46,500
fol@@
35,400
hara@@
Lachis
Peoples
74,600
41,500
gesture
'Say
45,650
about@@
Macedo′nia
32,200
54,400
Genesis
57,400
waterways
59,300
second-in-command
62,700
ure
shoo@@
stablish
sap
darkens
Iz@@
Mik@@
sit@@
sojournings
savoury
th-tabor
Hananeel
ka@@
Paltite
aileth
Ibnijah
wiles
12th
sor
sk
revenged
Naarai
Mahavite
Ti@@
shorter
Carshena
Timnath-serah
Parnach
prescri@@
Cenchreae
un
hegoats
communities
bloo@@
tise
science
soothsaying
—seven
extortioner
random
wrest
barn@@
cleaning
Special
infuriated
d—that
allegory
quarries
tottering
continuous
illustrations
neigh
avoids
Eshan
Jezrahel
prou@@
carves
co
Dilean
Jeatherai
Ebez
trumpe@@
Sop@@
Ma-asei′ah
distinctly
ben@@
cheers
strivings
hel
48
undivided
crooks
titles
Sab@@
breast-piece
375
zar
Kiss
pints
m′@@
Beth-dagon
Eglath-shelishiyah
tiller
lizards
Achi@@
736
Hazar@@
THIS
'Stretch
Eglath
harnessed
lieutenants
surroundings
Tents
idly
procured
quarried
eighty-two
guarantees
Meconah
Tochen
Shikkeron
Shephi
effe@@
Kenizzites
Pyrrhus
anvil
smooth-skinned
honoreth
Putting
no-@@
van@@
id@@
intreat
Songs
saddle@@
laboring
pasturelands—four
palm-tree
Iye-abarim
prosperously
ounding
darting
recommend
tracked
commendation
o′@@
prohi@@
sentences
nal
trode
tteth
will@@
bewitched
crisis
impul@@
asp@@
spew
vering
asser@@
disrespectful
vor@@
Bene-@@
…@@
false@@
wine@@
Aho@@
hurriedly
emplo@@
sleep@@
springeth
weekly
'Tomorrow
wife@@
errand
untouched
sna@@
outs
-e′@@
springtime
spur@@
fawn
ttle
ever-@@
nothing—@@
drowsy
formeth
lads
gash
stoppeth
made@@
tus
repro@@
publisheth
system
exer@@
ignoring
ache
impostors
drieth
'Each
7th
-in-@@
imag@@
stor@@
precede
Ha
penetrate
barrel
dir@@
garlands
stonemasons
ments—@@
slash
solu@@
birth-@@
Lodebar
divin@@
fortification
joyously
teareth
Cruel
dulcimer
Mal@@
Gath-hepher
lively
incorruptibility
unloaded
lees
writhed
Betah
dwarf
Thrust
Hazazon-tamar
snatching
Zobebah
dresser
gation
Sharonite
paste
leavens
soften
fowlers
mistreating
Charm
Rephan
Sepharvites
tuous
shearer
ditions
Ayyah
Meholathite
antichrists
anguished
gored
dled
dromedaries
legions
edified
menstruous
Kiriath-sepher
befell
Lubim
foams
Physician
insightful
goring
shrank
disagreed
Na′omi
unwashed
'Can
43,750
full@@
Store
attribu@@
acres
Appius
blea@@
Bethesda
Laishah
Beth-e@@
fitches
ninety-two
Jeberechiah
vigilant
own@@
respective
likely
rivals
confine
house-@@
Kingdoms
Owls
slave-@@
evangelists
consults
disper@@
Dar@@
Spo@@
Mother
unmoved
equip
Sta@@
lure
cleverly
Joshah
commo@@
lowing
left—@@
Ishma
stooping
Shiphi
sick@@
Jeuz
heading
top@@
tably
Gomor′rah
tenderhearted
Rebe@@
proveth
Town
buyers
flourishes
judgement
Jerusalem—@@
Ishbah
inks
ale
first-fruit
Idbash
cheth
indebted
releasing
ploughing
Yahwe@@
qua@@
bondmaid
resulted
servan@@
strewed
brothers—@@
jubile
awaketh
jac@@
oundeth
orgies
eye@@
hindmost
resemble
follow@@
odours
appor@@
Wipe
hood
Aha@@
sabbath-day
fainteth
expectantly
Knock
hastening
praetorium
lize
processions
domination
househol@@
effects
assessed
Trans@@
xes
Zeru′iah
shepherding
amends
Dogs
Sarvia
Haz′ael
Maachathites
encoura@@
Travelers
wait@@
mansions
beli@@
soak
thra@@
snuff
organ
attracted
four-@@
me—and
aide
cep@@
death-@@
HOL@@
compound
interprets
Whereunto
abhor@@
hand—
starry
lettest
lar
things—
Hazzebaim
Refuge
circu@@
osprey
water—
crowding
Assuerus
llowed
Mithcah
Babylon—@@
blood-@@
Gizonite
Egypt—
Bene-jaakan
Rimmon-perez
piling
Joses
rem@@
contagion
enjoin
Pahathmoab
erite
covenant—
deacon
stool
loaned
women-servants
dele@@
Sere@@
buil@@
animals—@@
Kiriath-baal
wind@@
Arrogant
side-chambers
Jucal
Leummim
observation
tile
'Everyone
towered
Asshurim
battalions
'Jeroboam
discard
lamb@@
Letushim
Argue
Thinkest
chites
slingstones
mbered
sixty-four
cautious
cia
lam
outlived
Ithlah
Zelah
Almon-diblathaim
Lasharon
Peullethai
Ishpah
2½
part@@
84
Maadiah
envoy
Sharuhen
anah
Throne
beholds
forepart
Naphoth
′a-el
—though
435
kidnaps
presen@@
Invite
rece@@
6,720
Hin
homicide
dou@@
clanging
reminders
dence
sun-rising
nourishes
pel
leel
Michah
775
forfeited
bosses
vah
Jeri@@
step@@
Ahiah
recogni@@
tendeth
muddied
blur@@
levy
excessively
def@@
bedstead
Phygelus
Rimmono
Alian
Admin
-a@@
thirty-eighth
leech
Arni
fifty-second
Malchiram
Recah
exposes
Kindness
Berachah
Grab
shites
Meribath-kadesh
forfeits
Mosollam
pou@@
flung
Sachar
disliked
pet
ress
maintains
Dwelling
expressing
Boast
Gath-@@
righteousnesses
honoureth
urges
sia
'About
overconfident
beth
Attach
buyeth
stations
jubilation
expressions
Asiel
adversities
tongued
Jamlech
Hodesh
ests
Epistle
Poss@@
possesseth
dialect
mas@@
disagree
languishing
splits
unseemly
pondering
Fru@@
Baara
irrevocable
Ashurites
corrosion
Jesu@@
night@@
Mirmah
'Never
have@@
describeth
mously
body-covers
heart@@
Spend
Calling
stragg@@
Ashteroth
Sad@@
mable
renters
Compassion
limping
Out@@
resisteth
greediness
intrigue
waking
sneered
mart
rumble
lendeth
persevere
Jeho′ahaz
leddest
ladies
fairer
degenerate
thunderstorms
grooms
long-suffering
Nacon
dammim
gue
Beth-marcaboth
'Aaron
Tubal-cain
mness
bankers
Flesh
Ramathite
bramble
Shallecheth
Abi′shai
ands
Raama
feigned
d—I
Izrahite
Forum
tattoo
notices
differs
diversities
Hypocrite
scurvy
mists
Jerushah
oar
persecutor
ripping
oul@@
Adriatic
mbers
'Pray
Galilaeans
Pi-@@
conta@@
worshipper
luxuriously
edifies
sparkles
store-cities
dge
Violent
fastest
born@@
freeman
wade
scoffs
hauled
Baca
governments
Him@@
outbursts
ringleader
deserters
sickly
Waheb
Chu@@
vapors
ener@@
uncovereth
anticipa@@
sober-minded
you—oracle
seventy-six
ned—@@
Centurion
referred
controlling
narro@@
lop
Hazar-su@@
curing
cin@@
varieties
dependents
'Unclean
affinity
snap
transplanted
tan
brutally
participation
ef
Au@@
Quarter
Beth-pelet
Seed
storm-wind
carpets
evaluated
Gone
Sought
quartermaster
despaired
shortage
ome
repeating
credence
eful
bel@@
Free@@
disposition
money-@@
caul@@
domain
spr@@
willful
titude
′ia
miscarriage
gale
drink@@
eternally
Madian
uds
flare
mines
pictured
s.Selah
nade
Singers
exclu@@
craftily
baken
exults
blockaded
viols
tres@@
rebuilds
your@@
Restoration
swelled
inciting
Study
unsheathe
illustrate
uninformed
mbling
thongs
presumed
Happizzez
Mebunnai
Arbite
Emb@@
assemblage
ub
Bethzur
chameleon
respon@@
Ashterathite
t—that
Haraphah
19:@@
cities—@@
rural
Utterly
fertility
insolently
14@@
arily
despit@@
gatherers
—just
Beel@@
ranking
mor
Passing
Jeho′ram
lotion
consul@@
mend
Phichol
Asi@@
poised
breeding
rallied
imposing
white-@@
ck-@@
—Jesus
tips
temple—@@
purcha@@
dded
Similarly
shad@@
Ba′al-@@
les—
equ@@
firepot
wearisome
Ith′amar
gutters
Jerijah
Keran
Dedication
600,000
rally
Malluk
confided
zite
ite@@
shah
Twenty
Evil-merodach
rout
appeasement
laded
uniform
mbereth
decisively
contemplate
sanda@@
Evil-Merodach
ringstraked
cosmetics
ko@@
'Deliver
61,000
chiseled
studying
stand@@
honouring
listing
circling
spouts
Southward
scourges
sided
Rabmag
d—it
row@@
Izliah
Biziothiah
Banaias
Hag@@
wist
Sale@@
branch@@
Japhletites
'Of
Iezer
cating
Romamti-ezer
deemed
weapon@@
riverbed
feign
inherits
shafts
gown
Kadesh-Barnea
rattles
Direct
taches
Gray
'Any
seduces
ret
thirty-nine
Ninevites
Bas@@
emeralds
forefather
Nebajoth
unrolled
Ruhamah
Joatham
assassins
1½
deceitfulness
hard-working
lic
laugheth
distaff
Sibbekai
misuses
rear@@
Kirjath@@
49
lavers
superscription
ther
Ach@@
sanity
berea@@
Merodach-baladan
prating
wadis
rugs
Aze@@
rail
sed—
shekel@@
framework
Ataroth-addar
Chileab
conceives
Regem-@@
laziness
Beth-haccherem
Chesalon
Haggedolim
Accad
Zibia
Jesimiel
Jaakobah
Meshobab
mistreats
Hada@@
Jeshohaiah
lengths
Semeias
heart—
blacksmith
Sheth
singleness
Groan
zealously
Sudanese
rattle
ay
findest
di
Bithiah
sundial
courteously
Akbor
nd
Approach
smarter
Aleph
Mem
Daleth
striven
Jaazer
procedures
Crying
Zeph@@
reclaimed
thirsteth
Samech
Station
courtroom
emotions
sop
Zain
shawl
lash
ador@@
indoors
Bit@@
aflame
excelling
ial
Malki@@
lucky
Pahath
pastured
Goodness
gold—@@
invo@@
evalu@@
strong-places
patri@@
unplowed
convulsions
sy@@
begs
reprimanded
vanqui@@
grieves
ets
resettle
requireth
pul@@
You@@
cheerfulness
you—a
sition
sweetly
Henceforth
teneth
dreameth
formal
mony
ffs
unt
obtaining
recompen@@
prostitu@@
repenting
country—@@
hissed
iron-@@
scoop
Lamed
shim
Lo-@@
Me-@@
Qu@@
consigned
zar@@
cowards
swayed
snor@@
Wea@@
demonstrating
gues
alties
ttled
spla@@
kors
fruitless
entourage
secu@@
Ishbi-@@
embalming
Scarcely
respecting
hoed
sawdust
knocketh
noti@@
Eked
confederacy
'Ah
Achitophel
'Someone
Abisai
welcoming
unyielding
unfamiliar
seven@@
chalk
Ramath
Bozenai
judgment-seat
gration
Enemy
Ahith′ophel
Cun
anged
Sabte@@
Supreme
Cyrenians
slingers
Bene-Ammon
dishon@@
chastity
phylacteries
devoid
abilities
willingness
mane
refer
termed
minstrel
'Out
Chenani
Shibah
suffer@@
Chelubai
forever@@
oiled
commander-in-chief
ious
super-apostles
evil—
soundings
tment
determination
lean@@
entrap
eighty-three
movement
good@@
admiration
Misrephoth-maim
Hazazon
diest
purpo@@
Across
Smile
crumbled
servant-@@
crept
torrential
designers
liber@@
lowliness
hoar@@
withering
Splendor
eni@@
coppersmith
dissol@@
llowing
vapour
turbulent
Horror
parti@@
fastening
annually
hardening
loosing
Hagaba
Maacath
fan@@
profanes
Godless
misunderstand
'for
relatives—twelve
compli@@
taunting
Nephu@@
wizard
Saba
Harod
dignitaries
Moses—@@
tide
ninety-eight
pillage
avert
marri@@
mills
explo@@
impe@@
harms
ires
homeowner
preser@@
Haruphite
aton@@
store-@@
levied
sai
crowning
Arm
igns
enclose
patches
compels
hands—@@
straying
cer
-foot
swirl
vari@@
gran@@
scheduled
carefulness
Desolation
Reme@@
swallowing
assaulted
name—
adopt
Lab@@
foreordained
beast@@
annihi@@
cleverness
good-tasting
Aviv
astonishing
woodland
strung
values
desist
impo@@
ilest
grudgingly
repayeth
remain@@
es—all
swinging
prea@@
discip@@
vites
subtilty
undergone
choo@@
admon@@
savest
Hagarites
suppli@@
despo@@
armor@@
hesitation
Ahicam
ue
shady
kne@@
land—the
maim
trader
Overlay
valu@@
quicker
blessest
Shou@@
decor@@
mene
Given
nesses
strong-willed
eable
prices
-
—which
readers
Pictures
00,000
mbering
fasts
than@@
evapor@@
lanted
ast@@
soun@@
wits
lately
quali@@
stacte
detachment
dious
ush
Fret
meanings
defenced
attested
Rapha@@
intimately
showest
demoni@@
meditated
kam@@
Adarezer
harassing
prophe@@
thereat
Letters
violation
butlers
Chariots
Josedech
Shupham
amassed
sun-images
Hadade′zer
crossbar
Sibbechai
answerable
lading
hotly
fretting
Years
pie@@
kings—
nightfall
Nethani′ah
inclosed
grabbing
gluttonous
Sinite
Chesulloth
charming
budding
Mearah
Fu@@
fanfare
Padan-Aram
Hamathite
pe
Zebidah
assigning
Chesil
Aziel
Kelub
Janim
Adoniram
team
firs
Rebuild
defiance
fortune-telling
saluteth
cedar-wood
Avenge
z′a@@
enlightening
vagabond
Pilneser
Exalted
Ismael
Hevite
Tryphaena
arim
strapped
te—
72
'Wash
alterna@@
baldy
Ingathering
churn
le—the
music-makers
'His
passest
ambu@@
Monument
pur
O′bed-e′dom
foreseeing
Treasures
dagger
prior
embittered
'Worship
Jo′@@
13th
filleted
exorcists
conne@@
man-slayer
enth
uth
eh
lease
Sem
enroll
Ezrah
cancer
amounted
Lecah
chrysoprase
Jushab-@@
Shahazumah
tentmakers
Keren-@@
hanan
Sucathites
chalcedony
zib
swims
Pardon
Na′@@
askest
justifying
′u@@
circumci@@
ereth
Pergamos
railed
Jareb
piercing
Serai′ah
Hakkerem
jungle
96
seemly
usa@@
Ko′hathites
fleet
dia
destination
Maa@@
Teth
vassal
Casting
delica@@
Eating
Vau
profan@@
calve
Hemam
Jod
Hush
pushes
reflected
Realize
lowliest
Machi
Entreat
Road
Caph
Pel@@
Tree
expec@@
soo@@
dimly
tless
Oppres@@
finetwined
depriving
Acknowledge
death—@@
anites
Money
unkind
subtle
and-a-half
Marry
happ@@
overcoming
heinous
privy
int@@
Ij@@
moaned
Baalhanan
Hitherto
Rules
permits
t—a
feig@@
Bla@@
unexpected
Zidonians
holier
stre@@
Whereby
40:@@
Jechonias
t—you
trivial
ply
branded
mith
appla@@
undressed
buzz@@
grazes
clemency
responds
ven
conse@@
ddle
ken@@
Dra@@
numb
where@@
Gri@@
tenor
foster
dor
frying
genuineness
ministrants
resentment
obstacles
criticizing
Greeting
tening
stylus
boo@@
sanhedrim
sinfulness
Bro@@
teenth
acquiring
Zizah
code
Michri
fathom
Nephusim
eing
Lebana
pillaged
vittles
imparted
portent
Married
them—they
forewarned
smelter
shamelessly
succeeding
outlet
fter
Destroyer
bowl-shaped
reapp@@
licked
reformation
Jaalah
Bazlith
stedfastness
Aroerite
intimidated
Western
fatling
rudders
competes
Ap@@
offscouring
deliveredst
patriarch
—their
Idols
'Teacher
Jeshimon
obviously
irer
Ebron
loa@@
everyone—@@
mblers
spee@@
Malki-Shua
Satisfy
vigorously
4:@@
Palest@@
prejudice
swordsmen
Baldness
'Cover
Chilmad
whorish
hard-@@
drum
Akeldama
retired
Higgaion
stealth
ox@@
away—
cellars
assu@@
diet
aspect
Barakel
unhealthy
Load
pher
urgently
agreeable
Jehubbah
emerged
Lo-ruhamah
wavy
goodwill
antly
Gulf
chil@@
shipmaster
tage
Hashbaddanah
fri@@
significance
quickeneth
Gur@@
unfading
bulrushes
intercessions
endangered
wing@@
fran@@
hoisted
figura@@
asherahs
shrewdly
grain@@
angling
miscarried
mmites
jugs
saidest
Machirites
broken-down
olive-@@
oping
Ini@@
slave@@
swoops
Cal@@
awakes
overturning
kettles
almighty
Ephratah
maliciousness
servants—@@
sman
han
contending
did—written
myself@@
me—oracle
reven@@
straigh@@
predi@@
dispat@@
a′@@
continu@@
courtesy
uring
Springs
rep@@
features
sodden
s—as
*Thou*
trave@@
fishhook
decreased
Trees
satura@@
short-lived
Hereafter
babble
compose
edible
foretell
tioneth
subdueth
pollutions
nearing
fs
Moab@@
decaying
Meditate
Cam@@
Sephar@@
Meet
mping
then@@
ancing
Micmash
preference
dden@@
shroud
gif@@
back—
appar@@
scandal
farming
wealth@@
Nin′eveh
ddeth
ized
donke@@
mats
-bearers
communi@@
infamy
or-@@
muse
Older
wind-@@
—of
shrouded
armlets
faction
gem
manhood
thwarted
d—a
Ahi′kam
inclination
wildlife
s—he
lding
gangs
rel
living-places
Aaron—@@
barrels
confines
'Pharaoh
Hearest
artist
move@@
efully
ton@@
sycamore-fig
Decl@@
refuted
Asarelah
Ebed-Melek
remorse
captureth
thor@@
goatskins
carri@@
uncombed
earning
tarrying
inadvertence
Where@@
remarks
erites
20@@
enchantment
bloomed
High@@
Jac@@
Geth
mistresses
watcheth
drowning
sme@@
lized
Kis@@
dispossessing
sma@@
Por@@
Beth-maacah
peop@@
ub@@
help@@
forged
tasteless
opportunities
counteth
underwent
Ismachiah
s-in-law
Cloud
Thir@@
Zachariah
Shuthela@@
winebi@@
ol
'None
crafts
four@@
vac@@
aloft
Romamti-Ezer
major
Anthothijah
kish
Na′aman
Meronoth
bron@@
lighteth
Engannim
vali@@
bride-price
revolting
gateposts
scarcity
Cedar
assailants
Scorpion
43¾
whale
ETH
—something
Bathshua
cringing
unanswered
hoo@@
whit
Mish@@
goat@@
ailing
conies
Maacha
innocents
Col-hozeh
esh@@
curious
105
eath
ath@@
men-@@
glowed
apprehended
scurry
seating
anklets
everlasting—
Male
signi@@
kim
propped
caressed
Beth-Shemesh
glitter
Leading
Hashub
601,730
dete@@
Speech
choices
Uphold
unceasingly
75,000
te-@@
4½
8¾
twinkling
Length
hats
Bethlehemite
bin@@
shawls
backbiting
Zamzummim
many-@@
Judahite
Reply
softer
disfigure
mental
Ir@@
parteth
kkuth
parapet
′e-@@
Potsherd
Zuzim
strictest
Leb@@
Hassophereth
Nephi@@
forty-first
Beth-nimrah
ow
Chezib
Middle
Ziphion
Foolishness
Hamran
Ephrathites
Mezobaite
blots
En-dor
bystanders
6,@@
supplanted
Late
erreth
pacify
moneylender
Bethar@@
kan
networks
An′athoth
unequal
Getting
Chusai
love-@@
Chest
Bands
Sigh
downstream
fer
thon
versed
15@@
Zelo@@
wearies
relatives—@@
liah
Plea@@
gashes
flood@@
Fool
month—@@
jointed
Heleb
voweth
aimed
wis@@
ill.
Mam@@
ah—
fabrics
intact
Fuller
plun@@
shrivels
insti@@
salary
scorneth
replenish
how@@
quence
sible
kidnapped
necromancers
Gehenna
averted
Haggidgad
Anani@@
sentry
delusions
Hor-haggidgad
chieftains
notify
Victory
Jehezkel
signature
Vaizatha
prudently
scene
dandled
aven@@
Kir@@
massacre
charac@@
clears
cher
Incense
idolatries
meted
gree@@
aning
graces
grain-cutting
d-out
desire@@
sinless
penis
sane
cow@@
Heap
Vo@@
witch
Sub@@
buri@@
Sti@@
deligh@@
Seize
sprinkleth
pon@@
sobbing
adher@@
Ish
last@@
ement@@
distributes
Grow
Sna@@
tines
Offi@@
Hungry
Grave
ket
performance
God—I
laboureth
submitting
ense
feebler
comfor@@
decays
truthfulness
wardness
Beer-@@
aboundeth
cleanseth
life—@@
chario@@
vocation
pricks
suits
fatho@@
install
like@@
swo@@
instal@@
threatenings
Down
exc@@
forbids
bereavement
devasta@@
seizures
Abyss
Lo-Ammi
Alexandrians
destine
Malchi-shua
Whom@@
observ@@
prowled
quivered
sprigs
sioned
Titius
discrimin@@
Adami
Zu@@
Calves
meron
hopeth
enlar@@
Dara
susta@@
reprobates
bridles
villainy
spills
Zaphenath-@@
significant
flesh@@
aneah
inventors
Agree
Pure
rs
22,273
pestilences
Hach@@
Azal
Acshaph
Opposite
transfigured
grinders
dweller
gan
latrine
watchings
populated
gard
mother-of-pearl
fiel@@
pennies
unspotted
plea@@
turtle
boar
hades
tittle
farthing
mly
servers
Multitudes
princesses
planters
indecency
purifier
ers—
Huppites
Bamah
Pangs
inclinations
unworthily
humps
benob
Shuppites
homers
rocked
fig-trees
scold
wr@@
singled
rememb@@
salu@@
accoun@@
unted
pricked
maggot
councils
rendeth
kille@@
responsi@@
Friday
nephews
age-old
wh@@
Worthless
lessons
thong
crag
issuing
malignant
countenances
diver@@
smelted
transform
outdoors
—she
betrayers
bowl@@
dominions
encircling
objection
Nazarites
hardheaded
kings—@@
Hence
brambles
Emmanuel
Head
Hur@@
vir@@
dg@@
glori@@
ller
churns
Shut
horses—@@
ckling
Baptism
Point
950
initiative
impartial
alliances
shiel@@
Scroll
—these
passages
labourer
ote
Bath
Adulter@@
astrologer
cade
Produce
turing
campa@@
Threshing
body-@@
principals
endeth
Jerusalem—the
N
ight
moneybag
accomplishing
Prophecy
Teko@@
ts—the
confirmeth
skinned
mities
terri@@
D
poll
athirst
Ninive
discredit
Zo@@
eyed
elevate
remit
tires
1⁄3
cower
gaped
restraining
classes
Jebusites—@@
broken@@
her—
patterns
suspected
ce—and
every@@
comings
ency
Hal@@
topple
lli@@
commandedst
callous
Pea@@
Beon
contrariwise
enables
tedst
chers
ly—
pper
Obe@@
mediate
unrestrained
dless
forty-nine
Mini@@
hill-@@
distinct
Joshibiah
mper
away—@@
funds
ting-@@
estimate
ulcer
green@@
fashioneth
Ena@@
enig@@
reve@@
Hark
girdeth
favourable
ction@@
preside
dors
immolate
3:@@
crouched
hat@@
Gebalites
whe@@
Reph′aim
cea@@
effected
Arvadite
Chesed
Nathanias
Dizahab
extra@@
bbed
Zemarite
Aholibah
capacity
perceives
As′ahel
confinement
Keziz
camp@@
ces—
beho@@
foretelleth
Hanok
Perfect
ledst
Shimeites
ured
Iez@@
Benjamites
-worker
colts
signets
preserving
bonfire
years—@@
Barachias
raids
Bi@@
revenger
obs@@
whoremongers
execra@@
medallion
fullest
Star
prohibited
sever@@
Esar-haddon
grave@@
43
Gods
Run@@
appeasing
Close
Bene@@
ber
gods—the
myriad
cheri@@
metalworkers
almond-@@
humb@@
expl@@
Uncover
Conspiracy
soothsayer
sack@@
fast@@
festival@@
jesus
deprives
contemn
seed-bearing
folks
Ooli@@
chiliarch
chiefly
civi@@
fection
bate
Majestic
Tekel
foresight
s—each
Mag@@
dissipation
great-@@
Per′izzites
Bamoth-baal
jewel@@
crumbles
Sew
self-same
effectively
ses—
crews
porticos
al-@@
strut
Bethsa@@
va
snuff@@
Eshkol
Hak@@
lusteth
Yahweh—@@
Harar
18th
lottery
man—
innards
hathi
E′@@
brazier
Astar@@
Rabbath
205
Ma′acah
172
Elkoshite
baldhead
Quicken
Nor@@
Elimelek
Bashemath
tob
tusks
675
white@@
stouthearted
soldering
′lai
nose-@@
tains
wintered
wellspring
fifty-nine
Manasse@@
840
Jaar
soda
—two
Nin@@
pails
Henoch
Zeredah
Berothite
Haram
rapes
moisten
Machbenah
cupbearers
ai@@
Aliah
alleys
Tru@@
powders
Iturea
Shophan
miscarrying
Hamites
wer
cho
baptizes
77
tub
emboldened
To-morrow
mauled
′ra@@
Ezion@@
harts
choh
pier@@
alon
Laun@@
uncles
javelins
′dah
—except
Asherites
sharpeneth
fami@@
wash.
an-@@
u′@@
verses
sage
′emoth
ill-gotten
overly
Siba
sheer
Fear@@
Arimathaea
-worm
affirming
Chislon
Havvoth-jair
Hazarshual
Shagee
ddled
Mecherathite
Semachiah
Hammer
Pochereth-hazzebaim
hearty
directeth
ury
gy
Kar@@
distor@@
refu@@
Lots
dream@@
satiate
Stupid
moti@@
Sho@@
prevails
cher@@
letteth
shames
Tishbe
dispersion
Shim@@
coming—
authori@@
stiff@@
extort
mortars
′el
fe
Ludites
Lehabites
noisome
Anamites
Meribah-@@
Naphtuhites
rying
redeemeth
gold—
histor@@
petitioned
lunatic
howled
Jo′el
increasingly
Black
Punishment
irritable
Face
stone—@@
quir@@
unstained
sement
signing
sity
mangled
Gree@@
invested
marveling
ok@@
displeases
surprising
Ur@@
starved
reproach@@
Books
iming
noised
Micai′ah
reeling
diction
Phrat
Grove
hand—@@
betra@@
tenderness
wantonly
improve
hug
itted
Nehelam
downstairs
22,200
differences
indulged
unprotected
Olive
Gibeath
baffled
riotous
Rechabite
straightforward
Abel@@
severed
litter
60,000
consi@@
bling
Drought
pleadings
anything—@@
ances@@
conven@@
Bab@@
condu@@
barter
forti@@
stly
perpetuate
Win@@
scul@@
dispen@@
bad-@@
resemb@@
Jeho′ash
rupt
cloven-footed
Mika
presby@@
overseeing
tically
pronounces
resh
Drag
Fo@@
ind
Dedanites
tales
oc@@
call@@
leader@@
Commander-in-Chief
Plague
eries
incontin@@
tingly
deliver@@
lecture
steri@@
albeit
Animals
glaim
salutations
Elo@@
sealeth
Jehovah@@
maskil
seared
Owe
mown
pedestal
Pispah
Sinim
bait
squads
concupiscence
Cyrenian
congealed
fifths
felling
servant-girls
Soul
satisfieth
Hiddekel
Lodge
Phut
fanned
Grea@@
832
imprisons
Josheb-@@
sympathetic
signaled
provi@@
adulter@@
17,500
Panic
mishpat
mobilize
malig@@
scrawny
two-horned
money-changers
sy
squared
guardhouse
join@@
downpour
lef@@
ibex
performeth
piti@@
management
speakers
bility
babblings
forgetfulness
healthier
—unless
requi@@
sews
Apharsachites
Phas@@
heart—@@
cricket
'to
winding
Adra@@
Temple—@@
enligh@@
Nekeb
beak
puffs
prematurely
Pihahiroth
proper@@
boot
Harmon
saddened
Celebration
Gil@@
shuddering
unmindful
tude
compares
imitating
gent
Az′@@
unmarked
Tel@@
arrow@@
commit@@
wasteth
thel
reapest
drea@@
Speaking
to-@@
lotions
presseth
mi
Nehe@@
formless
observeth
flamed
befalleth
alike@@
chimney
commencement
shop
Alamoth
Surrender
eless
complaineth
stress
concluding
deliverest
upb@@
ttles
professional
sche@@
drinker
ch-@@
Ashe′rim
s—for
convey
rulest
uncontrolla@@
Stre@@
instituted
grin@@
Noemi
Egypti@@
Shechemites
resolu@@
′oth
night—@@
stro@@
verify
bereft
spitefully
bridal
11@@
ckness
profi@@
accompaniment
Bringing
Sar′ai
climbing
gah
minding
done—
compasses
griefs
tle
evildoing
proposition
homosexuals
intoxicating
edged
cohort
Total
thers
ges@@
Messi@@
d—they
fronts
neh
writers
stereth
ineffective
yeast@@
crevices
empowered
chus
Chalda@@
degrading
recru@@
ancy
32:@@
comman@@
flayed
ramp@@
initi@@
addar
angu@@
ssing
Asrielites
grasps
Belaites
Gunites
protesting
Shebarim
he-@@
misused
laite
Oznites
thereafter
tes—
haberge@@
dy@@
impiety
pathways
Shimron@@
forgat
kernel
pes
yearning
impartially
Jeth@@
wrea@@
esteemeth
oped
sea-shore
deviated
Lord—that
work—@@
Hepherites
Archites
smolder
occult
uphamite
associ@@
reason@@
catt@@
Heberites
meditates
pin
dant
it—the
Pathrusites
Isshi@@
entangle
restoreth
swaying
—an
hiring
reas@@
God-given
prun@@
shed—@@
kable
Formerly
inhabiteth
fire-offerings
blocking
co-worker
Ter@@
day-@@
n—@@
seaside
solved
waggons
wide-open
tackle
Continues
mira@@
Eli′ashib
ls—@@
Am′alek
outlying
couched
ith
waxen
sup
freemen
underclothes
defined
Col-Hozeh
ass@@
tenth-part
refreshment
muel
behaves
ign
conquest
stream@@
epistles
smelting
miter
tious
inspecting
shoulder@@
sneak
assisting
waterpots
calf-shaped
Nathinites
tuni@@
bread-maker
shears
Naha@@
Maac@@
hatched
enslaves
impotent
livelihood
Faith@@
fightings
rigour
Ther@@
Cades
-haired
perj@@
outspread
blacksmiths
Sema@@
Beroea
inquisition
propriety
inch
signpost
Phin′ehas
shea@@
me-@@
amulets
ME@@
mantles
incapable
settlers
bble
dark-colored
Athali′ah
Traitors
enclosures
magni@@
Sep@@
Geshu@@
strutting
Zamzu@@
obliged
athaim
motion
Ek@@
Laziness
gong
sardonyx
Elkosh
encamps
'Job
suppress
Eph@@
133
pulse
Nail
'Curse
exploring
Seas
rapha
Zecher
araloth
swindlers
tha@@
blindly
Kind
hamstring
Measure
territorial
TEKEL
crust
hud
Dominion
2,300
Mockers
forgetful
Beer@@
soiled
Berites
man-child
Intelligent
psalmist
refund
Wind
-tempered
meddling
Eigh@@
fantasies
disrepute
Zara
Judgments
Zina
Hamulites
Pochereth
Baharumite
Jaasu
gecko
thoughtlessly
stoodest
Barhumite
nai
Beth-togarmah
enias
Step
Isma@@
Goyim
eah
redness
tributary
Ko@@
Finish
regrets
she-goats
devo@@
Speaks
medd@@
Ahimelek
′ha@@
espousals
destroyed—@@
Rabsaces
ddest
phan
Rab′shakeh
Huram-abi
erant
hothe@@
malefactors
hash
Sufficient
Eg@@
dom@@
Oil
morning—@@
warped
heartache
exactor
basic
Dark
alone—@@
ridiculing
thundereth
mb
encampeth
kal
two-fifths
Happiness
Kn@@
incomplete
echoes
introduction
secrecy
dicated
Tax
farm@@
traffi@@
stent
of-@@
statu@@
bull-@@
lizing
passer@@
winnows
ceiving
games
threatens
incin@@
'Did
outburst
Alongside
Bosheth
biteth
hometowns
feast@@
rest—@@
-up
Robbers
lap@@
bench
Desiring
tments
pocket
leness
corroded
eb@@
murderous
Necoh
maacah
tarri@@
sealskin
infancy
troubler
retains
subordinate
Bor@@
140
huddle
seething
subsi@@
discredited
distur@@
alcohol
ingra@@
wrestling
Thieves
aghast
devi@@
Quit
soldi@@
Consult
troop@@
ed—the
fresh@@
m.
Tharsis
furnaces
weightier
beth-@@
drains
experiences
despi@@
Rab-saris
ugh@@
ascents
orator
despisers
term
Thousands
formula
Zeal
replica
panteth
surveyed
gies
paps
igh
lat
kisseth
Bend
dies—@@
complainers
treasure-house
Hazz@@
tyranny
fearlessly
zzled
tendons
presence—
Hyenas
ing—the
Esh-Baal
stark
turtle-dove
bran@@
284
gulf
Benoth
pistachio
wood-@@
terrestrial
harpers
Tatnai
ilor
Fla@@
mination
solace
Baalpeor
Dammim
Hatach
Caesare′a
Azno@@
Nicolaus
asp
madly
-al@@
worl@@
bet
Freedmen
Healthy
proconsuls
drums
tresses
gravity
3,023
illuminated
17,200
smolders
clarity
pollutes
saliva
87,000
cable
specifications
350
festi@@
enticing
prunes
neighings
assignments
clouded
dep@@
153,600
rable
saviors
planets
barbarian
17½
Didst
poorly
stam@@
grisled
indescribable
delays
gallop
66
political
vigil
law—@@
nick@@
Idumea
'Or
22,600
extinct
Tehaphnehes
Pack
huzoth
appoin@@
freewoman
mosaic
ct—@@
abstains
'Nineveh
immeasurable
strained
litters
there—@@
conducting
'Mountains
December
Regiment
expects
22,034
Jew@@
self-condemned
child@@
watchtowers
beholdest
blest
himself@@
died—@@
stripping
rebe@@
assets
earth—to
cements
disquiet
50@@
regional
outlaw
revert
viol
gibbe@@
meless
enlargeth
enthusiastically
demise
equi@@
heres
right—
conform
exploited
inspire
mates
Deliverer
Ruin
itting
day—the
pleadeth
outra@@
Chalde′@@
Often
Under@@
conversing
intervene
themselves@@
Tobias
are@@
ton
liter@@
sentest
noose
hundre@@
coloni@@
Calamity
rebu@@
AL@@
tumbleweed
Rep@@
gorgeously
Inhabit@@
amidst
ice-storm
tching
mias
vor
identity
blessing@@
'Tie
self-indulgence
Jezerites
battlements
aroun@@
Shuhamite
Rehoboth-@@
Ginnethoi
Eli′ab
Ahiramites
flat@@
rene@@
Shemidaites
roun@@
ek
Jaminites
dences
justifications
Shunites
Elonites
ana
Erites
moat
Haeleph
T
Ardites
rious
Huphamites
contra@@
truth—
peopled
Shilonites
out-@@
Haggites
existing
hereditary
gating
Hazer-@@
perpetuity
Carcas
Bur@@
concourse
Arodites
Hadattah
flowings
twenty-six
mad@@
Eranites
Susan
apace
strong-@@
pitfall
nomads
abstinence
Instru@@
lakes
buttress
lookest
well-built
pitieth
seamen
sleepy
passengers
obelisks
dan@@
din@@
Empire
mm@@
exclaim
Magen
46
cially
questionings
deliverances
gobbled
portals
consternation
correspond
tow@@
side—
perfumers
ancestors—the
flesh-@@
Elisama
expound
chorus
minated
riverside
lurks
Nabat
multi@@
batt@@
goat-@@
death-shade
invasion
Elish′ama
Ste@@
lted
forgiven@@
heaping
—may
strong@@
incan@@
Jiph@@
Tobi′ah
peace-loving
frightens
non
heweth
fuls
relentlessly
Sabbath@@
herons
*He*
Carve
supervising
exercising
striker
weth
administrative
adhere
eds
inquir@@
smoo@@
heapeth
Reign
bed-@@
Tribe
Marvel
enu@@
lodgeth
surged
Samaria—
tester
indicating
red-@@
Clo@@
Laz′arus
strait@@
Thecu@@
t′@@
propitiatory
unborn
Gentiles—
Cre@@
perjurers
confisca@@
Twenty-four
inqui@@
ESS
lodging-place
save@@
north@@
dissimulation
sparkle
time—
swerved
riverbeds
dire@@
reviles
nouri@@
tioning
Hananias
Eyes
flourisheth
55
Whilst
cement
Surround
obeyeth
honours
stor
subverting
Meshezabeel
wit@@
gleamed
Uz′ziel
assuming
vity
cop@@
passover@@
a′im
transp@@
children-to-come
overshadowing
fications
yer
Bokeru
Idithun
wrist
begin@@
Barsabas
restra@@
feathered
yo@@
laced
repul@@
panted
mournfully
vowest
paneling
Bri@@
appertaineth
anxieties
solic@@
Juda@@
excels
sues
invol@@
—are
Falling
Osee
growls
Gaba@@
winter@@
picture-stories
lutes
seasonal
ian
style
Bosor
Any@@
Hezronite
perfu@@
Phinees
stoops
chite
livestock@@
gnashes
Ka@@
Sele@@
Leban@@
makeup
holdings
land—a
dai
riel
Eu@@
stipu@@
ouches
Shere@@
interceded
anna
dire
shed—
aria
ank
slaughtereth
mas
Uzzi@@
Hebrew@@
7,875
crest
outbreak
figure@@
Are@@
Mattani′ah
Can@@
Jephun′neh
enes
anai
Hashabi′ah
dislikes
56
incurs
burn@@
pea@@
'Heaven
Melki
186,400
Tob-@@
drowsiness
Pela@@
151,450
108,100
dropsy
Asher@@
Bin@@
Jec@@
157,600
Banner
1⁄4
24½
galley
saltiness
Hebronite
Methe@@
-am@@
14,700
zabad
Sensible
zoheth
1,290
Grandchildren
24th
Masters
Sebam
Gibeathite
concealeth
Harorite
persistence
threefold
afterbirth
shesim
Machnadebai
salve
Sheb@@
rough@@
fiercer
Cur@@
thful
s—it
Kiriath@@
hoof@@
hu
sh—@@
abhorrence
ingathering
slacker
Jam@@
Burst
Whole-Burnt-Offerings
zatha
Tend
'Stay
tribes@@
Abandon
hur
discre@@
Keri@@
adjured
excite
servest
Arrogance
Gathrimmon
Portion
fornicator
guar@@
Amend
Supp@@
raim
simple@@
conten@@
Hazzelelponi
busi@@
Maher-Shalal-Hash-Baz
Ashbea
clashing
weep@@
favor@@
pronouncing
hatches
Eli-@@
man-@@
waken
fig@@
Swi@@
foreman
Refuse
travails
sucked
pampered
Condemn
snow@@
depression
desolating
Cour@@
Extend
Ammin′adab
waster
Fin@@
sifts
complacency
angry@@
kn@@
aug@@
gobble
phs
pollution
Cla@@
yearn
author
eyes—@@
founding
sufficed
crashed
shortsighted
confi@@
incl@@
deli@@
refrains
schemer
him—and
ckering
cribe
mour@@
Look@@
Kir-@@
square—@@
disastrous
mercifully
Thinking
standing-@@
rection
discipl@@
gloating
strates
pillow
blame@@
thoughtful
patrolling
plen@@
quoting
bridegrooms
gladden
sgiving
theme
dealer
undermine
solicitous
are—the
deference
thrashing
caverns
journe@@
slashed
ut
*Ye*
flogging
vic@@
grandparents
targets
aboli@@
looseth
Elte@@
Abed′nego
Pere@@
stently
profession
unmerciful
lifestyles
sni@@
enforce
lifetimes
bastard
fertilize
businesses
cornets
Amalec
situate
Ascents
-hearted
rob@@
foothold
upri@@
Beth-eked
raineth
obsessed
daring
knowledge@@
myrtles
ented
spoileth
agitated
Redeemed
debated
executioner
fon@@
opes
logi@@
hesitated
publi@@
Fortune
Prepar@@
67
Decent
consider@@
accompanies
tough
snows
ful—
seless
wre@@
threshes
blackest
zzar@@
curves
boulders
cockatri@@
Jews—@@
mately
Ucal
Sitting
Hun@@
Huzoth
318
26,000
Deserted
unprepared
Believest
survival
Hammoth
Shuphamites
44,760
745
toiling
netherworld
distressing
fouled
Jahzeelites
env@@
sniff
renewest
foresail
Palluites
Ivah
jaw@@
uncertainty
cefully
fewest
Ashbelites
Shillemites
Jahleelites
yearned
Allammelech
hunchback
Wrap
Wolves
Zoba
benoth
freewill-offering
dressers
unstopped
sumptuously
Parbar
offal
Zephonites
Hammoleketh
momentary
pun@@
Swing
oppres@@
speci@@
fines
Destiny
Hammolecheth
Mishpat
fatter
Helekites
bakes
Evildoers
conceits
Binding
Pispa
disbelieved
Kerub
'Remember
slinging
Hamath-@@
superi@@
pods
overpowers
hiding-place
Nemuelites
Areopagite
Tahanites
age-@@
Ministers
slowness
Question
1,760
edifieth
antimony
daub
Tolaites
tale
Enrogel
tabrets
sn@@
tow
laboreth
'Destroy
Sukki@@
′cia
Important
Aznoth
retinue
Street
strangling
Go'el
concession
ounds
chir@@
hatticon
gangrene
Naamites
ddah
thunderous
tantly
oarsmen
longingly
Aram-naharaim
principality
Ramath-@@
lip@@
terrorized
Carmites
uprooting
Pas-@@
distinctions
Arelites
rabbim
deliber@@
simp@@
cke@@
judgment@@
Unlike
soberly
Insomuch
ahu
brigh@@
retaineth
directors
Resh
flap
succeedeth
obe@@
rehear@@
persists
Healing
ish
graveyard
Ostriches
del
submits
propitious
griev@@
debates
shewest
dipping
fair@@
unrighteously
disannul
a—
Weeds
absolved
engulf
Quar@@
distill
ilers
dedica@@
sacrilege
s—so
ares
trunk
colon@@
arri@@
suppor@@
overlayeth
Joy@@
strong-place
Division
cible
thorn@@
plo@@
guard@@
lant
inflicting
stles
exultant
led—@@
mood
laypeople
—men
never-ending
entirety
reservoirs
Pur@@
veness
lovingly
confu@@
down—
nians
high-ranking
thes
observers
unrelenting
stance
live—oracle
tionally
batter
ene
plazas
slightest
sheared
trustees
dom—@@
origin@@
ctured
Insults
blisters
thunder-@@
provideth
quie@@
sensuality
yedst
tax-gatherer
exac@@
destru@@
waketh
gover@@
Renew
falsi@@
Sil@@
groun@@
acknowledg@@
Cleansing
Fold
kind@@
resettled
ring-shaped
mutilated
Asael
elaborate
unburied
dders
ails
cause@@
ardent
Laughter
quently
contradicted
anger—
darkn@@
taster
determin@@
Circle
eyes@@
ronites
cotton
Colhozeh
IN@@
ignite
msy
castest
woman-servant
pow@@
tain
panting
Eli′akim
Nathan@@
culti@@
worthlessness
pra@@
all—
disapproved
—The
ity—@@
mouth@@
blooms
dure
assur@@
musick
bendeth
undance
Nebuzar-adan
chopping
aided
sample
chargeth
See@@
dary
mul@@
Nebu′zarad′an
them—a
oughtest
appreciation
rescuer
accep@@
'Assemble
ware@@
Shine
vement
Recall
commandment@@
tion-@@
Babylon@@
ement
labor@@
judah
withstanders
Abi′athar
drift
Nabuzardan
Previously
apostate
observer
ily
posing
anger@@
rejoi@@
willfully
fea@@
Pherezite
brighten
Extol
waste@@
splatter
leatherworker
7.1
Climb
ech
riously
dimini@@
ption
moun@@
Ransom
Assign
house—
suspicion
Ba′a@@
ina
anticipate
broken-hearted
ashi@@
servi@@
mia
exterior
lla
Bath-shua
chor@@
dwelling-places
motioning
bitumen
ess—
Dedicate
Bath@@
ascendeth
thu@@
insensitive
mmelek
striveth
grumblings
steel
arranging
ny
glorieth
utter@@
Miphiboseth
occup@@
lands—four
Mephib′osheth
haunts
Ar-ta-xerx′es
mering
Causing
eigh@@
inspiration
Myrrh
ute
pre-@@
background
water-spring
Sac@@
betrayeth
Maasias
grass-@@
vers@@
Pau@@
waging
sheep-@@
specu@@
sear@@
Sacrifices
ough@@
tam
song@@
ump@@
verbally
Cries
llo
invalid
wood—@@
chargers
appertained
minates
Archi
intents
protruding
Unfaithful
sten@@
ornate
clumps
There@@
Eliasib
Cham
Rama
Peri@@
cently
thronged
excelled
retreating
privileges
tricking
Oziel
trimming
bor
seminal
Aholah
Ama′sa
commandest
Bethpeor
liga@@
rul@@
similes
routes
Megi@@
buryingplace
surve@@
illusions
stering
practised
enemies—
Byblos
develops
Tilgath-pilneser
geni@@
adults
apo@@
ctively
smiter
extrava@@
Jor@@
Gabaa
Lighten
bread@@
searchest
clip
Kiriath-Jearim
Jon@@
Zeboyim
Manasseh—@@
tively
Chelu@@
Jephone
canceling
brakest
Ashdo@@
you—so
dar
Kirjath-@@
trackless
buriers
Micmethath
Zab@@
hatchets
Barzil@@
830
910
912
595
Jerubbesheth
807
207
209
Shahar
reforms
822
Select
OU@@
pathless
Jecholiah
956
Happuch
242
782
Beerothites
905
182
187
777
895
foot—@@
815
930
Kirjatharba
162
962
969
Chislo@@
119
dependencies
Asor
Shimronites
Elie′zer
em
Jashubites
ob
Gederathite
Joz@@
Nu@@
wreathed
rudge
Kad@@
Kibrothhattaavah
th-dor
Jaare-@@
rehob
Tryphena
armourbearer
woollen
Eli′phaz
Taste
5,400
seedtime
1,335
Answerest
accent
sodomites
emi@@
aias
ith@@
Sco@@
outweighs
inexpressible
daia
precedes
Naphtalites
Seph@@
Grain-@@
registers
Perfume
wreaths
tekel
transaction
Below
'Dry
brawler
hyra@@
mmelech
Register
Anxiety
Pherez
Gad@@
good—
squan@@
Amari′ah
coney
jeered
amah
Micheas
Sees
sensibly
revolution@@
Gathering
bree@@
suet
disowned
Hazor@@
whea@@
ignominy
dictate
Ajalon
opp@@
tarnished
Shelanites
alter@@
summer@@
′ar@@
tten@@
jumps
Unity
frowardness
strewn
miserably
renders
successive
classi@@
poses
'but
employer
handwriting
handmaidens
Tig@@
alienate
Moved
harrows
you—that
proclaimeth
Jim@@
menstruating
charioteer
summertime
bled
embarrassment
chewing
she-goat
describing
Dry
criticizes
val
malign
crucifixion
exacts
chasteneth
reconstru@@
thing—
Deliverance
harvester
iron@@
Deli@@
emer@@
journeyings
extre@@
forgiveth
arising
people—to
ley-@@
Ignor@@
Bloodthirsty
quoted
dancers
speak@@
gossiping
splendidly
anno@@
fic
repealed
Brace
bitter@@
Idolatry
discerns
Elohe
desecrating
ido@@
sul@@
tyfold
dica@@
reopened
ition
jesting
shack
puffeth
swiftest
undisciplined
subverts
Acquire
Gimel
Charity
distinguishing
shings
staff@@
aggra@@
divinely
ilings
52,700
exten@@
sin-@@
lti@@
freeing
Gaddah
2,750
Captain
homes@@
detain
gulp
Travel
him—he
lebaoth
sured
libnath
assaults
raze
64,300
wretchedness
pazzez
45,600
cools
928
Carrying
arbitrate
365
reconsider
sighed
Shaulites
befits
contaminates
sable
Iyim
Jesus—@@
43,730
Lahmas
bagpipe
60,500
mice
satan
invader
prevari@@
64,400
45,400
Loving
reluc@@
thea@@
76,500
berak
468
Taanath
32,500
discouraging
Susah
Praised
waterfalls
Opp@@
go-@@
glows
plunderer
market-place
Pres@@
Aaronites
dding
meel
resumed
flir@@
147
clarify
considerate
mastered
pretenders
ziah
scourging
Hosts—
consultation
reno@@
pilgri@@
respecter
corre@@
seness
Practice
ordeal
dust@@
entious
Thin
visitest
ceive
Ish-bo′sheth
Masphath
herdmen
children—
champion
deni@@
exceeds
convul@@
sai@@
generally
trou@@
overthrowing
rehearsed
constraint
storm@@
aching
ckled
Publicans
coveting
greens
'Save
Almigh@@
pray@@
bear@@
AT
Affli@@
Me-zahab
Liars
ero@@
combed
fier
mits
benches
enri@@
tricky
Archers
distraction
1,3@@
Hashabniah
Adino
brightest
Gladness
'Lo
'Perhaps
lagging
Religion
handkerchief
pesti@@
trees—@@
lay@@
virtues
29:@@
strength—
thorn-@@
assail
theatre
mortga@@
beseth
250,000
Hodshi
fool@@
intensely
detailed
shepher@@
fourfooted
bre@@
disapproval
Husband
destroye@@
Lebo-Hamath
Ezel
Beings
harpoons
Shear-jashub
Asharelah
veled
daubing
53:@@
rainstorms
you—unless
Nicolas
scarecrows
resentful
much@@
sloth
itful
zobah
Persecu@@
washpot
tramp@@
Casluhites
1,100,000
Tubalcain
urim
loosens
saty@@
brokenness
scratch
expresses
lema
emissaries
Hatti@@
austere
adequate
Basshebeth
Refresh
chestnut
poison@@
Christs
Iphtah-el
'Ask
whisperings
convulsed
contaminate
Ea@@
stammerers
Aqaba
collapses
sphere
Mour@@
212
lama
grass@@
strating
scho@@
Jaan
Stea@@
mizpeh
snu@@
splinter
chasm
hoe
Rabbim
professed
wed@@
Fishermen
elemental
Sca@@
licentious
Uzzen
founds
470,000
armpits
Peth@@
Farmers
sisters—@@
lightness
Strea@@
footing
mour
uncomfortable
Reward
rapine
cess@@
gath
advances
sinfully
unapproachable
Geruth
Muster
Seers
improper
unnoticed
60@@
Perez-uzzah
Summer
entary
dues
Pe
wields
impale
sorrowed
armoury
terribleness
answerest
convicts
tamb@@
infidelity
lov@@
commonly
negoti@@
ation@@
creature@@
beau@@
feeble-@@
up—
stin@@
ney
yesternight
resurre@@
red-hot
Zaph@@
Believers
truth—@@
mustering
threateneth
garner
applying
season@@
neck@@
inking
loathing
unbla@@
openest
benefactors
unrest
defenders
Leviticus
Comp@@
courteous
ing-places
Daily
verge
distraught
feebleness
Lov@@
contemptuously
represented
lusty
unqualified
badness
sneering
Azari@@
menslaves
elder@@
bowshot
acqui@@
princely
know—
willing-@@
thoughtless
forecast
deter@@
assayed
more—@@
plucking
redu@@
porpoise
Troubles
bulrush
hasting
dr@@
Favour
ashim
dation
wine-skins
aph
ements
acclaim
seclusion
Satan@@
mischiefs
interven@@
first@@
NA@@
magnifi@@
sky—@@
Ci@@
corresponded
paces
jackal
ort
sneaked
inhabit@@
Gener@@
ressed
accuseth
catta@@
upraised
Joppe
reprehend
Bethlehe@@
recalling
tary
Disease
rats
Ab
spatter
Potter
ES
sergeants
Prophe@@
mple
theth
ony
family—@@
silver-@@
reprehen@@
whirl
excommunicated
discovers
tedly
Consumed
posses@@
affection@@
nish
RI@@
arbit@@
revilings
gift—@@
through@@
'Watch
encing
merrymakers
Eag@@
'—this
Tan@@
connecting
scouted
stating
boundless
'Praise
subverted
turtles
maidslave
decl@@
reveling
flesh—
portents
reviler
Sok@@
nom
Bether
Filled
perceiveth
glee
battalion
safe-covering
this—
Turkey
chief-of-staff
despairing
Magda@@
les—@@
erah
olden
them—and
wilder@@
cup-bearer
Chanaanites
Kare′ah
sun-@@
sam
Small
manufa@@
possession@@
bit@@
hoods
tual
clamor@@
widespread
posi@@
samples
thrusting
conspiring
iness
offends
fiancée
expanded
defa@@
beckoning
General
prosecu@@
brow@@
else@@
ath-@@
Ken@@
Fury
—now
deceptively
second-@@
sedly
Kal@@
panic-stricken
Solomon@@
us—the
resour@@
soms
13:@@
instin@@
unicorns
contro@@
Meth@@
morn@@
augury
water-vessel
sycom@@
12,500
liti@@
cite
hands—
suited
latest
intelligible
conqu@@
5,@@
Gate@@
dissembled
llar
writest
ringstreaked
1,0@@
hak
Hamon-gog
extorted
Iscari@@
anytime
Perform
bittern
Jehoi′achin
aphi@@
dishonoured
shai
thirds
aromas
lemi′ah
forgettest
instru@@
′ni
th-facing
Mars
frontiers
Oza
takers
tants
Taph@@
cleaving
signals
partnership
Gazah
falcons
desirest
Sheminith
erup@@
′i-@@
flasks
scarves
hypocritical
12:@@
mention@@
ensigns
wide@@
'Thy
preven@@
midair
zon
Canaanitess
mech
beauti@@
aniel
endow
portray
Hesron
forbi@@
banned
intricately
ravaging
ap@@
kingdom@@
hon@@
Lob@@
excelleth
Bala
Mich@@
148
Machbannai
Remmon
ga
pink
certified
Poti-@@
knobs
reassure
thunderbolts
Aquilon
′am
yellowish
Kir′iath-@@
Levites—Jeshua
Ants
11th
Consume
soothed
teats
kneading-@@
ceiled
Jedu′thun
Jerub@@
Ker@@
exempt
north—@@
188
occupying
ttest
imah
watercourse
curse@@
Mas@@
Maha@@
alo@@
Hez@@
slumbered
fasteners
times@@
Jadah
bearded
sheddeth
edan
Tham@@
meeting—
li
360
Shaalbon
Gerges@@
Susim
8,600
276
307,500
Lehi
Sahadutha
seamless
mims
Hesed
beggars
aga@@
Kaiwan
happuch
hesed
Butter
paran
banipal
Came
Ashan@@
chi′ah
Aczib
'Also
Timna@@
Cariathiarim
Phara@@
nel
partially
transla@@
Cozeba
baptizeth
pher@@
uah
field—@@
Memu@@
cherishes
Shim′e-@@
'Unless
Asaph@@
Diverse
forese@@
buzzards
′jah
'Attack
lities
Agreed
′roth
gradually
tilleth
Beth-shan
Janohah
rabbit
Abel-beth-maacah
communing
disregards
Okran
Dishonest
desola@@
Loyalty
Be-er@@
Baalgad
Empty
roundabout
'Sanctify
warmth
city—
size—@@
Rightly
readest
Invest
Final
Nethan′el
Oak
rehearse
ods
Trou@@
esteems
′tha
Mak@@
Geha′zi
Shil@@
Oz@@
straitly
Wounds
g-@@
Sem@@
wipeth
Quiet
litess
Zebub
Me-Zahab
celebrates
oni
sh—
wri@@
′bai
fati@@
World
itous
weigheth
agent
jews
forges
Meron
Lady
boil@@
Capture
lum@@
sal@@
thwarts
brightens
Jarkon
Chephar@@
Command@@
Accuse
gaddah
perceptive
Azri@@
vented
Shihor-@@
tribunes
god-@@
symphony
Pazzez
690
Israelitish
Lahmam
rang@@
tumble@@
sannah
Haddah
6,200
Magni@@
trafficked
inflated
quits
Belonging
Jachinites
jarkon
dal
530
Phenice
Punites
cruel@@
fry@@
homeborn
War@@
comra@@
tour
tages
Frightened
travelling
oth-@@
'Good
flagpole
think@@
forge
damsels
scandalized
slight
flaky
Nonetheless
apothecary
kly
Koph
Pharaohnechoh
true—@@
swaddled
culous
dispo@@
preten@@
sevens
Tau
Shave
evaporated
Af@@
irreverent
Whole-Burnt-Offering
s—not
monstrous
voice—
exhausti@@
manned
tite
unleashed
alive@@
advan@@
Ear@@
chairs
infested
Thor@@
Schin
castrated
everywhere@@
Polish
godlessness
RE@@
itu@@
Tur@@
inclineth
handleth
Distribu@@
licks
meeting-place
operations
contradiction
laps
Bishop
duce@@
razed
detained
shunned
Greatly
confronts
lawbreakers
WH@@
Anto@@
successors
attract
salt@@
fain
be—
feit
Restor@@
Hearts
pride@@
exactors
Despi@@
couldest
ities
spouses
ferti@@
ruin@@
ses—the
s—this
afrai@@
squandered
fixing
painfully
winn@@
dominates
Cale@@
plantation
archs
huddled
loud-@@
gouge
resistance
battlefield
Hazar-enon
enlighten@@
Destroyed
Shaking
ten-@@
DS
fond
gnawing
athan
Beth-meon
Shel@@
consents
civilian
buffet
grieveth
Isboseth
Harbonah
nailing
jostle
Helech
Caper′na-um
panicked
great-great-grandchildren
condemnest
usable
Flight
Nazaraean
Beth-diblathaim
1,400
null
pala@@
felicity
foresee
laun@@
Beth-arbel
rift
truth@@
shedder
confederate
but@@
stumbling@@
Lydians
kerchiefs
′ni@@
Galilaean
38,000
endea@@
geous
husbandry
world—the
reformed
amai
Cro@@
saviours
20,200
misfortunes
road@@
ler@@
Succoth-@@
regardest
Baal-hamon
interru@@
mulber@@
planter
Diblah
xed
Tahtim
400,000
av@@
reception
chide
announ@@
Kazin
heath
cots
lawbreaker
Beth-gamul
Gazer
uhoth
Barachiah
ranc@@
Mur@@
bber
—where
appalling
Serp@@
expectations
stab@@
spade
Hathak
messiahs
relents
busines@@
roasts
replastered
repent@@
Shigionoth
lifter
rememberest
waterest
elected
fish-@@
boastings
minstrels
awning
sheriffs
Moresheth-@@
becamest
zens
Oppression
oused
dishonorable
appertain
sabib
insubordinate
variance
Benob
champions
scabbed
marketh
waistcloth
—whom
Grecian
tumors
Diphath
Nathan-melech
strang@@
unpruned
Damascenes
tto@@
Sprea@@
dictates
Baal-Peor
Assar
wrappings
steed
hoisting
ledges
subtract
Arbel
disinherit
ample
shoutings
repudiate
testifi@@
sifted
imitated
pyre
apostasies
mowed
reproachfully
shreds
mincing
slanderously
Jealousy
stingers
Genti@@
elap@@
brooches
Hozai
ornamented
aroma@@
exulted
satiety
Geba@@
joy@@
exhortations
housed
seafaring
sturdy
cend
jealously
Arriving
inhabitress
pondereth
leaved
mus
leaneth
manatee
inaccessible
show-offs
subtlety
Sounds
misses
oration
vowing
derest
responding
transgresseth
induced
abo@@
embarra@@
platea@@
mana@@
stills
backbit@@
lamp-@@
proclaim@@
unloose
Ses@@
Q@@
painting
Sad′ducees
sped
defamed
-wood
bewailed
ory
lment
′ibah
far-@@
bish
Few
containeth
foresaw
expiate
regiment
mulation
coming—oracle
unfortunate
Pra@@
20:@@
overruled
impetuous
ec@@
vulets
position—the
sheepco@@
originate
dishonor@@
swarest
lement
splinters
Laying
cross-examine
lentil
rab@@
UN@@
glutted
sc@@
gency
nullified
differeth
operate
ram—the
cornerstones
reconci@@
Pl@@
Op@@
Apart
open@@
detra@@
ransacked
posure
eks
south@@
Silo
Suffering
transgresses
herbage
mi′ah
Capharnaum
models
sp
many—@@
craw@@
Hey
whensoever
manifestly
essing
Sennach′erib
Dou@@
server
bloated
Faithfulness
reduces
fortune-teller
tumble
preeminence
them—to
zim
pines
idols—@@
beauteous
persuades
capstone
amaze
incredulous
ials
partition
workings
supplying
earthworks
shielded
spakest
battle-clothes
clatter
him—the
Midianitish
faul@@
Jabes
king—@@
ired
taskmaster
contribu@@
abashed
az
sel
Achimaas
sopher
Elipheleh
ditional
Moso@@
Bar-@@
est-@@
Cling
Dilig@@
Buil@@
debris
generation@@
neighed
Lord—to
augu@@
Dri@@
corner-stone
supernatural
stone-@@
Had@@
-az
manslave
magical
apprehend
stered
accompli@@
disappearing
unknowingly
bai
Bright
Contend
Protector
venge@@
inged
Fix
Dro@@
led—
necessarily
'Jeremiah
fittings
asylum
compar@@
Moths
ctly
participants
arra@@
ministrant
Priesthood
-house
downtrodden
chet
ishing
als—@@
occupations
Phari@@
firstfruit
Tribu@@
desi@@
ire
morning—a
inspires
vanisheth
numberest
settler
transgres@@
laborious
liation
rebelli@@
conci@@
extor@@
ant@@
river-@@
graved
retrieved
gape
nels
Eunuchs
lovedst
wheelwork
Remali′ah
precinct
try@@
m—
condo@@
compri@@
embroider
Romelia
hillsides
susp@@
Neg@@
Caree
cluded
reestablished
you—to
Publish
secon@@
denial
Mat@@
n-@@
meat-@@
Cen@@
pilgrims
Hachaliah
concludes
Cursing
Evilmerodach
wager
gil@@
arousing
pati@@
ding-@@
1-@@
ha′nan
Den@@
orph@@
l—the
variegated
spli@@
alm@@
sidewalls
organi@@
Sailing
important—@@
excu@@
Lambs
sickening
Assur
participa@@
dashes
group@@
—He
s'—@@
en—
predestinated
blasphe@@
windblown
Cis
61
Gershomites
Jehoi@@
en—the
sket
Athalia
Written
exceptional
blemi@@
leather@@
Chiefs
bases—two
Nergal-@@
Nine
Gent@@
Oho@@
necromancer
manslayers
inhabitants—@@
Sun@@
inheritance—
Jehi′el
deport
hemorrha@@
Moholi
s′@@
Miners
Ana
few@@
—by
enro@@
slippeth
Support
Josedec
bloodstains
20th
anc@@
link
Ban@@
circulated
archways
husband—@@
Cherub@@
Bon@@
future@@
Beth-she′@@
famili@@
hound
dias
′be@@
Zabbud
era
manite
swan
Beth-azmaveth
battle—@@
945
Pokereth-@@
655
725
721
454
667
Simeonite
37,000
156
beetle
apostle—@@
648
845
She-al′ti-el
138
Jesharelah
72,000
Ishijah
623
628
Hodevah
323
324
328
finery
October
gidgad
weasel
tah
tai
bors
Median
sh′@@
entry@@
—twelve
today@@
Caravans
eg@@
sixty-nine
ists
Divi@@
measuring-reed
Jedi@@
Kir′iath-je′arim
families—@@
mutually
ister
dismounted
Av@@
nine-@@
Ahohi
Third
san
headfirst
suspect
Kirjath-Jearim
Kirjath-jearim
punishable
drafted
sahadutha
Ashteroth-@@
flattered
288
hermon
Makke@@
plowers
circuits
Shed
kidnappers
Sarsechim
northeaster
gar-@@
Crea@@
Hasa@@
1/@@
Ituraea
Je′@@
Biri
bugle
four-legged
companied
py@@
rought
yx
taberna@@
Semeia
Joi′@@
Sara@@
casualties
tributaries
Em@@
Baalmeon
suspicious
lemen
Gir@@
Obadi′ah
daughters—@@
stipulation
athites
Naphtali@@
Mares@@
Methu@@
generations—
Ala@@
shanks
Josephi@@
bis
startle
ez
ada
-of-@@
brittle
Bithron
tills
reh
Allon-@@
Benoni
Letu@@
backslider
obediently
unshod
pacifieth
artificial
swoon
Elcana
Shu′@@
Zer@@
beka
appeaseth
Beltesha@@
month@@
exaction
Ephraim—@@
Va@@
Patience
Juni@@
Assyria@@
simpleton
dwind@@
Din@@
Akim
sapped
Syri@@
imagery
Worry
675,000
Clan
blah
Ella@@
smitest
shops
Ful@@
sergeant
Neighbors
firebrand
fast-@@
weari@@
studieth
bedding
Havo@@
d′e@@
short@@
inite
doubly
shiloh
Berak
Hanochites
stinking
pork
Beth-anath
Hammelech
Chitlish
gilgal
plumb-line
Anath
lovesick
Beriites
Eleph
roasteth
Malchielites
Rimmon@@
Libnath
usurer
confirmation
Giezi
Useless
bride@@
Angry
roar—
Entrust
ple@@
ecsta@@
Ammoni
Hagg@@
laud
martyr
inventing
t—all
sermons
ileth
Wan@@
moonstone
quiets
Neko@@
frankly
xious
battlement
succour
ringing
lenders
dissua@@
discovereth
Nazariteship
tti@@
spraw@@
massacred
sobs
reciting
lible
mand
bol@@
authorization
sher@@
male@@
pup@@
empty-headed
doo@@
covets
imagineth
safer
interfering
may@@
Smash
Jedai′ah
reputable
rava@@
prepar@@
lath@@
right-@@
entrusting
perseveres
preservest
Horrible
miel
ld
enjoy@@
doing—@@
underbrush
cken
attra@@
tw@@
friend@@
Wave
pompous
earth-shock
faint-hearted
Shephati′ah
Sure
red—@@
rag
gossi@@
twofold
boomer@@
glasses
Carvings
chanted
liv@@
interval
damned
prizes
my@@
ried
bedded
succession
recounteth
recent
confideth
hardhearted
bal′@@
Removed
Slow
Royal
tas@@
mitted
Jish@@
infantry
seriousness
stant
roving
passersby
repu@@
consisteth
merchan@@
District
Cheer
wrink@@
recklessly
opu@@
coverest
exul@@
ewe-lamb
tape
Hamu@@
peer
vings
conce@@
erna@@
prowls
Cedron
Rai@@
glimpse
Ishme@@
warhorses
Abi-@@
estates
diverted
tax-farmers
Sabaoth
ange
ittal
tendrils
martyrs
repugnant
Cra@@
ulti@@
sin—and
athle@@
calendar
'Through
Fl@@
demo@@
kidnapping
Abednego@@
ani
invest
graciousness
subscribe
recommended
cockle
ava@@
foot-@@
horn@@
cloudless
fashioning
Lies
Disciples
Tzaddi
vul@@
mistaken
stomps
bride-@@
strands
reverenced
puny
sacked
eloquence
schedule
relationships
bestows
Depend
commendable
'Seek
crush@@
devilish
watch-tower
crusted
shocks
Hit
norther@@
approving
revolters
merci@@
gestured
bedridden
armi@@
oblivi@@
witnesses—@@
Esh-baal
masqu@@
deadness
phy@@
heaviest
wakens
fier@@
constrain
pitch@@
iniqu@@
slices
Iphtahel
Exult
adjourned
Shethar-Boznai
stunted
ptive
scant
instructeth
venomous
mi-nekeb
mur
ambi@@
Baalperazim
unshrunk
headstrong
verity
paneah
wagging
agre@@
precincts
all-powerful
snaps
helm@@
contrast
ley
'Terror
tinder
Sukkites
Meah
protests
marvellously
curdle
apologized
shal
vine@@
everything—in
oldness
nourishing
commonwealth
Raca
Beasts
thrusts
inti@@
disappointment
christs
wrestlings
debased
fine-@@
decease
deba@@
hedgehog
carouse
punishment@@
grievance
corrupting
Sapp@@
vities
Hammoth-@@
usael
murmurers
strate@@
Compared
place—
153
ction—
One@@
whereto
Shetharboznai
paralytics
sniffing
castrate
drag@@
doleful
Pas
mmer
people@@
risest
Bav@@
idol@@
Bubastis
Tahke@@
vol@@
mares
ebbing
ckens
Demons
grit
3⅓
excepted
Murder
impenitent
Eth-kazin
discerneth
Cohort
dened
doorstep
nex@@
expiated
influences
caulkers
'Doctor
assuaged
stargazers
rusted
Plow
ats
'Carry
deeded
Lou@@
contradicting
worthiness
Beth-emek
offenders
preferring
caraway
Uzzen-sheerah
loftily
behemoth
marauding
gloriest
hatefully
Raamses
fle
epileptics
Wh@@
whited
publishes
blossoming
Hubbah
reaffirm
Nazorean
arming
excell@@
chalkstones
Shalishah
August@@
I.
Eth
engaging
toilet
superfi@@
14,000
saint@@
breaker
rescueth
days—@@
Rejoicing
Baalath-beer
Abiu
arch@@
Fearful
consort
probe
pockets
meaning@@
commiteth
Ces@@
Loyal
talketh
factor
sum@@
vary
d—he
dling
dog-@@
seedling
cunningly
lust@@
muni@@
Shema@@
Conduct
world—
evangeli@@
lumber@@
thwart
Abi′hu
slaves—@@
'Know
imploring
forni@@
er—@@
illicit
squeeze
mined
elegant
slashes
favoring
distil
gent@@
enly
upended
passionately
Cru@@
taxing
sober@@
serv@@
Issacharites
tery
cancels
exhibited
firepan
tier
negligence
dark@@
Sixty
benevolence
morning—the
nurtured
soundeth
errs
Aggeus
whisper@@
reta@@
Arphad
Canaanitish
dges
ensla@@
subse@@
fing@@
Age
orable
challenging
meal@@
institution
mel@@
ministries
One-tenth
quickening
differ@@
answ@@
ve—
landing
teems
informs
dev@@
specks
dust—
ep
jewe@@
Bride
undergarment
woodwork
admitting
'Whom
roams
habits
vaults
Adon@@
Judah—the
advanta@@
layest
ke-@@
ign@@
rovers
concerneth
oo@@
sav@@
mask
strated
God—and
me—that
river@@
faulty
dumbfounded
swer@@
misdeeds
Eunuch
ting—@@
drave
Exhort
mitting
correcteth
spinning
Eliacim
sins—
bio@@
apost@@
progeny
whispers
nia
titudes
grassy
enga@@
prolongeth
seductress
reconnoiter
elim
tish
Touching
re—
introduce
TH
talker
dungeons
baim
smiters
do—@@
Turned
dels
judicial
body@@
Pub@@
woo@@
Bethha@@
scabby
ki
realms
drin@@
sharp-@@
Humili@@
engra@@
laces
leaders—@@
Hav@@
Hana@@
officially
co-workers
heard—@@
quity
Accu@@
tribu@@
,0@@
Mil@@
famine—@@
branching
appeals
baske@@
dening
amed
Thar@@
Eye
sidewalk
skin-deep
scabies
stumbling-@@
Nebuzar-Adan
Gen@@
recruited
Denounce
granary
precise
unsettled
ha′@@
thousandth
iler
intestin@@
servants—
lamp@@
Beth-ga@@
judge@@
Mizpa@@
thless
ami@@
span@@
apartment
disgui@@
stret@@
sobriety
muff@@
luster
enclo@@
warrior@@
Cai@@
purging
ghed
Working
flowering
afterlife
fungus
asphalt
dishevel
Clubs
incomprehensible
begettest
parce@@
kam
mallow
overflown
Swee@@
alities
inun@@
chisels
chances
23rd
teem
'Observe
innocently
you—all
child-@@
lances
job-related
consorts
field-work
inadvertent
men—
ethnic
domesticated
bothers
declineth
roadway
buf@@
marauders
encro@@
curb
supersti@@
drawest
wild-@@
moveable
sympathi@@
escorts
ction—@@
Malchi@@
Prostitutes
exu@@
heathens
free-@@
persuadeth
Advice
ctures
fortuneteller
incite
formity
—people
constitu@@
Madi@@
Ahim@@
sis
mari@@
ols
Ephrata
sent@@
singular
Ath@@
Accaron
Jon′adab
hail@@
HE
worship@@
privileged
lengthened
August
Ma-@@
Spi@@
chah
head-dresses
emblem
Zebulun@@
Aro′er
congre@@
God—you
sometime
subscribed
undertakes
lands—@@
Sachi@@
summary
crumbly
larly
Ko′@@
answere@@
Mag′@@
hairstyles
Fra@@
eminence
gab
fiest
Lehem
TE@@
sheepskins
coura@@
preoccupied
Hazarenan
1,222
short-eared
2,322
3,630
Phallu
exper@@
implement
nighthaw@@
transpor@@
Ed@@
conting@@
pitfalls
Sev@@
28,600
recovering
ased
Israeli@@
3,930
cormorants
20,800
strives
3,200
hewer
affor@@
25:@@
Albon
ites—@@
grape-gatherers
dle@@
Nab@@
alighted
2,056
2,630
160
2,067
Hari@@
2,818
2,812
bene@@
phar
zel@@
Shelo′@@
enemies—@@
Beth-hor′on
Exactly
E′domites
Tekoah
phat@@
cele@@
Repha@@
Seventh
astounding
Wond@@
battle-covering
replaces
47
Potipherah
Ab′i@@
Jeh@@
ila
Tilga@@
Agar
consum@@
Aaronite
Pollu@@
skin@@
xima@@
fine-twined
Maakathite
Hoshe′a
Cene@@
enterprise
Kene@@
the-@@
aliah
prompt
joyfulness
Isai
Jabeshgilead
—any
Matha@@
Berakah
sufficiently
Philistin@@
fathering
ceforward
rock-@@
Lev@@
pasturelands—@@
shoved
understand—
impenetrable
Discretion
or—@@
ann@@
3000
sleeved
Bere@@
peaked
Son@@
unformed
Sidon@@
fifty-@@
non-Israelite
nui
Je-i′el
Rub@@
Thare
breeder
jealousies
Beeshterah
Jegar
Shaveh-@@
Sihor
naim
paramours
nahash
gop@@
engraves
Malchi′jah
promp@@
ise
Assa@@
exported
Beth-biri
sandalwood
narra@@
faintness
Jegar-@@
Zereth-shahar
twards
shophan
Mahana@@
barim
Osnappar
pleasers
Miamin
badon@@
penknife
Kirjath-Arba
Pho@@
walkways
Zor@@
kar@@
acceptation
gaber
proportion@@
pomegran@@
jagged
mani@@
Mushite
2,250
Libnite
creatively
ail@@
Mahlite
skill@@
rom
Benjamin—@@
ziel
Huram-Abi
Zechri
zah
Avim
uterus
Rend
Konaniah
ahites
role
sional
Amarias
Perezites
ano@@
abah
Kesil
Jero@@
shaph
Naasson
Gide@@
au
cancella@@
vileness
Elka′nah
Caslu@@
kas
139
'Strike
meddles
pricking
oregim
Ben-oni
selvedge
Nebo@@
Abel-mizraim
Shoba@@
Ben-Zoheth
mash
Zare@@
matching
Slothfulness
slothfulness
Gossi@@
auditorium
Doest
cool@@
Thirty-@@
paci@@
arbitrator
persuasiveness
measur@@
brawling
each—a
Hele@@
Showing
Pharo@@
branding
swear@@
shofarot
Success
repea@@
Maggots
merrily
entertainment
obscenities
commissions
ambushed
Beth-anoth
obtaineth
Singing
Shimron-@@
Bethan@@
Sapha@@
mother—
Sannah
right-hand
shaping
Taanath-@@
Sheph@@
hezron
Scor@@
dattah
divider
Emek-@@
Malluchi
Jozacar
Anoth
tia
jun@@
presumes
Trusting
chants
lias
stoma@@
palmerworm
Reverence
rejecteth
leak
sauce
tiness
Silo@@
conference
′mi-el
consummation
Stupidity
reflection
appreciated
sling@@
friendships
pond
prayest
sobbed
recompensing
vainly
suffi@@
Big@@
alight
dignities
Tuck
'he
whining
charge@@
nitre
melodious
furthered
embassy
coating
boulder
Recabite
forbad
Gunite
appea@@
asserted
ponders
tini@@
aggressive
Gaba
studies
maul
Calm
shop@@
unani@@
breatheth
vents
enemy@@
belittles
ches@@
mansion
Cure
kadesh
harvest@@
motive
Provi@@
Holies
sancti@@
'Sword
Telling
tranquility
llow@@
withdraweth
cooled
exciting
asy
myr@@
achah
hairoi
Guild
busybody
degrade
ddlers
developing
edi@@
sized
just@@
seagoing
Disa@@
peering
bubbling
dominated
tiest
singeth
gul@@
ceptions
Sla@@
awar@@
restraineth
8,580
ishes
writhing
lements
bas
desecration
Big
roar@@
closet
Witnesses
unanimous
naïve
cats
—including
Watching
shorel@@
harvesttime
insur@@
wringing
Courage
Destructive
transi@@
Heavens
dam@@
offerings—the
inebri@@
searcher
omit
indulging
junipers
refle@@
rar@@
mid-@@
day—oracle
reliance
open-minded
conso@@
OWN
Generation
alcove
hisses
informing
betimes
itin@@
quo@@
cky
gushes
Testament
Wheresoever
Devout
gn@@
Trumpe@@
spoken—
stablished
Pestilence
clapping
discoura@@
Thrice
winketh
Long@@
promise@@
Fate
dumping
haunted
pavilions
jailed
Zo′ar
witches
ripens
Twice
laugh@@
28:@@
debating
diddest
bou@@
uproots
acheth
subsides
Former
duce
great—@@
contendeth
wine-press
disma@@
Haughty
flatt@@
breeds
courier
—have
custodian
undergoes
aftergrowth
veling
fou@@
Contro@@
pate
Deeply
t—they
Bru@@
iner
persevered
baptist
cloth-@@
falter
compas@@
relenting
outed
exactions
less—like
rinsing
brandishing
aspire
White
Main@@
indu@@
Maschil
interrogate
hinder@@
Timoth@@
me—you
anic
dilu@@
Happ@@
overlays
reality
horri@@
pulverized
Officials
employ@@
impression
usel@@
cast@@
agricul@@
master@@
prefer@@
therward
gger
Wri@@
stoneworkers
preci@@
evid@@
waileth
substitution
uncomely
revolu@@
hypocri@@
full-@@
Dea@@
lishah
stabs
coast@@
swimmer
variation
KING@@
you—not
exhor@@
tifulness
drome@@
steneth
promiscu@@
straining
tou@@
studs
slan@@
dre@@
bare@@
wrenched
epilepti@@
wag@@
spection
ckly
unmixed
Geras@@
tutor
confid@@
LOR@@
suring
ative
wilts
victoriously
kab
cran@@
pila@@
unnumbered
rang
distribu@@
ffed
trouble@@
len
Mah@@
speakings
quil@@
gather@@
ER
descri@@
stanets
contradi@@
mal@@
everything—@@
tudes
loos@@
nity
reso@@
sm@@
lete
epidemi@@
revel@@
leng@@
erest
thest
demon@@
pti@@
gou@@
lect
before@@
immo@@
jour@@
cians
riot@@
botto@@
exhi@@
fron@@
ize
tren@@
frien@@
gol@@
quires
craf@@
repreh@@
thern
stle
grape@@
chast@@
usur@@
one@@
sprea@@
enterpri@@
crafts@@
leship
mun@@
ingfloor
subdu@@
empha@@
brows
affe@@
enter@@
orda@@
tea@@
disea@@
husban@@
Phi@@
awes@@
calcu@@
Dep@@
esca@@
post@@
strea@@
seh
tility
ture@@
gener@@
ical
squar@@
exemp@@
Acha@@
Shop@@
loving-@@
′elech
Puri@@
clari@@
Reca@@
spite@@
ews
Gol@@
cient
arelah
strations
magi
aled
infan@@
sus
devour@@
chief@@
Ag@@
mee@@
Continu@@
Asse@@
rela@@
scur@@
ddo
spear@@
enab@@
mol@@
Matta@@
Paddan-@@
Cap@@
Babyloni@@
shru@@
Joh@@
Jah@@
skil@@
Cas@@
descen@@
550
linea@@
dons
designa@@
umah
zan
scep@@
Manas′@@
Jabesh-@@
eus
gall@@
abu@@
Hozeh
ddai
Matti@@
phon
achin
sett@@
oths
Comman@@
som
foreig@@
hoopo@@
Mala@@
rescen@@
dedst
cerely
Mace@@
Twel@@
mu
pare
lew@@
Hen@@
leab
Tho@@
thousan@@
elev@@
imnah
li′ah
vaga@@
Naar@@
zi
lia
Goo@@
Heze@@
Elea@@
Shille@@
ala
Jahze@@
Aphar@@
Shemida@@
vite
2,700
Hano@@
Apharsa@@
Carme@@
ffers
stances
Bl@@
tax@@
blemished
Merodach-@@
depar@@
athite
lamite
Nicola@@
ax@@
esty
slug@@
uded
oda@@
cense
quarre@@
nake@@
t-of-@@
lood
marty@@
cere@@
Z
Inte@@
ert
br@@
fav@@
baladan
mida@@
conf@@
appear@@
sharp@@
Euphra@@
princi@@
grity
dows
noi@@
Thi@@
corp@@
gres@@
ughty
interro@@
garden@@
col@@
yal
ead
basi@@
fanta@@
Destro@@
snea@@
gued
show@@
constru@@
ridi@@
vex@@
vested
tuously
distingu@@
allat
relent@@
pileser
lear@@
Reli@@
shrew@@
Disp@@
Galati@@
bond@@
muti@@
Tes@@
odi@@
thru@@
brands
extingu@@
ok
eter@@
minent
wee@@
ables
robb@@
tax-@@
′ir
Thessaloni@@
less—@@
4,@@
′adab
thily
hat
spoken@@
Assyri@@
cove@@
LO@@
exhau@@
harves@@
kidna@@
prece@@
inci@@
assi@@
Ly@@
suff@@
isy
Jebere@@
canop@@
sail@@
ority
sies
Jaa@@
anti@@
simili@@
sten
ung
aw@@
mort@@
Ish-@@
mming
My@@
testi@@
praise@@
wreck
shua
pted
reig@@
Refu@@
Medi@@
oks
orig@@
slaughter@@
llium
Conf@@
achable
cry@@
hard@@
rahite
big@@
neighb@@
amoun@@
subje@@
treasure@@
insu@@
decei@@
Meshe@@
fell@@
min
hill@@
declaration@@
Hear@@
tional
ures
ospre@@
-footed
rat
Pon@@
celebra@@
Atta@@
vests
repudi@@
asta@@
exter@@
Judah@@
Macedon@@
multip@@
tily
adver@@
affecti@@
swar@@
pulveri@@
plat@@
ati@@
van
oneth
murder@@
lega@@
lth@@
sach
fers
plying
swif@@
ingplace
kelon
pes@@
Dibla@@
Sk@@
acti@@
drach
theast
urers
Be-@@
eneth
Ahisa@@
deca@@
d-up
simi@@
sci@@
Chil@@
Sor@@
tee@@
kins
Era@@
tained
Pen@@
kon
intention@@
presump@@
ant—@@
lem@@
Aar@@
que@@
tfully
grees
sw@@
asse@@
Ish′@@
Midian@@
manifes@@
mag
do′@@
zation
tives
Hamon-@@
occur@@
disapp@@
loy@@
declar@@
,@@
Nach@@
llness
Azz@@
Nah@@
cording
pilneser
hob
hazz@@
hus@@
earest
jeshimoth
age@@
Fir@@
coupl@@
inth
Gilea@@
Ram@@
methath
triumph@@
Ku@@
ijah
Besi@@
enan
Phy@@
Mad@@
lan
thias
Gibea@@
Zam@@
Akk@@
half@@
Jusha@@
Shaha@@
hor
dagon
Mahala@@
bi′ah
stically
Aza@@
cam
Jar@@
onged
cle@@
R
gant
geber
llus
leh
′on
40@@
Shec@@
Mola@@
ckets
Neph@@
homo@@
glo@@
cloven@@
tals
bye
Reho@@
Migda@@
Areli@@
Shun@@
upham
Aro@@
Hepher@@
ziz
Pallu@@
Jahle@@
Ahira@@
kel
Zebu@@
asaph
Anatho@@
zi′ah
Elipha@@
Reuben@@
oppor@@
Arar@@
hee@@
palmer@@
guardi@@
vani@@
ealthy
Kel@@
ffer
kens
commen@@
outwe@@
chery
rin@@
rejo@@
wl
percei@@
baz
chol
vals
sm
tra
zy
sts—
Tarshi@@
ads
shean
ste
Smo@@
tten
centu@@
mors
task@@
edu@@
inc@@
dits
minu@@
sly
coh
neighbor@@
coming—@@
ctual
osp@@
ris@@
perfe@@
archi@@
pasture@@
pos@@
lable
Care@@
borrow@@
chroni@@
furni@@
lur@@
nap@@
frigh@@
though@@
Psal@@
Egyp@@
legi@@
sayers
eding
execu@@
Masp@@
-pieces
radi@@
relati@@
mbly
indul@@
establi@@
Amor@@
Belsha@@
ices
jected
gloo@@
market-@@
gni@@
Shear-@@
proach
obebah
incen@@
mission@@
pinna@@
troub@@
truste@@
liba@@
utensi@@
Anti@@
bour
Ador@@
Doda@@
siders
Til@@
Oth@@
Shal@@
immor@@
Zedek
engul@@
herd@@
Rama@@
rac@@
nulli@@
respec@@
welling
cian
Multi@@
quarant@@
zedek
poi@@
Bir@@
excep@@
lavi@@
eld
bewil@@
leketh
Nathan-@@
ttenness
standar@@
bestow@@
affir@@
pronoun@@
solute
after@@
dshi
emo@@
Clau@@
Meho@@
unti@@
zephon
thres@@
pini@@
18:@@
argu@@
Gitti@@
ranso@@
stone@@
mock@@
Gla@@
Fur@@
dently
exal@@
necess@@
Won@@
cas
consecra@@
Cher@@
self-indul@@
conclu@@
fat@@
twi@@
wax@@
hoi@@
Epi@@
eting
lican
desper@@
pleasan@@
aphas
tics
Zeb@@
los@@
vaim
kitch@@
concea@@
ka
satis@@
versity
danites
eliness
testimon@@
wid@@
minence
burden@@
mim
drons
vege@@
Wo@@
f-@@
antel@@
threshing-@@
investi@@
tress
comprehen@@
Rab-@@
tally
Shephe@@
gon
less@@
intri@@
bles@@
rase
ples
ctest
las
ida
mation
eng@@
Amale@@
tess
migh@@
Gre@@
embroi@@
freewill-@@
Thyati@@
Sp@@
Samari@@
30@@
confes@@
chem
fille@@
′an
distra@@
giel
alco@@
RA@@
fail@@
descend@@
jes@@
bread-@@
ew
zur
erable
stou@@
serah
three@@
Babyl@@
point@@
citi@@
oms
blocka@@
Nerga@@
expi@@
experi@@
bari@@
aned
sharezer
resses
Abra@@
Bero@@
ewed
Guar@@
itors
24@@
triump@@
Oholi@@
allegor@@
ceful
tieth
convo@@
cess
anias
llam
jacent
hal
Zil@@
ceness
shad
Hamme@@
aiah
ph
rous
Arpach@@
ram-@@
rabb@@
secre@@
ssins
enemi@@
fth
Hagar@@
Les@@
Ezion-@@
Peda@@
badi′ah
vestibu@@
muth
Nath@@
diblathaim
suspe@@
Abe@@
sab@@
hab
kijah
achi@@
nan
kel@@
Romam@@
Romamti@@
phta@@
zeba
Sheche@@
Ashbeli@@
Shau@@
Hitti@@
zahab
Asri@@
melah
Nemu@@
Baal-ha@@
thijah
Eran@@
Kep@@
Heber@@
Issa@@
Hes@@
maveth
kar
ceans
mandra@@
Sala@@
Laodi@@
xury
Amp@@
nful
splin@@
Some@@
common@@
bannai
AU@@
gh
cide
Phar@@
sui@@
jaakan
plumb@@
av
Mardu@@
jair
Pati@@
Barab@@
innocen@@
Baz
Qui@@
admi@@
loin@@
incu@@
oph
gnant
Josi@@
worshi@@
wel
mum
erated
phath
alien@@
refuge@@
tyran@@
spra@@
presid@@
⅔
viney@@
perver@@
Magi@@
canker@@
ddy
eafter
floo@@
rema@@
hasti@@
comb@@
bab@@
sorrow@@
catastro@@
counsel@@
gr@@
survi@@
prote@@
dience
Mon@@
Tal@@
carbun@@
inha@@
arou@@
om
prosper@@
chri
mpe@@
shly
impati@@
Star@@
forgi@@
Manas@@
reme@@
dge@@
visi@@
gly
melo@@
dous
thresh@@
collap@@
mur@@
kno@@
estee@@
bby
gaz@@
shud@@
persecu@@
lars
edom
administra@@
convin@@
Lin@@
teach@@
peti@@
enor@@
eal@@
BY@@
hepher
wide-@@
enetus
lengthe@@
sence
aligh@@
odach-@@
Ishbi@@
denari@@
quities
Baali
terebin@@
cater@@
Adri@@
depu@@
moment@@
Bapti@@
first-@@
dia@@
decre@@
ffeth
dama
dow
harm@@
ill@@
zin
dess
stair@@
Cili@@
quen@@
handi@@
Jerah@@
lene
trava@@
disap@@
sepher
banqu@@
ahel
stery
danim
concer@@
whel@@
ance—
store@@
uprigh@@
controver@@
scri@@
chever
weigh@@
itess
dama@@
forfe@@
accumu@@
resid@@
rewar@@
kness
Promi@@
ding-place
Pil@@
Ton@@
sting@@
sugges@@
bery@@
increa@@
meth@@
ouri@@
rah
kikk@@
pear@@
sherd
nigh@@
Redee@@
Physi@@
break@@
compreh@@
vio@@
mix@@
Senna@@
Teach@@
Fal@@
exces@@
bede@@
Philo@@
Who@@
congratu@@
expan@@
veri@@
stors
spiriti@@
unshea@@
lig@@
lim
Answ@@
pil@@
versary
phat
sapp@@
seventy-@@
-workers
gour
widow@@
anni@@
ealed
prover@@
ouse
Mea@@
maid@@
enty
buck@@
battle@@
Apost@@
tually
Jeb′u@@
lences
sne@@
aggres@@
erings
disposs@@
hiah
vel
prin@@
kes@@
Chalde@@
corner@@
trarch
dian
igs
len@@
sping
lem
lifes@@
½@@
llars
tre
Ah@@
Pele@@
doning
Sacrifi@@
dak
Ec@@
she′@@
As′@@
taun@@
ante@@
Recha@@
portico@@
Tilgath-@@
yim
detes@@
ilant
onah
cah
tormen@@
collec@@
/@@
Elna@@
lath
dem@@
nimrah
ddon
Sarse@@
Japh@@
Jeph@@
offi@@
28@@
vit@@
Gala@@
Jehi@@
itent
thersoever
mai@@
elita
Tob@@
shan@@
Jecon@@
ling-@@
homosexu@@
Zebo@@
thali@@
lenti@@
miah
Jebusit@@
Gab@@
cai
amin
Jok@@
lehem
aioth
ala@@
arib
dellium
ci
ulloth
Ida@@
musi@@
Josa@@
upha
nadebai
viness
Spea@@
ffering
beel
pam@@
persu@@
prof@@
surpri@@
Gor@@
huth
Condem@@
repriman@@
arse
perpetu@@
vindica@@
kins@@
Messeng@@
aban@@
sty@@
faw@@
ander
sav
indig@@
Pek@@
erem
negle@@
eans
estab@@
pollu@@
tas
tis@@
revol@@
Sear@@
laim
angers
nfully
Gar@@
contemp@@
cept
arrang@@
achiev@@
adan
zzle
-to-@@
Fav@@
skir@@
succes@@
appropri@@
tis
tura@@
strate
broo@@
Thes@@
interce@@
temper@@
sphe@@
Ira@@
resu@@
cei@@
Val@@
compul@@
of-the-@@
Nico@@
slop@@
pose
phes
propor@@
guarante@@
inclu@@
sacri@@
fain@@
*the@@
slander@@
One-@@
colle@@
ssment
Even@@
forget@@
yon
Light@@
Caesar@@
coundre@@
parch@@
Dece@@
spokes@@
ppled
Helleni@@
mity
Nazar@@
ldest
whoremon@@
prophes@@
imperi@@
habi@@
domes@@
Descen@@
shebeth
alli@@
partici@@
oureth
luxu@@
swind@@
drun@@
sps
braw@@
ights
judg@@
Ene@@
ook
mented
hori@@
bring@@
Ashu@@
ese
lieuten@@
kazin
legiti@@
Hashba@@
spire
mmers
flag@@
tamar
Gran@@
hamah
Dishon@@
subur@@
Strai@@
hind@@
Oc@@
scare@@
Liby@@
Deso@@
virg@@
broken-@@
repri@@
scen@@
Resi@@
ridicu@@
Aban@@
noon@@
dicate
visit@@
zzling
depend@@
och
acqua@@
Thous@@
represen@@
tin@@
Abin@@
mau@@
dissipa@@
langu@@
surroun@@
defra@@
reconno@@
Adul@@
domites
use@@
compani@@
penetra@@
cister@@
calf-@@
astrolo@@
tcheth
lei@@
retor@@
Ascen@@
beha@@
enchan@@
bony
manu@@
sojour@@
lightest
hospi@@
mistrea@@
vid
protru@@
Izha@@
decrea@@
AN
lou@@
om@@
inting
ring@@
hau@@
siveness
Benjamin@@
Cau@@
gel
regula@@
anima@@
latti@@
tta@@
′acah
ena
Ere@@
eph@@
ice-@@
posed
stretche@@
superflu@@
cture
butch@@
depen@@
glutt@@
aba@@
moon@@
wear@@
sycamore-@@
acaci@@
Bala@@
Hab@@
suppo@@
pus
discer@@
perfor@@
apothecar@@
ied
puni@@
blind@@
ima@@
18@@
AN@@
shi
epi@@
artifi@@
Kitti@@
Shes@@
scribed
rect
straked
dishev@@
ring-@@
confron@@
Ari@@
succee@@
ael
Kibroth-@@
encoun@@
asa@@
ream
gashi@@
joth
Tela@@
who@@
exto@@
volun@@
salo@@
thetic
ki′ah
bin
itely
zbi
rede@@
til
stronghol@@
mater@@
beon
Esa@@
39@@
assaul@@
crou@@
mal
shon
ratt@@
fects
compla@@
Here@@
Napho@@
aim@@
spatt@@
sensi@@
bag@@
ltiel
kenard
bim
terah
anan
confli@@
Mith@@
benah
mmon
theaster
′ziel
chiah
afore@@
Atar@@
astoni@@
bani@@
′zar@@
Zahab
lponi
bea
E′ph@@
hosti@@
ealot
cas@@
uch
½
collea@@
selah
Rac@@
Hebron@@
Jebu@@
provo@@
Bel@@
mill@@
arel
ez@@
jalon
Carm@@
Dibon@@
Sharu@@
zai
Naam@@
Bana@@
eses
deiah
Sime@@
hoenai
Shepha@@
lattice@@
kinswo@@
Armage@@
thri
ddles
kil@@
syca@@
lodg@@
Ok@@
judi@@
whore@@
warm@@
struction
Gul@@
cherem
cont@@
cred@@
_@@
Wat@@
Saba@@
nus
identi@@
iring
persever@@
cket
rant
figh@@
mud@@
challeng@@
retri@@
Joa@@
incredi@@
dger
mid
eel
situ@@
amb@@
psychi@@
Horon@@
Watch@@
lath-@@
reali@@
sors
inted
siege@@
unk
sh-@@
Beth-hac@@
Edo@@
desh
bub@@
appre@@
trait@@
degener@@
sation
echo@@
infla@@
shrunk
Pharaoh@@
resol@@
lting
cala@@
acciden@@
scol@@
Pow@@
shr@@
tance
intellig@@
drunk@@
disgu@@
aver@@
aha@@
est@@
Jona@@
Public@@
impover@@
thre@@
groan@@
escor@@
grap@@
soa@@
neigh@@
Moun@@
Phoeni@@
acc@@
Cleop@@
Puni@@
crimin@@
cify
genti@@
eping
enched
sadd@@
remo@@
zebu@@
fabri@@
deman@@
oner
pani@@
Ahu@@
seed@@
Zado@@
Nebusha@@
aphim
psy
Testi@@
passage@@
aul
ointed
ception
Cyr@@
savi@@
+@@
liqu@@
obscen@@
Zora@@
adah
drach@@
mul
Nisro@@
ongs
lish@@
pest
gionoth
cil
Ligh@@
gray-@@
Ner@@
distres@@
Pisi@@
vigil@@
revo@@
Ashi@@
Lub@@
saw@@
Mesopota@@
ming@@
fur
ort@@
esy
ics
zu@@
Ethiop@@
ruth@@
Fortun@@
gratu@@
hemorr@@
prow@@
thor
confeder@@
fix@@
hide@@
Sanhedr@@
gob@@
cribed
confin@@
veable
Abo@@
Iri@@
Evil-@@
bush@@
pistachi@@
recl@@
lts
seiz@@
unlea@@
wool@@
ewe-@@
ddling
rents
angeli@@
odach
llion
Tow@@
rese@@
¾
imprison@@
selves@@
selfish@@
volunte@@
supre@@
osity
religi@@
knowingly
straight@@
tellers
aming
[...]
