e </w>
t h
d </w>
s </w>
t </w>
n </w>
th e</w>
, </w>
a n
r </w>
o </w>
o u
y </w>
. </w>
an d</w>
f </w>
i n
> </w>
l </w>
o f</w>
th e
t o</w>
h a
m </w>
e r
e d</w>
l l</w>
o r
e a
in g
h i
w i
y ou
ing </w>
o n
e n</w>
i n</w>
V ></w>
e s</w>
th </w>
e r</w>
h </w>
e s
a r
o n</w>
e n
r o
h e</w>
o r</w>
m e</w>
s a
you </w>
i s</w>
a </w>
v e</w>
a t</w>
I </w>
< N
w a
s e</w>
l i
r i
wi ll</w>
o w
m a
s t
w h
r e
r a
th at</w>
b e
l e</w>
t i
c a
or d</w>
hi s</w>
o d</w>
f or</w>
n d</w>
B ></w>
s e
o t</w>
b e</w>
T h
L ord</w>
s t</w>
; </w>
i d</w>
l a
i t</w>
c o
k </w>
wi th</w>
g h
n ot</w>
the m</w>
' </w>
` </w>
the y</w>
u t</w>
e v
` `</w>
A nd</w>
s ha
t s</w>
you r</w>
u n
ro m</w>
a ll</w>
l d</w>
hi m</w>
c e</w>
f rom</w>
o p
S V></w>
d a
k e</w>
G od</w>
ar e</w>
u r
on e</w>
ha ve</w>
l e
i r</w>
wa s</w>
wh o</w>
' '</w>
m y</w>
p </w>
l y</w>
t a
er e</w>
the r</w>
p e
f i
g a
the ir</w>
f or
ea r
ou t</w>
: </w>
f a
ow </w>
sha ll</w>
T he</w>
c h</w>
s h
T ></w>
l o
i t
a s</w>
en t</w>
r ea
s i
h o
u s</w>
a l
d s</w>
gh t</w>
pe op
sa id</w>
e l</w>
peop le</w>
ou </w>
a h</w>
a b
d i
' s</w>
? </w>
er s</w>
the r
m i
l l
K J
E B></w>
< G
H e</w>
k ing</w>
t er</w>
d e
d e</w>
w ere</w>
g </w>
s o</w>
g o
th is</w>
g i
s p
n a
on s</w>
s on</w>
r u
a n</w>
ma n</w>
ha t</w>
r ou
I s
d o
ha d</w>
b y</w>
co m
Is ra
w or
w </w>
e y</w>
d o</w>
e t</w>
ing s</w>
ou r</w>
a c
es s</w>
t o
t ed</w>
w e
ow n</w>
t e
u se</w>
! </w>
w hi
o f
u p</w>
b ut</w>
v er</w>
p ro
Th en</w>
Isra el</w>
l ea
Th ey</w>
B ut</w>
o se</w>
h ea
a s
on g</w>
ha s</w>
c h
for e</w>
y s</w>
co me</w>
ti on</w>
d r
KJ V></w>
<N I
R SV></w>
L T></w>
< I
a ga
ca use</w>
< E
R V></w>
k n
< D
es t</w>
E ></w>
<G N
l and</w>
c i
Y ou</w>
E V></w>
< C
v en</w>
d es
c on
wa y</w>
s es</w>
W h
ther e</w>
wh en</w>
w hat</w>
s ed</w>
f u
m e
m en</w>
ou ld</w>
t e</w>
un to</w>
J e
ca me</w>
ou n
whi ch</w>
v es</w>
w e</w>
da y</w>
v er
se l
h er</w>
g e</w>
m b
s u
h e
s o
ea r</w>
m an
li ke</w>
a m</w>
be cause</w>
p la
h ear
t ur
h ou
m u
t t
in to</w>
ev er
an t</w>
g h</w>
s er
ev er</w>
t y</w>
n o</w>
n e
o ther</w>
it y</w>
n '
n' t</w>
S o</w>
ma de</w>
r es
i r
in st</w>
th ing</w>
c hi
aga inst</w>
of f
b u
d id</w>
a m
th ose</w>
p p
p ri
F or</w>
J er
g o</w>
d ing</w>
M o
be fore</w>
th y</w>
k ed</w>
b o
J o
i ts</w>
k e
J es
o k</w>
d er</w>
hou se</w>
i l</w>
f o
y ing</w>
s ons</w>
m or
c e
m p
ll ed</w>
th ou</w>
Jes us</w>
fi r
er ed</w>
v i
in e</w>
p er
v ed</w>
p t</w>
w ent</w>
an g
b r
d ed</w>
< M
G ></w>
f e
d own</w>
o ver</w>
n ess</w>
al so</w>
ma ke</w>
u p
gi ve</w>
n ed</w>
J u
j u
th ings</w>
p o
k i
a f
l es</w>
s w
f e</w>
the se</w>
r y</w>
i f</w>
s h</w>
l s</w>
l ed</w>
sa y</w>
l t</w>
a way</w>
ti ons</w>
p ut</w>
d ea
ma y</w>
off er
u sa
m o
b </w>
2 1
Mo ses</w>
t w
g rea
A R
B Y
Y LT></w>
U B></w>
J UB></w>
<N KJV></w>
<M EV></w>
< YLT></w>
< KJV></w>
< JUB></w>
BY ></w>
AR BY></w>
<D ARBY></w>
W EB></w>
< WEB></w>
<I SV></w>
L V></w>
<N LV></w>
A SV></w>
< ASV></w>
<NI V></w>
<E SV></w>
S B></w>
H C
HC SB></w>
< HCSB></w>
E T></w>
<N ET></w>
<N RSV></w>
O G></w>
<N OG></w>
L EB></w>
< LEB></w>
< RSV></w>
<NI RV></w>
KJ 21
KJ21 ></w>
< KJ21></w>
B E></w>
B BE></w>
< BBE></w>
<GN V></w>
<N LT></w>
ab out</w>
<C EB></w>
W ></w>
<G W></w>
C V></w>
<N CV></w>
C B></w>
<I CB></w>
le t</w>
c es</w>
le m</w>
w o
p a
b a
Wh en</w>
<E RV></w>
wh o
e p</w>
Jer usa
an ts</w>
Jerusa lem</w>
D a
R A
RA ></w>
<D RA></w>
ou r
chi l
A B
R E></w>
AB RE></w>
<N ABRE></w>
kn ow</w>
p h
<GN T></w>
Je ho
c k</w>
dr en</w>
b ro
h and</w>
Ju da
c ha
q u
y e</w>
ear th</w>
chil dren</w>
the e</w>
up on</w>
in d</w>
B e
p i
t ru
ra i
v en
ser v
g u
sel f</w>
ca n</w>
be en</w>
e x
ou nd</w>
<C EV></w>
in s</w>
b ur
the n</w>
ti me</w>
Juda h</w>
st r
c or
k en</w>
k s</w>
n ing</w>
p ar
pla ce</w>
c u
E g
mu st</w>
v ing</w>
en d</w>
ea t</w>
ther s</w>
Eg y
re e</w>
c ity</w>
ta ke</w>
t er
v id</w>
Da vid</w>
T L
TL B></w>
< TLB></w>
ar d</w>
fu l</w>
g ra
go od</w>
a h
an y</w>
fa ther</w>
t ro
T his</w>
na me</w>
I f</w>
t es</w>
li ve</w>
am ong</w>
A b
c ri
m ent</w>
i </w>
ou s</w>
h u
a l</w>
I t</w>
it es</w>
ha th</w>
i ah</w>
s he</w>
m on
grea t</w>
ear s</w>
se e</w>
rou ght</w>
ever y</w>
sa ying</w>
do m</w>
ev en</w>
t ing</w>
w ould</w>
f t</w>
th ou
b rought</w>
e th</w>
com man
d er
th rou
tw o</w>
da ys</w>
sa ys</w>
an ds</w>
n ow</w>
e l
l es
th an</w>
ga ve</w>
s ent</w>
t ri
O </w>
Egy pt</w>
i th</w>
s hi
M y</w>
D o</w>
b ac
to ok</w>
v ah</w>
b or
b le</w>
b rea
Y ah
Yah we
br ing</w>
offer ing</w>
Yahwe h</w>
mor e</w>
ho ld</w>
i ce</w>
ev il</w>
u gh
Jeho vah</w>
w s</w>
c l
an ce</w>
sp o
si de</w>
j o
gi ven</w>
d ers</w>
m ed</w>
bac k</w>
di s
ri ght</w>
C h
des tro
g e
s ur
d y</w>
ever y
n o
N ow</w>
li fe</w>
an sw
an s</w>
d one</w>
af ter</w>
ea </w>
hear t</w>
J a
throu gh</w>
sh ould</w>
H is</w>
e y
t u
sel ves</w>
wh ere</w>
sp ea
sa w</w>
hear d</w>
ho ly</w>
c oun
c en
se t</w>
Ch ri
en ts</w>
er e
wor ds</w>
c ar
p as
y ed</w>
a d
the re
sh e
ea ch</w>
na tions</w>
man y</w>
c lo
wi th
I n</w>
mp le</w>
tur n</w>
Chri st</w>
p res
ri t</w>
t or
w ord</w>
to ld</w>
M a
sh ed</w>
ju d
i m</w>
t ers</w>
p l
W e</w>
a u
aga in</w>
ri gh
in k</w>
y ears</w>
en ce</w>
v o
who m</w>
tt le</w>
da ugh
s ing</w>
ti es</w>
fir e</w>
i g
H a
i l
e mi
i ght</w>
fa mi
an y
lo ve</w>
ca lled</w>
h un
R e
n s</w>
ver y</w>
p ow
L et</w>
l or
wa ter</w>
p ra
s in</w>
d u
st a
m s</w>
es ts</w>
le ft</w>
s in
an i
p re
l ong</w>
wor k</w>
p s</w>
Y our</w>
ha r
s ou
c ked</w>
ti l</w>
cor ding</w>
hea ven</w>
b lo
do es</w>
en t
c t</w>
h ow</w>
ca p
ta in</w>
st er</w>
we ll</w>
ey es</w>
si on</w>
c lea
h or
t ow
un til</w>
tur ned</w>
so me</w>
en g
on g
dea th</w>
g lor
pri est</w>
ac cording</w>
m oun
n or</w>
st s</w>
Ja co
c ro
serv ant</w>
s s
Jaco b</w>
go ld</w>
li st
hi m
l ess</w>
in i
m on</w>
s la
an c
ce i
righ te
mb er</w>
la w</w>
r e</w>
K ing</w>
A </w>
he l
A ll</w>
on es</w>
fir st</w>
st i
st and</w>
an other</w>
a pp
pri ests</w>
you r
on ly</w>
se ven</w>
si l
of f</w>
te ll</w>
en ed</w>
un der</w>
ll s</w>
L ev
ge ther</w>
e li
h ands</w>
m es</w>
c er
W hat</w>
ha pp
to gether</w>
A ar
t ter</w>
Aar on</w>
ta r</w>
p ea
ea st</w>
hea d</w>
a r</w>
ab y
Th ere</w>
per son</w>
it e</w>
rou nd</w>
sp i
aby l
B abyl
fo ll
S o
answ ered</w>
h er
w ri
th ree</w>
clea n</w>
st o
B a
wo man</w>
al tar</w>
him self</w>
ne i
com m
blo od</w>
ci ties</w>
ke ep</w>
H e
N e
serv ants</w>
be li
o ld</w>
spea k</w>
p h</w>
pow er</w>
E li
m ar
you n
au l</w>
be come</w>
sha lt</w>
P e
th ir
wa ys</w>
P ha
t ra
de li
ri ed</w>
ab </w>
a tion</w>
bu i
t we
rai se</w>
ere fore</w>
with out</w>
h on
) </w>
Ab ra
( </w>
t en</w>
x </w>
Th es
fa ce</w>
di e</w>
m er
sa me</w>
ro w</w>
g et</w>
c ed</w>
in ed</w>
th r
c tion</w>
jud g
wi fe</w>
A s</w>
T e
p ur
g re
Thes e</w>
m ents</w>
un der
ow ed</w>
m ou
k ing
ju st</w>
n er</w>
ch es</w>
dea d</w>
kn ow
comman ded</w>
bro ther</w>
ab le</w>
dr ed</w>
hea r</w>
y ear</w>
s s</w>
glor y</w>
li es</w>
wor shi
wor ld</w>
c ur
re p
vo ice</w>
sa cri
sacri fi
pro ph
Babyl on</w>
d ar
c ho
Isra eli
S he
p lea
lo o
fo od</w>
ta ken</w>
sil ver</w>
ang er</w>
a ther</w>
n ever</w>
sw ord</w>
p r
the m
bor n</w>
thou s
ch ed</w>
d ness</w>
0 </w>
se e
hun dred</w>
youn g</w>
ou s
des cen
tt en</w>
te mple</w>
f ound</w>
spo ke</w>
Th erefore</w>
n ight</w>
com p
Wh o</w>
every thing</w>
ar ound</w>
p he
fami ly</w>
s ea</w>
c ould</w>
wi cked</w>
fe et</w>
ha m</w>
st an
e ld</w>
n u
mi ght</w>
k ings</w>
G i
wa l
un i
pea ce</w>
li ving</w>
r est</w>
be came</w>
wi se</w>
offer ings</w>
f ear</w>
S pi
them selves</w>
as se
dr ink</w>
H o
Spi rit</w>
d en</w>
ha st</w>
as ked</w>
mou th</w>
Jo se
k es</w>
m es
en emi
F ather</w>
so me
G a
enemi es</w>
sh u
li ght</w>
sa ith</w>
l ong
Jose ph</w>
e p
re cei
whi le</w>
destro y</w>
Wh y</w>
o in
f f
descen d
O n
who le</w>
b les
for th</w>
T hat</w>
hel p</w>
par t</w>
gh ty</w>
d ge</w>
f l
n ear</w>
pas s</w>
a t
go ing</w>
o be
mu ch</w>
pro mi
hi gh</w>
h ere</w>
be ing</w>
r an
b ea
N a
fi ed</w>
fa thers</w>
m other</w>
t rou
Lev ites</w>
Abra ham</w>
Israeli tes</w>
ar y</w>
f lo
ar s</w>
S on</w>
thous and</w>
ta ins</w>
no thing</w>
there fore</w>
ar i
str ong</w>
l ly</w>
S i
com es</w>
ki lled</w>
fo o
u b
st ru
brea d</w>
f ru
king dom</w>
bur n
ta b
con t
ver ed</w>
es ti
ll ing</w>
t ry</w>
go ds</w>
z z
for ever</w>
ser ve</w>
descend ants</w>
ki ah</w>
p uni
rea d</w>
Je ws</w>
z </w>
ab o
s ins</w>
m ea
Pha ra
com ing</w>
se en</w>
ani ma
str eng
en ti
t re
of fi
mi ghty</w>
bo dy</w>
f our</w>
g ar
pro phe
mi d
b ir
sto od</w>
fa r</w>
dis ci
c rea
o h</w>
g round</w>
da n</w>
Z i
H im</w>
fa ith</w>
bro thers</w>
fu ll</w>
e f</w>
c ut</w>
w ard</w>
w ine</w>
w ea
v in
c our
p ti
Phara oh</w>
or s</w>
S e
daugh ter</w>
H ow</w>
ha l
w ant</w>
b l
sti ll</w>
c la
stan ding</w>
i th
c y</w>
jo y</w>
bo th</w>
destro yed</w>
tri be</w>
A f
di ed</w>
w ar
shu a</w>
o ver
f les
t rea
a ke</w>
b it
burn t</w>
Z e
fi ve</w>
wri tten</w>
N o</w>
c k
k in
y ri
s end</w>
ea ch
fi eld</w>
g es</w>
t ly</w>
y et</w>
fles h</w>
th s</w>
t ent</w>
L i
J or
mb </w>
Jo shua</w>
disci p
fi lled</w>
p raise</w>
na tion</w>
r ed</w>
m ine</w>
s pe
she ep</w>
s k
t en
ar my</w>
wh ose</w>
Af ter</w>
rea dy</w>
f all</w>
L a
p u
ven ant</w>
M i
G o</w>
wo men</w>
qu i
any one</w>
Th e
un clean</w>
w n</w>
— </w>
mon th</w>
every one</w>
gra in</w>
sur e</w>
op </w>
c ted</w>
y -
Th us</w>
ra id</w>
ther ed</w>
m p</w>
ous ness</w>
c ks</w>
S a
o il</w>
s dom</w>
P aul</w>
ow s</w>
Th ou</w>
n or
af raid</w>
st ea
clo the
prophe ts</w>
be g
g en
r on
si g
z e
in u
ma le</w>
p ed</w>
sou l</w>
daugh ters</w>
lo ok</w>
re ma
f ind</w>
g one</w>
spi rit</w>
nei ther</w>
I sa
v al
o b
list en</w>
ki ll</w>
m in
do ing</w>
u sed</w>
thou gh</w>
cont inu
co venant</w>
proph et</w>
S he</w>
fa ith
pr in
de cl
cha ri
po ss
re me
hea ven
A m
be hold</w>
A n
le dge</w>
- </w>
tow ard</w>
c re
st ri
coun try</w>
- -</w>
worshi p</w>
righte ous</w>
spo ken</w>
D </w>
li ved</w>
re turn</w>
b re
righte ousness</w>
tru th</w>
po or</w>
ga te</w>
mor ning</w>
E ph
anc es
z e</w>
wi sdom</w>
On e</w>
streng th</w>
lea ders</w>
kn own</w>
cha r
gu e</w>
v a
des er
discip les</w>
A l
twe en</w>
th an
Ho ly</w>
any thing</w>
ig n</w>
your selves</w>
tor s</w>
be tween</w>
re ly</w>
f ron
S ha
st one</w>
Be hold</w>
fi f
ou d</w>
bui lt</w>
v e
in her
O n</w>
es i
wa r</w>
ter ri
d es</w>
wa ters</w>
L O
j e
LO R
Be cause</w>
se ven
LOR D</w>
C o
le y</w>
d on
A r
y self</w>
Jor dan</w>
mer cy</w>
ti mes</w>
st re
kn ess</w>
gen er
to o</w>
si ght</w>
al s</w>
li ttle</w>
pla ces</w>
t each
sh ow</w>
fron t</w>
ra m</w>
ca st</w>
li ves</w>
oin ted</w>
o ok</w>
wh y</w>
d ev
w r
ta l
i do
l ti
lea d</w>
la h</w>
ang el</w>
fru it</w>
a te</w>
g ed</w>
ha ving</w>
b ra
ke pt</w>
t ree</w>
b es</w>
l u
li ed</w>
r ing</w>
en ds</w>
¶ </w>
i gh
A ha
e ve</w>
wa t
st or
en ing</w>
l la
an a
M e</w>
h op
Te mple</w>
sa ve</w>
o thers</w>
c ry</w>
B en
al ong</w>
tur e</w>
Pe ter</w>
mon ey</w>
A t</w>
obe y</w>
s or
' ll</w>
de e
The ir</w>
d ly</w>
th i
wa ll</w>
cu b
moun tain</w>
pi e
d ra
f ri
beli ev
F rom</w>
moun tains</w>
l ing</w>
i m
know ledge</w>
ne w</w>
con cer
Jer emi
n ers</w>
ow ing</w>
w o</w>
for e
off er</w>
mid st</w>
v es
t ness</w>
G o
wi l
ga thered</w>
s ea
yri a</w>
there of</w>
nu mber</w>
der ness</w>
re jo
heaven s</w>
thir d</w>
w ra
su ff
Jeremi ah</w>
se con
trou ble</w>
c le</w>
as k</w>
tru e</w>
Ab i
A ss
d ur
lea ve</w>
P hi
h an
s anc
clothe s</w>
s ca
chi ef</w>
th or
pa y</w>
mu lti
ang ry</w>
secon d</w>
a d</w>
pres ence</w>
at ta
ba ttle</w>
ou gh</w>
0 0</w>
su ch</w>
beli eve</w>
al ly</w>
f y</w>
wil derness</w>
ga n</w>
d en
di vi
ou t
M an
sa l
M e
in es</w>
T o</w>
sa ge</w>
c ru
be gan</w>
le e</w>
ca ll</w>
st ing</w>
s le
b ed</w>
fami lies</w>
So lo
ances tors</w>
o l
judg ment</w>
Solo mon</w>
s en</w>
Mo ab</w>
ro o
I s</w>
jud ge</w>
bui ld</w>
answ er</w>
al ways</w>
la te</w>
pra y</w>
loo ked</w>
hea ds</w>
st ones</w>
in ha
d ered</w>
ca mp</w>
d we
hou ses</w>
z ed</w>
wor ks</w>
thr en</w>
w ind</w>
la id</w>
rai m</w>
anima ls</w>
ta ble</w>
tre es</w>
comman d
la y</w>
op en</w>
des ir
C a
inher it
lo ved</w>
hu s
nei gh
bro ken</w>
re turned</w>
ru l
bles sed</w>
chi ld</w>
ha t
ho me</w>
T ake</w>
Zi on</w>
p or
rai sed</w>
mes sage</w>
gi ving</w>
ma ster</w>
hus b
comm and</w>
bre thren</w>
hop e</w>
de f
R i
w an
twe l
bur ned</w>
e ting</w>
dar kness</w>
Th ose</w>
abo ve</w>
o th</w>
na med</w>
kn e
pra y
co vered</w>
fe ll</w>
mo st</w>
sacrifi ce</w>
hon or</w>
S G></w>
<M SG></w>
fa l
te ly</w>
th ine</w>
inha bit
Man asse
en e
concer ning</w>
wal k</w>
g s</w>
B e</w>
si ons</w>
l in
some one</w>
He ze
wr ong</w>
Manasse h</w>
b or</w>
C ana
in stru
S u
ido ls</w>
inherit ance</w>
wo od</w>
asse mb
re fu
ac </w>
d well</w>
su n</w>
th ink</w>
oun t</w>
k ind</w>
b i
ce pt</w>
I n
Isa ac</w>
stea d</w>
wh e
hal f</w>
decl ar
nor th</w>
your self</w>
ar k</w>
wra th</w>
p ha
Eph raim</w>
or der</w>
S aul</w>
en ty</w>
tow ns</w>
L ook</w>
Heze kiah</w>
poss es
so l
long er</w>
ou ght</w>
l ar
hear ts</w>
thr one</w>
per i
ar ds</w>
Jo ab</w>
st ed</w>
fu l
Jo h
t ou
Joh n</w>
mo ved</w>
Ma y</w>
f our
under stand</w>
m er</w>
ar t</w>
faith ful</w>
n one</w>
sh ou
e ls</w>
c ra
Co me</w>
b an
t esti
ci r
gi ves</w>
n i
ma kes</w>
li sh</w>
rep lied</w>
W ho
S am
su pp
si x</w>
la st</w>
en ter</w>
char ge</w>
M or
er na
g ot</w>
cen se</w>
d rea
' m</w>
cap ti
m ini
r ying</w>
do th</w>
f ree</w>
gra ce</w>
t on
vi ce</w>
i mp
j ah</w>
Egy pti
comp le
recei ve</w>
ri se</w>
Ass yria</w>
deser t</w>
see k</w>
a ge</w>
u </w>
b esi
e ment</w>
w on
fir st
th us</w>
v ers</w>
sha me</w>
b ear</w>
a ma
qu ity</w>
twel ve</w>
ga tes</w>
cho sen</w>
re la
ba th</w>
m yself</w>
x t</w>
o a
c </w>
ga ther</w>
E ven</w>
promi se</w>
mb le</w>
z ar
bur n</w>
am in</w>
car ried</w>
cu m
to day</w>
M es
de ed</w>
el ders</w>
d ri
f oun
sol di
d ne
g la
li f
b a</w>
u r</w>
sp read</w>
Ba la
li e</w>
erna cle</w>
bea u
st ra
s it</w>
zz ar</w>
l ands</w>
gu i
la ce</w>
sa ved</w>
a tions</w>
ne xt</w>
ke th</w>
cub its</w>
el ds</w>
se es</w>
ju st
w in
ho sts</w>
f la
happ ened</w>
v ation</w>
Be th
sh es</w>
offi ci
b ri
sta tu
Ne bu
prin ces</w>
st e</w>
a ch</w>
se ed</w>
our ed</w>
s ma
m ind</w>
some thing</w>
b la
sin ce</w>
ini quity</w>
c ou
fu lly</w>
b as
Ben j
ear ed</w>
g ri
husb and</w>
g er</w>
re w</w>
r ance</w>
cro w
t own</w>
t y-
Gi ve</w>
re be
al one</w>
re e
hor ses</w>
st u
g ro
c ke
M ount</w>
cir cum
in cense</w>
reme mber</w>
s on
ha te</w>
recei ved</w>
co ver</w>
app ointed</w>
sa ke</w>
pres ent</w>
ru le</w>
s en
di es</w>
Sam ari
foll ow</w>
brea k</w>
m our
s mo
' ve</w>
ev ening</w>
bor der</w>
si ster</w>
W i
just ice</w>
l ord</w>
a tt
c are</w>
A hi
ri ch</w>
seven th</w>
u ght</w>
con su
se cre
sacrifi ces</w>
br an
er ing</w>
circum ci
sa lo
b less</w>
Benj amin</w>
salo m</w>
me eting</w>
Phi list
W hi
happ en</w>
tri bes</w>
de m
d le</w>
des tru
be long
gh out</w>
lar ge</w>
sal vation</w>
tru st</w>
peop les</w>
shi p</w>
pur e</w>
be tter</w>
er ful</w>
mb ered</w>
pl an
f ine</w>
s eng
h ur
gi ft</w>
ene my</w>
Eli sha
y al</w>
a i</w>
s ound</w>
a p
le an
ph er
tw enty</w>
wi ves</w>
under standing</w>
du st</w>
mb s</w>
rejo ice</w>
bir th</w>
with in</w>
ta tion</w>
tu ary</w>
promi sed</w>
l ow</w>
soldi ers</w>
pie ces</w>
Ab salom</w>
deli ver</w>
Jeho i
u l
me et</w>
E sa
ce p
st e
si ah</w>
do or</w>
throu ghout</w>
cl u
d ow</w>
offi c
ch ing</w>
f ur
sou th</w>
v est</w>
Th y</w>
ea se</w>
Samari a</w>
deli vered</w>
spea king</w>
w hat
ch e
car ry</w>
Esa u</w>
ep ing</w>
cri ed</w>
B ar
fi ght</w>
G e
li on</w>
hu man</w>
inhabit ants</w>
Wh ere</w>
E dom</w>
ch ur
su rely</w>
A sh
ac h
pray er</w>
destru ction</w>
p rea
f at</w>
des o
f li
fa v
a live</w>
ra in</w>
H i
op ened</w>
bu il
wi sh</w>
es cap
mes seng
flo ck</w>
out side</w>
A sa
bo ok</w>
y one</w>
pp ed</w>
har d</w>
sanc tuary</w>
fal se</w>
st ers</w>
Ri ver</w>
s it
Nebu cha
l th</w>
t each</w>
ne ed</w>
1 </w>
mi es</w>
Y et</w>
G enti
m ur
S ab
re ign</w>
com for
br on
se l</w>
tt ing</w>
l ear
puni sh</w>
pre par
au thor
s we
A ma
A ra
t op</w>
f ini
f ts</w>
po st
te mp
j our
en ough</w>
sin ned</w>
ci ous</w>
er i
de ci
di sa
pas sed</w>
p on
ta in
s cri
whe ther</w>
i ma
E ver
multi tu
z er</w>
sa t</w>
tab ernacle</w>
cur se</w>
b ow</w>
kne w</w>
she pher
wa lls</w>
lif ted</w>
sk in</w>
ri ver</w>
cl oud</w>
wi ld</w>
J on
Te ll</w>
an ge</w>
off ered</w>
foll owed</w>
Ha ve</w>
o l</w>
w est</w>
in ter
glor i
Genti les</w>
b east</w>
go es</w>
offici als</w>
on i
lin en</w>
dr y</w>
si x
cour t</w>
vin ey
ca ttle</w>
bron ze</w>
g rou
Egypti ans</w>
st en</w>
W ith</w>
z iah</w>
ta l</w>
ci al</w>
re f
hu </w>
te th</w>
tur es</w>
N o
tor y</w>
Pe op
anima l</w>
fri ends</w>
Nebucha dne
hou se
v eth</w>
ro ck</w>
el se</w>
cer tain</w>
li ps</w>
' I</w>
Peop le</w>
th ro
a ts</w>
stre t
op s</w>
m pe
pur p
o ts</w>
de fi
sta y</w>
Y es</w>
tt ered</w>
pa lace</w>
Pha ri
Philist ines</w>
or t</w>
de ep</w>
sla ve</w>
ll ow</w>
g ran
ser vice</w>
tru mpe
Nebuchadne zzar</w>
dur ing</w>
na mes</w>
gi fts</w>
ir on</w>
b ones</w>
ma king</w>
b ar
ro ad</w>
thou ght</w>
Elisha </w>
a gre
ga tion</w>
assemb ly</w>
rema in</w>
Ma ke</w>
go ver
pro cla
wi cke
trou b
be long</w>
qu ir
sha med</w>
m eat</w>
s ing
su b
ne e
val ley</w>
t ran
d den</w>
c lean
es tab
l ot</w>
ba d</w>
ang u
af fli
ani el</w>
z ar</w>
bu ried</w>
a post
fi elds</w>
D aniel</w>
ent rance</w>
wi tness</w>
teach ing</w>
i s
Re ub
bo am</w>
mo ve</w>
gh ts</w>
, 0
gu il
la tion</w>
H an
S in
lea der</w>
g od</w>
La w</w>
f in
it ted</w>
cou ra
rela ti
desir e</w>
E lea
bur ning</w>
c ent</w>
c a</w>
in ning</w>
what ever</w>
B y</w>
ar ro
sla ves</w>
I sh
con si
multitu de</w>
sig n</w>
fo ot</w>
sma ll</w>
li shed</w>
en th</w>
go o
posses sion</w>
mb ers</w>
Se e</w>
author ity</w>
en s</w>
spe cial</w>
ca tion</w>
ang els</w>
ru n</w>
att en
Who ever</w>
Cana an</w>
command ments</w>
h ind</w>
c ti
na l</w>
sp r
on ce</w>
neigh bor</w>
la mbs</w>
ti ll</w>
ow ers</w>
p es</w>
re ig
hi ll</w>
de th</w>
vi sion</w>
beg inning</w>
gener ation</w>
comman ds</w>
happ y</w>
Z er
st op</w>
K e
e mp
first born</w>
wor k
sp ring</w>
pro du
ear ly</w>
wan ted</w>
roo m</w>
e ye</w>
te en</w>
,0 00</w>
res pon
ha ir</w>
ba pti
res pe
ton gue</w>
S hi
O f</w>
ti ful</w>
la ws</w>
har vest</w>
ap pro
vi lla
ca l
in crea
So me</w>
than ks</w>
gu ard</w>
chari ots</w>
t est</w>
Gi lead</w>
prepar ed</w>
kin dness</w>
p rou
g row</w>
i led</w>
mea sur
bran ches</w>
ir s</w>
stru ck</w>
gla d</w>
fif ty</w>
so on</w>
he ld</w>
sk y</w>
sh ment</w>
t y
bles sing</w>
L e
bl ind</w>
Li sten</w>
ent y-
a shamed</w>
E very</w>
l est</w>
z a
be hind</w>
sha n</w>
Sab bath</w>
declar es</w>
guil ty</w>
al ready</w>
coun t</w>
ang ed</w>
ar ri
n ant</w>
a ted</w>
ent ered</w>
lea se</w>
dee ds</w>
U zz
tw enty-
abo min
four th</w>
c ts</w>
ar m</w>
tran s
un d
s —
ea ten</w>
res cu
A re</w>
c les</w>
M an</w>
wa ste</w>
O r</w>
p oured</w>
as h</w>
Phari sees</w>
wa sh</w>
ro yal</w>
n es
ta n</w>
des pi
o live</w>
fini shed</w>
t es
pri son</w>
a li
rul er</w>
in clu
an iah</w>
wicke dness</w>
qui ck
d in
atta ck</w>
foo lish</w>
testi mon
bo dies</w>
spi ri
clo th</w>
plea se</w>
Lev i</w>
me ans</w>
fa mine</w>
it ed</w>
in no
ro r</w>
t r
tt ers</w>
believ ed</w>
S h
car e
re dee
wea lth</w>
offic ers</w>
se par
fa st</w>
drea m</w>
D e
ca used</w>
beau tiful</w>
wa it</w>
ca mp
ser ved</w>
gar ments</w>
me di
P i
e ter
con gre
sel s</w>
so ver</w>
e ts</w>
bir ds</w>
ho l
di st
i es</w>
Al so</w>
se cu
d on</w>
ne ws</w>
vi ol
fore ig
Jer i
sh o
go ats</w>
gener ations</w>
grea ter</w>
A mor
O ur</w>
op pres
re v
re je
ga in</w>
w ings</w>
Elea zar</w>
p hat</w>
fe ct</w>
ch er
br ing
bu ll</w>
re li
Bala am</w>
gu es</w>
besi de</w>
foo l</w>
circumci sed</w>
rea son</w>
P as
quick ly</w>
congre gation</w>
u e</w>
go at</w>
ab und
fi ll</w>
hu a</w>
pow erful</w>
b est</w>
reig ned</w>
fav or</w>
sla ugh
know s</w>
x ed</w>
tt er
terri ble</w>
Ze de
Ga d</w>
E lo
H er
Wi ll</w>
suff er</w>
who ever</w>
Whi le</w>
me mber</w>
ki m</w>
de ca
Al mighty</w>
br on</w>
Ga li
flo cks</w>
la mb</w>
de par
st ar
on d</w>
m en
or t
trans g
b ow
an n
Jo b</w>
comple tely</w>
f east</w>
b le
pri son
He bron</w>
l oud</w>
s y
for ty</w>
ac hi
B les
o x</w>
s ear
u n</w>
on ed</w>
s sed</w>
hea led</w>
proph es
por tion</w>
S ar
hi gh
Si mon</w>
fe w</w>
Reub en</w>
w ro
ra n</w>
y r
tor e</w>
comm itted</w>
su c
sla in</w>
K i
i ther</w>
P er
l le
statu tes</w>
s wor
chur ch</w>
ur e</w>
be l</w>
com eth</w>
whi te</w>
2 </w>
deso late</w>
puni shment</w>
in ing</w>
oun ds</w>
sca ttered</w>
Zede kiah</w>
si ble</w>
ex cept</w>
ti s
Abra m</w>
' re</w>
Je hu</w>
gi r
si ck</w>
rul ers</w>
in -
pur su
eter nal</w>
con tro
sle ep</w>
pro sp
pla ced</w>
S ea</w>
H ere</w>
ex i
rev ea
ce e
Elo him</w>
ru les</w>
sh ing</w>
loo king</w>
in deed</w>
mar ried</w>
tain ly</w>
f led</w>
in t</w>
t ents</w>
dr un
prou d</w>
wal ked</w>
hi lls</w>
Bles sed</w>
U n
rea lly</w>
wh ere
it u
te enth</w>
for m</w>
ll en</w>
c us</w>
pro te
d -
pro f
' The</w>
ent ly</w>
crow d</w>
app eared</w>
c ing</w>
foll owing</w>
for med</w>
di re
house hold</w>
wea k</w>
ma tter</w>
thir ty</w>
ch o</w>
c up</w>
st rea
sh ut</w>
wri te</w>
] </w>
ce le
hi de</w>
ll -
in side</w>
ten th</w>
hor ns</w>
wi de</w>
foun da
villa ges</w>
apost les</w>
u pri
pl ant</w>
[ </w>
re pro
transg res
l angu
l ying</w>
st op
H ar
d —
so ever</w>
p our</w>
gra ss</w>
i a</w>
en dur
ar ea</w>
bu y</w>
ra ms</w>
sta yed</w>
fa llen</w>
peri sh</w>
ves sels</w>
Ba al</w>
atten tion</w>
do st</w>
sha phat</w>
Je wish</w>
co ver
th row</w>
d st</w>
p e</w>
u m</w>
G et</w>
ac cep
escap e</w>
R o
Gali lee</w>
E s
deca i</w>
a st</w>
sa tis
i se</w>
secre t</w>
P raise</w>
bea sts</w>
al t
M er
so ld</w>
d ro
ear ing</w>
th rew</w>
oa th</w>
la mp
trea sur
st itu
ma s
fri end</w>
fa ces</w>
H ear</w>
' You</w>
v ity</w>
Jeho shaphat</w>
y re</w>
sit ting</w>
sha re</w>
gui lt</w>
a part</w>
d ows</w>
ta ught</w>
G er
H u
thro wn</w>
- in-
da r</w>
wat ch</w>
ow er</w>
v ine</w>
go tten</w>
Jeri cho</w>
pra yed</w>
Jer o
v al</w>
E l
ex al
ri ches</w>
a kim</w>
k ah</w>
rou n
sor row</w>
or din
L ea
command ment</w>
ex am
Mor decai</w>
cour ty
ea l
ow ever</w>
puni shed</w>
respe ct</w>
dar k</w>
pu ri
Jo siah</w>
pla in</w>
testimon y</w>
mi s
p it</w>
ca u
continu e</w>
c tions</w>
f lee</w>
re ward</w>
Re member</w>
re pa
mi ra
ti fied</w>
f ra
poss ess</w>
cro ss</w>
relati ves</w>
i ls</w>
Le ban
pa st
-in- law</w>
prin ce</w>
Pas sover</w>
li </w>
L ab
Isa iah</w>
se th</w>
buil ding</w>
alt ars</w>
arri ved</w>
pro vi
stop ped</w>
wro te</w>
C hal
wi t
enti re</w>
y ond</w>
ro se</w>
e igh
Ever yone</w>
Jon a
cl ou
coun sel</w>
depar ted</w>
m a</w>
Lab an</w>
li gh
agre ement</w>
a side</w>
ort ant</w>
un ity</w>
or dered</w>
tal k</w>
d est</w>
E ach</w>
sig ns</w>
su m
s ong</w>
par ts</w>
ad ul
shou l
b s</w>
for get</w>
stre ets</w>
b owed</w>
sur roun
hur t</w>
fe male</w>
pri de</w>
re moved</w>
clo thing</w>
dis ease</w>
bro ke</w>
ac cept</w>
In stead</w>
t or</w>
adul ter
de cei
pie ce</w>
messeng ers</w>
hi dden</w>
b ah</w>
r on</w>
le tter</w>
in king</w>
in k
la sting</w>
Mo st</w>
Leban on</w>
li ft</w>
h our</w>
bor e</w>
Da mas
st ars</w>
do ms</w>
tur ed</w>
P a
Y e</w>
ke ep
cele bra
multi p
i d
mi l
Damas cus</w>
al l
da b</w>
an ointed</w>
ma h</w>
ar mies</w>
V al
foll owers</w>
pro stitu
sin ful</w>
ll ars</w>
sh owed</w>
fl our</w>
plea sed</w>
Val ley</w>
ha h</w>
p er</w>
br ings</w>
P ut</w>
sa fe</w>
U ri
con dem
le ch</w>
capti vity</w>
lo a
ho st</w>
inno cent</w>
ch ange</w>
ta kes</w>
ous ly</w>
th -
worshi ped</w>
do ors</w>
sh on
refu sed</w>
cho se</w>
fi sh</w>
ro d</w>
pro vin
camp ed</w>
judg es</w>
in ts</w>
e ight</w>
th res
decl are</w>
tri bu
dwe lt</w>
mor row</w>
clou ds</w>
B ring</w>
prophes y</w>
nu mbered</w>
Z a
imp ortant</w>
ac ts</w>
g ing</w>
for give</w>
e f
c es
No ah</w>
tu al</w>
divi ded</w>
ar m
it ti
be yond</w>
cho ose</w>
Se lah</w>
ing -
s m
na go
p are</w>
P ro
Ish ma
ac t</w>
Cana an
Ba shan</w>
Es ther</w>
Ha man</w>
refu ge</w>
st er
k er</w>
gra ve</w>
sa c
lo ves</w>
cro wn</w>
comfor t</w>
t -
T ent</w>
o x
ro ss</w>
W o
pa in</w>
we igh
thou ghts</w>
cer tainly</w>
cap tain</w>
your s</w>
pi llars</w>
v ir
w ants</w>
continu ed</w>
de ce
belong s</w>
at on
in stead</w>
sac red</w>
qu ar
grou p</w>
def ea
P lease</w>
fif th</w>
di sp
ha ted</w>
he m</w>
pla gue</w>
sa fe
di ff
Pi late</w>
courty ard</w>
wor thy</w>
Ze chari
si a</w>
pro per
pa st</w>
e over</w>
cap tured</w>
pre pare</w>
pl ans</w>
gar den</w>
stret ched</w>
ch anged</w>
nes ses</w>
ful ness</w>
ra h</w>
ste ps</w>
M ary</w>
Amor ites</w>
D i
ta ge</w>
a st
T i
A s
l li
rejo i
Hi gh</w>
re gi
C an</w>
d den
de p
brea th</w>
re th</w>
d rew</w>
T yre</w>
aton ement</w>
tri es</w>
ac ross</w>
fa ir</w>
be loved</w>
defi led</w>
rema ined</w>
ox en</w>
our selves</w>
bring ing</w>
D id</w>
A men</w>
f ree
v y</w>
Eli jah</w>
k ey</w>
dden ly</w>
S cri
clo se</w>
T o
x u
j eal
mid dle</w>
Zechari ah</w>
mea sure</w>
vi c
ne ck</w>
ta king</w>
swe et</w>
ven ed</w>
reli gi
hun g
b on</w>
diff er
king doms</w>
estab lished</w>
li ah</w>
ad a</w>
sp ake</w>
Am mon
viney ard</w>
Jero boam</w>
ann oun
or ders</w>
sy nago
r ings</w>
Sa y</w>
e en</w>
str ess</w>
re m
ab i
e -
terri tory</w>
K o
we l
or ed</w>
Su rely</w>
lear n</w>
ri vers</w>
se tt
in ner</w>
mb led</w>
es ty</w>
c ea
si des</w>
g ni
m et</w>
defea ted</w>
proper ty</w>
l en
5 </w>
Babyl oni
g r
H or
On ly</w>
upri ght</w>
reme mbered</w>
po s
war ri
mea n</w>
a head</w>
n on</w>
fi er
b ound</w>
ach el</w>
si sters</w>
ama r</w>
pre cious</w>
she ke
u tter
a tely</w>
sou ght</w>
gover nor</w>
lea vened</w>
smo ke</w>
Ma a
ever lasting</w>
grea tly</w>
Ab ner</w>
p rai
D o
ver s
it self</w>
D an</w>
Scri p
e cu
hung ry</w>
n et</w>
Si me
sheke ls</w>
cor ru
x es</w>
Sa tan</w>
sa b
a iah</w>
jo ined</w>
n in
plan ted</w>
rem nant</w>
st ub
lo st</w>
R achel</w>
le th</w>
ru led</w>
vir g
str anger</w>
N ot</w>
per secu
gra pes</w>
mo on</w>
dea </w>
s cro
t wi
cover ing</w>
ref use</w>
de ans</w>
se xu
pa th</w>
arro ws</w>
ver e
A zar
tro ops</w>
Aha b</w>
ar ms</w>
ac comp
r un
moun t</w>
So dom</w>
man ner</w>
shepher d</w>
disa ster</w>
mo th</w>
Go od</w>
m ing</w>
a go</w>
d th</w>
Li ke</w>
Aha z</w>
i ly</w>
A da
en ded</w>
wo mb</w>
pr ess</w>
purp le</w>
oun ded</w>
hear ing</w>
scro ll</w>
s an
Jona than</w>
sin ners</w>
ab an
u sh</w>
re bu
wit nesses</w>
mer ci
com pas
emp ty</w>
oin t</w>
l eng
see ing</w>
j a
te lling</w>
M any</w>
measur ed</w>
li ons</w>
v an
consu med</w>
t ch</w>
chari ot</w>
hi d</w>
th yself</w>
b on
Beth -
per fect</w>
pa ti
c rying</w>
con se
e ch</w>
Ishma el</w>
ea th</w>
ca h</w>
pra cti
dwe lling</w>
sha r
comman der</w>
troub led</w>
Re ho
li ty</w>
st rai
ea ting</w>
produ ce</w>
s cor
' This</w>
ima ge</w>
hon ey</w>
mon ths</w>
don key</w>
contro l</w>
ex ecu
en ted</w>
li ves
re move</w>
crea tures</w>
tru sted</w>
l ine</w>
deli ght</w>
Be the
Sime on</w>
sh out</w>
e ps</w>
clothe d</w>
s na
won der
wh eat</w>
Ga te</w>
revea led</w>
j esty</w>
tri ed</w>
s n
qu es
obe yed</w>
crea ted</w>
ri </w>
comm it</w>
wal king</w>
gre w</w>
re gu
ca se</w>
A ram</w>
r a</w>
comm unity</w>
bu lls</w>
mour ning</w>
s wa
la bor</w>
judg ments</w>
cl ans</w>
gran d
di ca
Mor eover</w>
stri ke</w>
dra w</w>
h el</w>
lives to
H itti
work ers</w>
han ded</w>
ga te
A z
la ter</w>
qui et</w>
cur sed</w>
bir d</w>
trumpe t</w>
mar ry</w>
con f
st y</w>
d ou
spe l</w>
gar ment</w>
shepher ds</w>
p ing</w>
livesto ck</w>
con fi
bit ter</w>
wi dow</w>
fe ed</w>
spea ks</w>
believ ers</w>
p ity</w>
sh own</w>
suff ering</w>
kin ds</w>
rescu e</w>
Bethe l</w>
ca ught</w>
ful filled</w>
st ands</w>
judg ed</w>
— the</w>
d a</w>
we eping</w>
increa se</w>
fl owing</w>
n ey</w>
religi ous</w>
medi ately</w>
P ri
tal king</w>
clea r</w>
es sed</w>
foreig ners</w>
bapti zed</w>
wi lt</w>
wri ting</w>
b ought</w>
wor ked</w>
wa shed</w>
leng th</w>
a ha
f ought</w>
tur ning</w>
d re
foo ls</w>
there in</w>
an ces</w>
coun tries</w>
Chal deans</w>
ang ers</w>
you th</w>
ac cu
di shon
n a</w>
for ward</w>
mi xed</w>
ca me
di dst</w>
Azar iah</w>
reje cted</w>
sexu al</w>
for gotten</w>
jour ney</w>
Gi be
spr ink
T each
Bala k</w>
N i
for ce</w>
A n</w>
I ts</w>
fru its</w>
i med</w>
mil k</w>
ob serve</w>
G ree
dev our</w>
w ing</w>
ing ly</w>
ter ror</w>
Mes siah</w>
glori ous</w>
coun ted</w>
bl ue</w>
ma th</w>
s y</w>
z i
st af
conse cra
Her od</w>
messeng er</w>
str ong
Y es
re cor
b ab
m it</w>
no ise</w>
sha dow</w>
va in</w>
pp er</w>
ph ta
di stress</w>
Ama ziah</w>
me lech</w>
cap tains</w>
care ful</w>
purp ose</w>
hea l</w>
pha n</w>
ac count</w>
it ful</w>
e dge</w>
Be er
li p</w>
rea ched</w>
satis fied</w>
te eth</w>
ra ther</w>
es h
u ch</w>
Wo e</w>
came ls</w>
u lt</w>
viol ence</w>
b er
wh er
it ing</w>
inter pre
Za do
pla n</w>
off spring</w>
T ru
bra ss</w>
continu ally</w>
l lo
pri ce</w>
abund ance</w>
lla r</w>
Zado k</w>
plea sure</w>
for given</w>
S er
la w
Jo ash</w>
fi gh
ri es</w>
y o
t res
Yes hua</w>
sa ints</w>
won ders</w>
har m</w>
c an
H owever</w>
or e</w>
atta cked</w>
wi lling</w>
han d
Sin ai</w>
comp any</w>
mi </w>
ro be</w>
vi or</w>
f ing
o ks</w>
ar ose</w>
ligh t
drun k</w>
ong s</w>
tur ns</w>
L o
A na
tou ched</w>
n ah</w>
ea g
L ot</w>
s words</w>
di tion</w>
da d</w>
C on
Aha ziah</w>
se i
slaugh ter</w>
s l
our s</w>
viney ards</w>
go l
An yone</w>
la m</w>
h y
M ar
trumpe ts</w>
sw ear</w>
ac c
ga l</w>
He bre
langu age</w>
sha i</w>
go dly</w>
su ddenly</w>
Bar n
vere ign</w>
exal ted</w>
keep ers</w>
in v
Jehoi ada</w>
pa id</w>
ir ed</w>
y ea</w>
t rying</w>
l o</w>
H ea
bur den</w>
swor e</w>
thres h
beau ty</w>
w es
an ing</w>
S pea
f ea
fa ther
f esti
den s</w>
w ear</w>
sil ent</w>
confi d
quir e</w>
R ab
cha ins</w>
b er</w>
mu si
fur y</w>
hor n</w>
che m</w>
T ab
p en
mb ling</w>
staf f</w>
H er</w>
we e
ad vers
b oun
z ing</w>
adulter y</w>
deci ded</w>
coura ge</w>
Ca es
hea t</w>
hel ped</w>
pro vo
phta li</w>
Th ough</w>
r en
prison ers</w>
co lle
Mer ar
un less</w>
utter ly</w>
Sar ah</w>
Ze bu
cru shed</w>
sur vi
sa d</w>
treasur es</w>
seven ty</w>
hor se
Jehoi akim</w>
han an</w>
nee dy</w>
She ma
Spea k</w>
mour n</w>
strai ght</w>
ci a</w>
wonder ful</w>
sh on</w>
Ammon ites</w>
fl ow</w>
faith fulness</w>
s me
′ ah</w>
spiri ts</w>
Asa </w>
p raised</w>
six th</w>
She chem</w>
O h</w>
thous ands</w>
go spel</w>
mira cles</w>
In deed</w>
differ ent</w>
Na phtali</w>
pi llar</w>
ke ys</w>
sacrifi ced</w>
af ter
smo te</w>
s car
yri ans</w>
vi sit</w>
de part</w>
se ly</w>
c up
na ked</w>
in su
S hu
Sin ce</w>
ro b
grea tness</w>
gu ar
sen ding</w>
flo or</w>
consi der</w>
ca l</w>
founda tion</w>
fe llow</w>
we ight</w>
mer ch
wa ke</w>
tru ly</w>
bo y</w>
sh eth</w>
shi eld</w>
compas sion</w>
stor m</w>
a th</w>
Am mon</w>
lea st</w>
p ah</w>
cour se</w>
lin ess</w>
ru in</w>
i sh</w>
ne th</w>
t ears</w>
de w</w>
cur tain</w>
ke wise</w>
rebe lled</w>
sha ke</w>
k et</w>
vic tory</w>
or ah</w>
ob je
yo ke</w>
e mb
Be fore</w>
s ki
Ju st</w>
tou ch</w>
wea p
Israeli te</w>
warri ors</w>
or ted</w>
wor king</w>
flo od</w>
o c
s eat</w>
lu n</w>
inclu ding</w>
Ju dea</w>
to mb</w>
p al
a shes</w>
Canaan ites</w>
Ke ep</w>
quir ed</w>
le ts</w>
e ither</w>
hu mble</w>
past ure</w>
regu la
h ra
lo cu
ba l</w>
cha r</w>
up hra
E uphra
Be th</w>
dri ve</w>
Ar mies</w>
y thing</w>
star ted</w>
figh ting</w>
b es
pre y</w>
f -
we ep</w>
v or
capti ve</w>
her self</w>
for sa
for est</w>
per fu
ke eps</w>
Shema iah</w>
ex cee
tra v
t ted</w>
p ub
dri ven</w>
fe ll
d or</w>
mini ster</w>
Sha ll</w>
fore ign</w>
li g
ve led</w>
lo se</w>
hor se</w>
ig nor
ima ges</w>
sca tter</w>
dem ons</w>
A i</w>
h on</w>
inher it</w>
M ah
th ites</w>
for ced</w>
p hi
Ash er</w>
str angers</w>
b are</w>
sti ck</w>
ru ins</w>
hea vy</w>
so m</w>
Zebu lun</w>
cla y</w>
don keys</w>
cor ners</w>
par ents</w>
go d
b our</w>
re ction</w>
wat ch
scri be</w>
ad vice</w>
h in
Euphra tes</w>
every where</w>
belong ed</w>
Barn ab
fu ture</w>
troub les</w>
Barnab as</w>
sab bath</w>
d evil</w>
me mor
se ll</w>
A gain</w>
proph esi
er ah</w>
n ine</w>
ow ner</w>
go eth</w>
ur n</w>
im mediately</w>
a ges</w>
pray ers</w>
bo at</w>
lo ts</w>
in ess</w>
ces s
stor y</w>
cei ved</w>
Juda s</w>
fir m</w>
ex pe
H esh
app ear
sa char</w>
t ear</w>
app ear</w>
for tified</w>
rea li
sou ls</w>
plea sing</w>
stu mble</w>
cro ps</w>
S al
mini st
W a
Phi lip</w>
procla im</w>
th a</w>
wa iting</w>
ha il</w>
ari es</w>
we pt</w>
shou ted</w>
Lea h</w>
despi sed</w>
Gibe on</w>
da ily</w>
str ange</w>
ce dar</w>
th less</w>
de dica
A d
goo ds</w>
Asa ph</w>
b eat</w>
po sts</w>
k en
Je z
f ar
mou ths</w>
jo in</w>
Mi di
ra ce</w>
sear ch</w>
f eared</w>
dea l</w>
cla n</w>
sa ck
gre en</w>
declar ed</w>
ju sti
desir es</w>
3 </w>
en ever</w>
t ary</w>
b ars</w>
disa pp
S yria</w>
b ear
besi des</w>
mea l</w>
Hesh bon</w>
Je bu
cru ci
o ch</w>
teach ings</w>
E z
Re be
comman ders</w>
bor s</w>
rebe lli
u el</w>
du e</w>
per ver
Jor am</w>
pa ths</w>
en joy</w>
an k</w>
D es
Is sachar</w>
abomin ations</w>
le hem</w>
c ree</w>
wi dows</w>
bar ley</w>
rep ort</w>
po les</w>
H il
wher ever</w>
hol ds</w>
prai ses</w>
lear ned</w>
Egypti an</w>
Ne ws</w>
fe el</w>
a z</w>
provin ce</w>
Uri ah</w>
her i
cher ub
4 </w>
capti ves</w>
list ened</w>
appear ance</w>
gra cious</w>
prea ch</w>
Reho boam</w>
l ted</w>
mi li
res tore</w>
affli cted</w>
th ite</w>
prostitu te</w>
pres ented</w>
M al
re qu
to tal</w>
fell ow
- offering</w>
le m
cu sto
affli ction</w>
ri m</w>
k ened</w>
en se</w>
t ar
Jebu s
escap ed</w>
ci ent</w>
Se ir</w>
roo ms</w>
arro g
th am</w>
exi le</w>
A c
t ings</w>
p ers</w>
di g
I th
synago gue</w>
dr essed</w>
grou ps</w>
N ah
thor ns</w>
sack cloth</w>
lamp s</w>
p it
gu ards</w>
tor n</w>
Whi ch</w>
thresh ing</w>
heri tage</w>
the less</w>
fa il</w>
redee med</w>
so jour
do or
tre mble</w>
ke eping</w>
Merar i</w>
heaven ly</w>
so be
de cree</w>
stub born</w>
sle w</w>
jo y
la mp</w>
le b</w>
ma gi
for mer</w>
di sobe
spo il</w>
lo v
T ar
bo ast</w>
beg at</w>
be tra
Je w</w>
ever theless</w>
gol den</w>
Be l
bur y</w>
res i
instru ctions</w>
to morrow</w>
sh ine</w>
stra y</w>
y er</w>
repro ach</w>
than k</w>
la ugh
she ba</w>
g ard</w>
trea t</w>
fi g</w>
Si hon</w>
Shi me
hear s</w>
Sh ould</w>
Ever ything</w>
her ds</w>
qu een</w>
v ow</w>
un leavened</w>
hon ored</w>
G il
goo dness</w>
T urn</w>
thir sty</w>
Ca leb</w>
horse men</w>
La mb</w>
dra g
s ings</w>
le tters</w>
l thy</w>
Beth lehem</w>
de ter
s ci
forsa ken</w>
abomin ation</w>
lla m</w>
The e</w>
divi de</w>
ble mi
sett led</w>
res ted</w>
spiri tual</w>
Ha math</w>
gri ev
Jon ah</w>
t ered</w>
ther n</w>
bas ket</w>
ou ter</w>
rebelli ous</w>
fa lls</w>
safe ty</w>
shi ps</w>
igh ts</w>
ari se</w>
Uzz iah</w>
She ba</w>
il ing</w>
all owed</w>
s ongs</w>
light ning</w>
R u
mur der
s er</w>
P ow
celebra te</w>
la s</w>
A ll-
boun dar
Ge da
ton gues</w>
instru ction</w>
prea ched</w>
Pow erful</w>
ev il
rea t</w>
cal f</w>
C yr
re co
p le</w>
virg in</w>
cru el</w>
c ease</w>
instru ments</w>
me mbers</w>
bu llo
be comes</w>
pub li
Hil kiah</w>
prof an
tow er</w>
ser p
for ces</w>
Li b
eigh th</w>
Shime i</w>
i el</w>
thir ty-
su bur
com pla
ea l</w>
strong er</w>
Ko hath</w>
car rying</w>
di </w>
ar med</w>
respon sible</w>
ho mes</w>
tou ches</w>
f fi
chur ches</w>
don ed</w>
dr inking</w>
subur bs</w>
I m
ro cks</w>
J am
t us</w>
ear th
d led</w>
redee m</w>
gr ant</w>
fi cation</w>
cur tains</w>
comple te</w>
Rebe kah</w>
b iah</w>
y est</w>
prosp er
the n
bas es</w>
war ds</w>
Geda liah</w>
thi ck</w>
di ah</w>
m ity</w>
Na than</w>
S ing</w>
ma tion</w>
op pos
Mo ab
ari us</w>
i f
lea ding</w>
any more</w>
ma jesty</w>
estab lish</w>
oppos ite</w>
B oa
merci ful</w>
teach ers</w>
oppres sed</w>
l ow
separ ate</w>
Am non</w>
scar let</w>
Ne than
E n
d ried</w>
i ous</w>
na ke
K orah</w>
multip ly</w>
ar ed</w>
pres er
bl ow</w>
hon our</w>
hun ger</w>
ge ance</w>
ol der</w>
fe e
cur e</w>
S t
w ear
— and</w>
tra veled</w>
ti fy</w>
offic er</w>
care fully</w>
ea ts</w>
so lem
ll u
sig ned</w>
comp ani
fa ct</w>
hi red</w>
di lig
spe ech</w>
y i
s wi
strea ms</w>
ri sing</w>
prote ct</w>
H am
nake dness</w>
gover n
e zer</w>
rema ins</w>
pl u
Y ea</w>
assemb led</w>
tra p</w>
cha mbers</w>
know ing</w>
separ ated</w>
s ant</w>
* </w>
fa thered</w>
fellow ship</w>
trea ted</w>
T amar</w>
k el</w>
S him
Jez re
B u
Bar uch</w>
0 ,000</w>
spi ces</w>
e ge</w>
min ds</w>
Boa z</w>
dis gu
t ta
7 </w>
dev oured</w>
in te
Wh erefore</w>
lea ds</w>
All- Powerful</w>
surroun ding</w>
he ed</w>
f er
Ne ither</w>
sp he
circumci sion</w>
terri fied</w>
lea ves</w>
Scrip tures</w>
c king</w>
hon est</w>
run ning</w>
reco gni
sing ers</w>
than k
Per sia</w>
Ne b
de tes
Sha phan</w>
ha r</w>
p ounds</w>
bla sphe
ordin ances</w>
sp are</w>
on e-
def eat</w>
foreig ner</w>
tal ked</w>
gi veth</w>
van ity</w>
pl under</w>
an ah</w>
1 2</w>
Jam es</w>
serv ing</w>
regi on</w>
Mi z
rebu ke</w>
per form</w>
deli ver
crow ds</w>
lo yal</w>
despi se</w>
ba ths</w>
ven geance</w>
promi ses</w>
accep ted</w>
d ear</w>
a stray</w>
Q u
tab les</w>
des h</w>
da h</w>
ri te</w>
un g</w>
appro ach
sp ear</w>
drea ms</w>
consu me</w>
wa ves</w>
ru ined</w>
shi elds</w>
bow l</w>
dr ank</w>
ti ed</w>
C or
mar k</w>
prof it</w>
neigh bors</w>
B er
Ma ster</w>
a tes</w>
ha tes</w>
plea sant</w>
Ez ra</w>
mur der</w>
a ir</w>
ster n</w>
wor thless</w>
bor n
F or
Do es</w>
he ight</w>
cro ssed</w>
tal ents</w>
weap ons</w>
po si
hear ken</w>
qui ties</w>
p ot</w>
sub je
Ni le</w>
de ep
vi sions</w>
Na zar
ad d</w>
nin th</w>
dis grace</w>
youn ger</w>
be half</w>
b right</w>
Su pp
ll um</w>
So vereign</w>
w ed</w>
sen se</w>
in t
gre e
plan ned</w>
C hi
shoul der</w>
2 0</w>
k k
z a</w>
8 </w>
sh ort</w>
mo ment</w>
ini quities</w>
ama zed</w>
ma keth</w>
pr on
Han aniah</w>
la u
as king</w>
fier ce</w>
deso lation</w>
fing er</w>
detes table</w>
a dab</w>
testi fy</w>
cherub im</w>
res tor
gri ef</w>
pron oun
for sake</w>
N un</w>
aban doned</w>
O be
ro ot</w>
ar row</w>
B ro
wr ong
shar p</w>
E lam</w>
po sed</w>
b en
Ada m</w>
pre va
endur es</w>
streng the
6 </w>
h ot</w>
ar gu
Teach er</w>
ma i
re ed</w>
l ts</w>
ad dition</w>
suff ered</w>
al low</w>
loo ks</w>
Hebre w</w>
trea sure</w>
bit ter
a g
pl ants</w>
brea dth</w>
di stri
sp rea
ce ed</w>
whe els</w>
Ben aiah</w>
M ac
mi ah</w>
H el
5 0</w>
ll owed</w>
dra wn</w>
Supp ose</w>
rep orted</w>
Mi cha
e ph
founda tions</w>
B o
Sha llum</w>
F o
pal m</w>
Chri sti
ch er</w>
D arius</w>
na n</w>
pra ying</w>
beg in</w>
re gard</w>
m ites</w>
ve il</w>
eph od</w>
bles sings</w>
blemi sh</w>
crea ture</w>
N evertheless</w>
prophesi ed</w>
Si don</w>
wear y</w>
R a
chi ef
weigh ed</w>
e h</w>
ves sel</w>
W ord</w>
s —</w>
Jezre el</w>
i al</w>
is su
w ounded</w>
S end</w>
k am</w>
a ven
bow ls</w>
scri bes</w>
stea l</w>
fur na
a im</w>
o mi</w>
K a
con qu
discip le</w>
L o</w>
th inking</w>
wor se</w>
P ar
s qu
hu man
Mac e
app oint</w>
u pper</w>
spr ings</w>
du g</w>
Tru ly</w>
cruci fied</w>
per sons</w>
sel ess</w>
p en</w>
Ama le
Je hor
le ys</w>
jeal ous</w>
confid ence</w>
sing le</w>
a mb
bor ders</w>
Jehor am</w>
she kel</w>
A rise</w>
ast oni
slaugh tered</w>
swor n</w>
pro ve</w>
ge ts</w>
pre g
inclu ded</w>
u b</w>
brea sts</w>
Ar k</w>
dece it</w>
u sing</w>
prosp er</w>
com mon</w>
ac ted</w>
She ol</w>
N ever</w>
d —</w>
Jes hua</w>
sn are</w>
furna ce</w>
re gar
c ord</w>
dev o
h ang
Ho sts</w>
s men</w>
posses sions</w>
de cre
war ned</w>
' Do</w>
thi op
E thiop
Na omi</w>
ali ty</w>
comfor ted</w>
gro wn</w>
scri p
Ki ri
f ying</w>
provi de</w>
w are</w>
corru p
ba bel</w>
hu r</w>
as sa
du ty</w>
gir l</w>
stre et</w>
t un
temp t</w>
then ce</w>
val leys</w>
ow l</w>
pursu e</w>
pl enty</w>
op p
sla y</w>
pu tting</w>
bea ten</w>
a th
con ceived</w>
un circumcised</w>
consi dered</w>
B il
C ar
e un
fru itful</w>
b les</w>
an i</w>
ti on
Sa vior</w>
rescu ed</w>
m y
d ings</w>
S ho
pu ts</w>
ho oks</w>
y east</w>
f righ
rejoi ced</w>
oin ting</w>
cho ice</w>
glori fied</w>
ido l</w>
stea d
wat ching</w>
Ha za
Mace don
f ro
sing ing</w>
B ook</w>
c ting</w>
ous y</w>
Gil gal</w>
ca lling</w>
An ti
wor th</w>
of ten</w>
preg nant</w>
en coura
m ined</w>
re built</w>
festi val</w>
er xes</w>
t to
clo sed</w>
lo vers</w>
tr ess</w>
aha z</w>
i ces</w>
Mes hu
c y
foun ded</w>
clean ness</w>
val ue</w>
dedica ted</w>
Hea ven</w>
ri ty</w>
ha bi
ro of</w>
in ks</w>
perfu me</w>
prea ching</w>
bo sheth</w>
rou gh</w>
ra y</w>
ab ad</w>
Jo hanan</w>
im mor
do mini
jeal ousy</w>
l on</w>
n ur
s ow</w>
eag le</w>
res ur
win ds</w>
deter mined</w>
burn t-
Zer ub
sm ite</w>
me aning</w>
achi n</w>
surroun ded</w>
Cyr us</w>
sea l</w>
s ers</w>
ur ing</w>
con fu
ro bes</w>
serp ent</w>
fu n</w>
procla imed</w>
happ ens</w>
po cri
Abi jah</w>
sa lt</w>
Ti mo
first -
increa sed</w>
Me eting</w>
fin ds</w>
blo o
cra f
f f</w>
lea ving</w>
li kewise</w>
F ear</w>
un faithful</w>
musi c</w>
N one</w>
bran ch</w>
multip lied</w>
con sci
for tress</w>
divi sion</w>
sp len
over come</w>
f le
boundar y</w>
exam ple</w>
divi sions</w>
hu mbled</w>
ad vi
si ege</w>
se iah</w>
A ri
bab y</w>
ha ps</w>
d ance</w>
Jo tham</w>
ro ar</w>
He z
val u
roo ts</w>
where in</w>
rela tions</w>
M en</w>
mu el</w>
str on
stron gh
d it
domini on</w>
resur rection</w>
sea led</w>
cke ts</w>
cru sh</w>
Ma t
co at</w>
thi ef</w>
si ts</w>
cau ses</w>
ti ve</w>
tab lets</w>
sle pt</w>
ep hah</w>
be ings</w>
dis ea
re pay</w>
f it</w>
her d</w>
di vor
la i</w>
ro ws</w>
chief s</w>
S en
Zerub babel</w>
Tab ernacle</w>
locu sts</w>
no ti
lo ose</w>
me gran
clean sed</w>
li sh
sea son</w>
Miz pah</w>
s un
p esti
ou ri
le gs</w>
rea ch</w>
requ est</w>
gla dness</w>
ci l</w>
Re pha
R ed</w>
wat ched</w>
K ings</w>
beg ot</w>
po megran
or ac
N in
d ingly</w>
ur es</w>
ho li
N or</w>
C ity</w>
fi gs</w>
t teth</w>
defi le</w>
s and</w>
sanc tified</w>
Isra el
sum mon
S ir</w>
ama h</w>
ce ll
cri es</w>
A don
Meshu llam</w>
grea test</w>
' What</w>
par able</w>
ca tch</w>
D uring</w>
ta x</w>
bu sin
l ence</w>
trea cher
ma les</w>
ad ded</w>
der ing</w>
mar ri
sme ll</w>
shou ting</w>
cha sed</w>
K en
L achi
agre ed</w>
we ll-
Lachi sh</w>
Abi melech</w>
ther wise</w>
ten ded</w>
as signed</w>
vin es</w>
la me</w>
b ands</w>
hol ding</w>
destro ying</w>
Midi an</w>
ex t</w>
N ext</w>
y es</w>
sin ner</w>
endur e</w>
pas sing</w>
da y
cha se</w>
i ms</w>
Z o
cor ner</w>
Ju da</w>
c kness</w>
offici al</w>
an tly</w>
squ are</w>
ca la
for tun
m yr
up ward</w>
har d
ques tion</w>
P lace</w>
Na me</w>
instru cted</w>
Go mor
san da
an ointing</w>
hea p</w>
sm it
fla me</w>
pesti lence</w>
Haza el</w>
lau gh</w>
ca lls</w>
inv ited</w>
O g</w>
A mo
sor e</w>
me less</w>
Hitti te</w>
Re turn</w>
ex ac
an cient</w>
st ir
ho od</w>
bi g</w>
bo tto
H as</w>
f ed</w>
lea sed</w>
Jeho ahaz</w>
ch est</w>
transgres sions</w>
decei ved</w>
do ers</w>
kin dled</w>
hy pocri
no bles</w>
pa stu
th under</w>
thank s
b al
for ty-
repa ired</w>
Macedon ia</w>
Nin ev
Timo thy</w>
pastu re
ho liness</w>
interpre tation</w>
ci ans</w>
Babyloni ans</w>
To day</w>
g g
four teenth</w>
res h</w>
disgu sting</w>
Lev ite</w>
t ened</w>
neigh bour</w>
loa ves</w>
busin ess</w>
Sha m
v ows</w>
Hitti tes</w>
e ly</w>
summon ed</w>
li fe
wa ited</w>
R am
ca cia</w>
tribu te</w>
sna ke</w>
Zer ah</w>
stret ch</w>
a man</w>
streng then</w>
Ha z
ca ve</w>
dire ction</w>
mar ched</w>
see king</w>
six ty</w>
F ir
condem ned</w>
ba se</w>
La ter</w>
do ves</w>
3 0</w>
ar ti
decei ve</w>
as s</w>
cha mber</w>
joy ful</w>
ben eath</w>
do ve</w>
tu ally</w>
e qu
stead fast</w>
sp end</w>
kne es</w>
Jeho ash</w>
Tar shi
thir st</w>
en ced</w>
t ment</w>
dou b
ci ti
advers aries</w>
c ere
har ps</w>
lo ins</w>
su a
daugh ter
re vi
un cleanness</w>
ga ther
s now</w>
sei zed</w>
sa y
' If</w>
op hel</w>
cor re
har p</w>
ch s</w>
Ninev eh</w>
Tarshi sh</w>
sum mer</w>
nu mer
supp ose</w>
reme mb
tes ted</w>
cla im</w>
under stood</w>
C ur
Maa seiah</w>
S yrians</w>
mar iah</w>
teach er</w>
Na aman</w>
s ors</w>
co als</w>
dea lt</w>
strengthe ned</w>
s killed</w>
Caes ar</w>
po i
restor ed</w>
te lls</w>
sprink le</w>
el ing</w>
d ent</w>
who soever</w>
di ent</w>
al lo
l ou
Anti och</w>
clean se</w>
da wn</w>
cee ded</w>
sea s</w>
ma id</w>
sh ows</w>
si ve</w>
t ops</w>
z i</w>
provin ces</w>
Ru th</w>
m m
supp ort</w>
po llu
high est</w>
la ck</w>
sp ent</w>
abi de</w>
excee dingly</w>
M ine</w>
d anger</w>
viol ent</w>
ances tor</w>
lo ving</w>
pu lled</w>
da i</w>
govern ors</w>
Hi v
Da y</w>
Ca in</w>
a hi
gate keepers</w>
Nazar eth</w>
thanks giving</w>
ter ing</w>
ri sen</w>
cub it</w>
di ence</w>
lov ing-
Th ree</w>
Ha da
lamp stand</w>
fl u
the d</w>
al though</w>
in dig
e k</w>
consci ence</w>
ta te</w>
dep ths</w>
op ening</w>
reje ct</w>
wi n</w>
dist ance</w>
d ding</w>
condem n</w>
b righ
pas ses</w>
So me
Zer u
justi fied</w>
ea h</w>
wa ges</w>
orac le</w>
brea st
vo id</w>
Ara means</w>
k ers</w>
op press</w>
l an
cour ts</w>
citi z
ge tting</w>
de man
Gomor rah</w>
sha ken</w>
disci pl
wa ve</w>
per sua
Sa ve</w>
con cub
va li
brea king</w>
u shi
free ly</w>
pa y
w rought</w>
quar re
win dows</w>
n est</w>
inhabit ed</w>
r ent</w>
nin e
k est</w>
ma sters</w>
wo o
ban qu
husb ands</w>
Jebus ites</w>
ti le</w>
Scrip ture</w>
W e
el ev
pla te</w>
w ounds</w>
la ces</w>
execu te</w>
rep ent</w>
prison er</w>
th o
angu ish</w>
se er</w>
A th
A cha
ful fill</w>
ph y
secre tly</w>
foo lish
cei ve</w>
ou gh
ce dar
deci de</w>
hea ling</w>
hor ri
es h</w>
Abi shai</w>
father less</w>
descend ant</w>
sor ry</w>
transgres sion</w>
ble w</w>
co vers</w>
mi ts</w>
sh ore</w>
wh el
stra w</w>
recor ded</w>
u ten
accep table</w>
after ward</w>
m ous</w>
hun dre
sil ence</w>
' We</w>
pea ce
a cacia</w>
bi lee</w>
ll er</w>
se cure</w>
dro ve</w>
On ce</w>
li ar</w>
Ga th</w>
Ith amar</w>
ea s</w>
le pro
ex p
k o
J ab
jour ne
Aha su
gui de</w>
Har an</w>
l ower</w>
Zeru iah</w>
ma s</w>
no on</w>
d do</w>
f th</w>
rea p</w>
bullo ck</w>
d ow
Ahi th
y ear
marri age</w>
grand son</w>
be g</w>
pri es
bri de</w>
ea n</w>
b ru
as ks</w>
deser ted</w>
lepro sy</w>
pla ins</w>
Ma tt
fa st
prosper ity</w>
G reat</w>
po ol</w>
de b
swa llowed</w>
ru st</w>
dis gra
Ar non</w>
fo lly</w>
a far</w>
ro lled</w>
ar o
strea m</w>
P ea
fea sts</w>
cur ses</w>
T ob
foun tain</w>
ra ge</w>
se ttle</w>
g room</w>
merch ants</w>
sh ining</w>
P u
cor ds</w>
S ta
twel fth</w>
K ing
ha ste</w>
mi ser
born e</w>
nee ds</w>
ma gni
approach ed</w>
T wo</w>
ba diah</w>
pati ence</w>
coun cil</w>
posi tion</w>
pursu ed</w>
sea ted</w>
E no
er us</w>
brea st</w>
he ll</w>
ma yest</w>
Ba al
list ed</w>
qu a
splen dor</w>
po int</w>
safe ly</w>
re lease</w>
exac tly</w>
St and</w>
C he
per formed</w>
me th</w>
L y
hal f-
tow ers</w>
spea keth</w>
wh or
prophe cy</w>
se x</w>
gra ves</w>
sa ves</w>
M ep
di r
ex cell
pe th</w>
bla ck</w>
ex peri
solem n</w>
A sia</w>
war n</w>
puri fication</w>
h owever</w>
Ahith ophel</w>
W hat
g est</w>
di vin
Pea ce</w>
t —
sp a
t le</w>
p ledge</w>
yi eld</w>
cala mity</w>
consecra ted</w>
sanc tify</w>
Jes se</w>
ch eri
re quired</w>
L u
regula r</w>
es us</w>
fa int</w>
c ess</w>
what soever</w>
dou ble</w>
re ck
fa lling</w>
uten si
se ts</w>
u mp
re build</w>
E den</w>
Am mi
ta keth</w>
R es
o ls</w>
As k</w>
Ama sa
o m</w>
am ount</w>
W or
per pe
arrog ant</w>
Hez ron</w>
ten der</w>
u seless</w>
wo ol</w>
sp ears</w>
wh enever</w>
Jehoi achin</w>
hi re</w>
Pri est</w>
King dom</w>
posses sed</w>
res id
ci ally</w>
so ckets</w>
pa laces</w>
Ahasu erus</w>
e le
suc ceed</w>
sin ning</w>
four teen</w>
mo l
le ep</w>
H im
cere mon
pu ll</w>
g ent
bac k
utensi ls</w>
E sh
as ses</w>
desir ed</w>
pati ent</w>
comple ted</w>
t end</w>
Qu een</w>
P eri
9 </w>
ti red</w>
wi dth</w>
s ent
ba r</w>
tre mbling</w>
supp li
des ig
whi r
La zar
worshi ping</w>
Ka desh</w>
numer ous</w>
s m</w>
lle th</w>
ea lo
statu te</w>
tra mp
corru pt</w>
Eph esus</w>
believ es</w>
a like</w>
la men
ne h</w>
G ad
sa h</w>
Lazar us</w>
beg ged</w>
know eth</w>
war ning</w>
craf t
ki lling</w>
fo ld</w>
c li
s li
t op
wan der</w>
ta ined</w>
whi ther</w>
vi sit
Si las</w>
ve ly</w>
Ger shon</w>
believ ing</w>
do c
bri de
stor e</w>
ro pes</w>
co ld</w>
i ed</w>
A ga
provi ded</w>
sp ot</w>
t all</w>
Cur sed</w>
indig nation</w>
E x
respon ded</w>
Pro ph
deser ve</w>
Jo el</w>
th u
relati ve</w>
acc use</w>
la tter</w>
pay ment</w>
Him self</w>
Ser aiah</w>
def end</w>
Lo ve</w>
man if
ta x
first- born</w>
do gs</w>
habi tation</w>
minist ry</w>
thi gh</w>
st ance</w>
bla meless</w>
z y</w>
foo t
ki ss</w>
ki ssed</w>
da iah</w>
di a</w>
H aga
f resh</w>
G es
s or</w>
o ked</w>
dis ma
survi v
so il</w>
see m</w>
synago gues</w>
disea ses</w>
lea ther</w>
Bro thers</w>
ow ned</w>
Mes ha
char ged</w>
murder er</w>
con tribu
al ty</w>
re comp
pi er
bring eth</w>
Sta y</w>
trav el</w>
f ly</w>
Pa y</w>
P hin
No thing</w>
bo ards</w>
Hada de
burnt- offering</w>
b ows</w>
ab road</w>
oppres sion</w>
hea then</w>
botto m</w>
banqu et</w>
twi ce</w>
F i
yri an</w>
sl an
Nah or</w>
si ckness</w>
res ult</w>
o me</w>
Ac cording</w>
u tter</w>
al oud</w>
Ha g
n ear
Asa hel</w>
descen ded</w>
ol dest</w>
ta ls</w>
exam ine</w>
tu ra
ki lls</w>
cedar s</w>
disma yed</w>
re con
a wake</w>
Lea ve</w>
sh el
dis cer
s ends</w>
le l</w>
gen ealo
ti tu
op he
Ge ha
ki dne
as leep</w>
den y</w>
She m</w>
de mon</w>
st ant</w>
th rea
recor ds</w>
ing ed</w>
S et</w>
Peri zz
publi c</w>
kidne ys</w>
sur round</w>
fe ction</w>
su re
por ch</w>
w ound</w>
cor n</w>
e di
dwe ll
con du
ri on</w>
n er
be lly</w>
sk ins</w>
Beer sheba</w>
Zi ba</w>
pla y</w>
youn gest</w>
Ahi kam</w>
announ ce</w>
ma ch</w>
lo h</w>
l en</w>
w earing</w>
di sh</w>
tt ering</w>
an while</w>
s sing</w>
fa ir
apost le</w>
execu ted</w>
P ere
past ures</w>
b earing</w>
T a
li ken
she w</w>
nee ded</w>
K ar
e has</w>
abund ant</w>
Ha sha
S how</w>
Ash erah</w>
p sal
ex hor
blo s
Je hi
Hadade zer</w>
conf ess</w>
do ings</w>
wal ks</w>
gri ty</w>
appro ach</w>
fa cing</w>
memor ial</w>
bro ad</w>
n i</w>
char ges</w>
sca les</w>
con tempt</w>
r y
al most</w>
Ath ali
Geha zi</w>
spa ce</w>
liken ess</w>
sho ot</w>
qu en
ga i</w>
C arm
A mon</w>
ri ses</w>
fra mes</w>
b and</w>
p her</w>
rema ining</w>
ho le</w>
fu ri
ra ble</w>
aban don</w>
glori fy</w>
gather ing</w>
n ights</w>
b an</w>
fini sh</w>
Sar ai</w>
shoul ders</w>
ca kes</w>
u chs</w>
obje cts</w>
see ms</w>
An y</w>
Ma k
in quire</w>
vi o
Babyloni a</w>
je we
vo ices</w>
con ver
P o
stri fe</w>
inte grity</w>
regula tions</w>
har lot</w>
Amor ite</w>
fe lt</w>
obje ct</w>
She lah</w>
tra ined</w>
er t</w>
plea ses</w>
I z
1 0</w>
bo a
Nethan iah</w>
qu ake</w>
Phin ehas</w>
ne ts</w>
po tter</w>
sur pri
high er</w>
Moab ites</w>
tres pass</w>
wi pe</w>
th ward</w>
mar ch</w>
father -in-law</w>
ma tters</w>
st art</w>
langu ages</w>
practi ces</w>
pla gues</w>
b it</w>
What ever</w>
m ite</w>
A be
W rite</w>
a dan</w>
ar ing</w>
Na dab</w>
re ven
reali ze</w>
won der</w>
eun uchs</w>
G re
pro ver
Caes area</w>
peri shed</w>
ha n</w>
gate way</w>
w on</w>
jewe ls</w>
en camped</w>
for ni
dist ant</w>
Sen na
bride groom</w>
in f
pos sible</w>
Lib nah</w>
hear kened</w>
wa i
recon ci
cup s</w>
r en</w>
Me anwhile</w>
pe ti
na tura
hi ding</w>
4 0</w>
as hi
per man
Canaan ite</w>
Carm el</w>
ski es</w>
ex per
na ture</w>
ren der</w>
l ev
ti ah</w>
our ing</w>
e b</w>
Reub en
Mi ca
profan e</w>
S ou
bra g</w>
ro a
t ea
l lion</w>
sanda ls</w>
ther -in-law</w>
practi ce</w>
ag ree</w>
B oth</w>
par ti
F in
s cep
puri fy</w>
pro per</w>
ordin ance</w>
ti oned</w>
b ind</w>
z abad</w>
r ors</w>
bapti sm</w>
j ar</w>
Athali ah</w>
b ene
ni gh</w>
preser ve</w>
be low</w>
where with</w>
lea n</w>
cu l
stir red</w>
op en
d ying</w>
astoni shed</w>
wa ter
k in</w>
ch eth</w>
C all</w>
u pro
5 00</w>
list ening</w>
rememb rance</w>
rep ly</w>
Christi an</w>
perpe tual</w>
sh ook</w>
equ al</w>
c tly</w>
dece itful</w>
ma li
sa iled</w>
pre cep
elev enth</w>
wi ll
ba i</w>
decre es</w>
Mes he
t ti
Ab out</w>
la ke</w>
pomegran ates</w>
ashi b</w>
d ged</w>
M achi
sha ve</w>
aro ma</w>
mp tion</w>
precep ts</w>
pha z</w>
Israel is</w>
provo ke</w>
answ ering</w>
the s</w>
fur ther</w>
stan d
hundre ds</w>
Mep hi
ne cess
see med</w>
lou dly</w>
S an
A ch
cheri b</w>
Senna cherib</w>
1 2
Eli akim</w>
fa mous</w>
dilig ently</w>
Ma jesty</w>
An g
rejoi cing</w>
ch ang
st up
ba the</w>
over whel
Pere z</w>
six teen</w>
law ful</w>
disapp ear</w>
distri bu
bur ns</w>
measur ing</w>
cap ture</w>
ba g</w>
ques tions</w>
bon d
sto len</w>
el even</w>
Mica iah</w>
O ut</w>
c end</w>
be lt</w>
ri d</w>
wra pped</w>
accomp lished</w>
ta ste</w>
pl ot</w>
vo l
pe cially</w>
e qui
fal sely</w>
ea st
car ca
the irs</w>
bes e
keep er</w>
f light</w>
es pecially</w>
st ered</w>
up set</w>
tw ard</w>
ch ers</w>
con founded</w>
pro fi
ca tions</w>
cti ve</w>
Haga r</w>
rebe llion</w>
horri ble</w>
fer tile</w>
vali ant</w>
whir l
s mi
smit ten</w>
sel f-
continu es</w>
p ru
mis sion</w>
over take</w>
sha me
Ha pp
f loo
res er
H am</w>
gran ted</w>
er ror</w>
faith fully</w>
cy mb
confu sion</w>
sha </w>
announ ced</w>
Mal chi
recogni ze</w>
bo l
Ba a
la bor
Eli ashib</w>
ac knowledge</w>
en a
know est</w>
disp u
swa llow</w>
ac tions</w>
A ro
exi les</w>
Uzz iel</w>
suc cess
re ve
F es
Mephi bosheth</w>
W as</w>
Th rough</w>
ex plain</w>
bar ren</w>
O holi
Ar tax
Fin ally</w>
deci sion</w>
Fes tus</w>
recei ves</w>
pi cked</w>
man na</w>
reali zed</w>
Wi sdom</w>
Gree ks</w>
pasture lands</w>
R amah</w>
sear ched</w>
drag on</w>
' Thus</w>
S usa
inter est</w>
cea sed</w>
sh en</w>
ad v
Nebu zar
merci es</w>
s k</w>
Artax erxes</w>
Shi loh</w>
half- tribe</w>
twenty- five</w>
you —
tow ards</w>
pp ing</w>
subje ct</w>
measur es</w>
a wes
fin est</w>
A m</w>
Micha el</w>
bac ks</w>
Je ph
t read</w>
fi g
b ly</w>
S te
see ds</w>
as si
v ani
sou thern</w>
fo l
d ges</w>
ex c
fier y</w>
He man</w>
S top</w>
pronoun ce</w>
li us</w>
Hiv ites</w>
win ter</w>
h anged</w>
ten ance</w>
wa st</w>
Ma ha
hu mili
thi ther</w>
Neb at</w>
r h</w>
ma i</w>
wo ven</w>
da ge</w>
tou ching</w>
ha thites</w>
ster y</w>
dow n
Matt aniah</w>
th oth</w>
les s
an oint</w>
O bed</w>
imp u
s low</w>
compani ons</w>
destro ys</w>
seven ty-
Re jo
oun ding</w>
memor y</w>
coun sel
be ha
G ather</w>
win dow</w>
loving- kindness</w>
j ac
or da
cont r
F a
discipl ine</w>
t less</w>
di se</w>
en ai</w>
sprink led</w>
Ana thoth</w>
sub stance</w>
un covered</w>
gro ws</w>
awes ome</w>
Eli ab</w>
ea d</w>
Tob iah</w>
in j
pa ir</w>
b un
b bed</w>
su per
val s</w>
chil d
tri p</w>
me lt</w>
Ri se</w>
sto mach</w>
vi our</w>
H on
stand ard</w>
Ass yrians</w>
devo ted</w>
cla imed</w>
tri ump
Rab bah</w>
R im
si on
colle c
pu l
di m</w>
st ir</w>
over laid</w>
car ved</w>
Fir st</w>
tra ps</w>
statu e</w>
bo il</w>
Machi r</w>
disgra ced</w>
satis fy</w>
fl owers</w>
A bel</w>
fi es</w>
v il</w>
H ur</w>
Wh enever</w>
s co
cl early</w>
g na
th rust</w>
Ki sh</w>
b in
furi ous</w>
myr rh</w>
C ush</w>
b ent</w>
Reuben ites</w>
daughter -in-law</w>
temp ted</w>
qui e
y e
cymb als</w>
k ites</w>
en d
han g</w>
kn o
Rejo ice</w>
Jeph un
oc cup
Ze ph
encoura ged</w>
sta r</w>
free dom</w>
work er</w>
L or
F esti
Teach ings</w>
we dding</w>
testimon ies</w>
say ings</w>
ran ean</w>
dra ch</w>
Am ram</w>
persecu te</w>
wa g
in va
fl ower</w>
Nebuzar adan</w>
ea stern</w>
bese ech</w>
O pen</w>
si der</w>
Un to</w>
lo ss</w>
o th
Gre et</w>
ad or
hur ry</w>
mo ther-in-law</w>
abi lity</w>
deli gh
ani as</w>
contr ary</w>
Th ine</w>
er ranean</w>
dit erranean</w>
Me diterranean</w>
ron i
doc tr
exal t</w>
pi le</w>
mili tary</w>
Who m</w>
sla very</w>
fro gs</w>
surviv ors</w>
an te
m ri</w>
or na
M eri
n ings</w>
Her mon</w>
e ing</w>
hu ge</w>
st al
whirl wind</w>
sha de</w>
Susa </w>
ad van
ri de</w>
strongh old</w>
Go shen</w>
hard ened</w>
E ber</w>
s us</w>
la ment</w>
es —
ta il</w>
hea lth</w>
min adab</w>
en tering</w>
testi fied</w>
phy si
W ould</w>
continu al</w>
tra l</w>
foolish ness</w>
er y</w>
la ted</w>
imp o
tramp led</w>
ev es</w>
fi xed</w>
bra ve</w>
es ses</w>
ow eth</w>
author i
east ward</w>
Ste ph
Mesha ch</w>
c ows</w>
it us</w>
T itus</w>
ri tes</w>
b i</w>
amb ush</w>
coun tenance</w>
Haz or</w>
on -
suc ceeded</w>
f ran
clo a
soldi er</w>
stri pped</w>
O thers</w>
bo som</w>
Sha drach</w>
cho o
Amasa </w>
v ere</w>
se vere</w>
accomp ani
b ab</w>
li veth</w>
v ari
plea d</w>
Ara bah</w>
ob lation</w>
hi t</w>
sin -offering</w>
W at
fa ult</w>
fore head</w>
Af ter
Re ma
Perizz ites</w>
ke ts</w>
Jo i
puri fied</w>
Mar tha</w>
re de
co ast</w>
ma az</w>
bitter ness</w>
Ahi maaz</w>
Jephun neh</w>
li t</w>
Eli ezer</w>
ou se</w>
d g
se tting</w>
s own</w>
Maa cah</w>
a y</w>
worshi pped</w>
Elisha ma</w>
la tions</w>
a wa
villa ge</w>
P ray</w>
Co venant</w>
O therwise</w>
Eli phaz</w>
fo es</w>
natura l</w>
fif teenth</w>
watch man</w>
scrip ture</w>
is land</w>
Obe d-
Ga za</w>
weigh ing</w>
Hasha biah</w>
s ses</w>
di cation</w>
re ver
or ph
do eth</w>
B ani</w>
T im
tur neth</w>
Baal -
G race</w>
po ts</w>
on ite</w>
cal ves</w>
rede mption</w>
ath ar</w>
offi ce</w>
ea si
persecu ted</w>
fa sting</w>
as cen
ro aring</w>
dev i
to -
my stery</w>
ma ge</w>
betra y</w>
prai sing</w>
produ ces</w>
un able</w>
f ear
Mi ri
pollu ted</w>
clo the</w>
y be</w>
opp a</w>
J oppa</w>
rep are</w>
P repare</w>
Miri am</w>
in ches</w>
ter n</w>
Ro ck</w>
fa ced</w>
y ar
nor thern</w>
ch ri</w>
ev </w>
righ ts</w>
cor p
frigh tened</w>
W ith
gro an</w>
di spo
deliver ance</w>
' Let</w>
ff er</w>
brea ks</w>
fla mes</w>
hu d</w>
un godly</w>
pit ched</w>
foll ows</w>
i ans</w>
Pri ests</w>
res ting</w>
co st</w>
Happ y</w>
D eli
rob b
v el
y —
b one</w>
treasur y</w>
J ah
N er
Al though</w>
mo ving</w>
appro val</w>
me ant</w>
ga ll
n ose</w>
brigh tness</w>
sh r
Han an</w>
di ffi
Gad ites</w>
1 00</w>
issu e</w>
b ears</w>
E do
custo m</w>
ma ker</w>
bl ows</w>
rebe l</w>
Ro man</w>
orph ans</w>
he ights</w>
fif teen</w>
shu r</w>
ta tions</w>
Sou th</w>
Jehi el</w>
in ted</w>
S hea
f lies</w>
tru st
sprea ding</w>
gent le</w>
ur y</w>
S ad
mi gh
ob served</w>
du ties</w>
wo e</w>
fl ouri
pas sover</w>
re leased</w>
Adon ay</w>
hel per</w>
en vy</w>
Am minadab</w>
dir t</w>
Festi val</w>
Repha im</w>
wee k</w>
human s</w>
ga ined</w>
af fir
Abi athar</w>
ti dings</w>
th in</w>
san g</w>
statu es</w>
T each</w>
re quire</w>
Ma g
excee ding</w>
doctr ine</w>
Ja a
A po
besi e
ca pi
judg ing</w>
spi es</w>
li ber
a sta
Ca per
Te ko
tru sts</w>
cen tu
Ben -
refu ses</w>
na um</w>
hypocri tes</w>
ti e</w>
fa iled</w>
C er
z in</w>
griev ed</w>
consecra te</w>
ti c</w>
im ing</w>
pri va
m ing
E k
Sab baths</w>
fran kin
d ung</w>
Ha dad</w>
sa ving</w>
du ce
Ne g
sor t</w>
ances tral</w>
comman ding</w>
Bel a</w>
accompani ed</w>
S even</w>
wa lled</w>
virg ins</w>
sh owing</w>
Go g</w>
st oned</w>
affli ct</w>
por tions</w>
cau sing</w>
house holds</w>
ga h</w>
po ver
sa dness</w>
fif ty-
roni cles</w>
be th</w>
preva il</w>
en courage</w>
prophes ying</w>
advan tage</w>
Pro phe
dishon or</w>
wes tern</w>
en ding</w>
cri me</w>
lor ds</w>
mour ned</w>
Ba pti
th un</w>
frankin cense</w>
secu rity</w>
dwe lls</w>
fa me</w>
s ounded</w>
shou ts</w>
bu ri
ch an
li ghts</w>
bo ard</w>
perver se</w>
pla yed</w>
bu sh</w>
happ iness</w>
miser y</w>
A mariah</w>
rep u
dis charge</w>
se pul
se eth</w>
tra va
le miah</w>
rob bed</w>
Amale k</w>
rebu ked</w>
dev asta
evil doers</w>
ea rim</w>
B i
thr ones</w>
inhabit ant</w>
Who se</w>
A le
pover ty</w>
journe yed</w>
so ci
hi n</w>
E vil</w>
earth quake</w>
ca m
tres ses</w>
den ied</w>
su ries</w>
i ghty</w>
Jo k
cu tting</w>
buil ders</w>
Hel p</w>
ven ess</w>
An other</w>
B read</w>
Pe kah</w>
gar dens</w>
d d
sei ze</w>
d read</w>
Rim mon</w>
wi thered</w>
or able</w>
Su ch</w>
D eath</w>
Ethiop ia</w>
oa k</w>
rep ent
rema in
Li ft</w>
trea suries</w>
Caper naum</w>
pl ess</w>
Eph ron</w>
arm or</w>
shel ter</w>
ro ll</w>
gra ven</w>
se ver
bloo d
so li
in cl
upri gh
p an
mor tal</w>
sl op
sur face</w>
Neg ev</w>
on ites</w>
festi vals</w>
duce es</w>
se le
Na ha
sle eping</w>
l er</w>
Ga la
la bour</w>
fal se
Li kewise</w>
wat ered</w>
necess ary</w>
wel come</w>
l end</w>
Ek ron</w>
provo ked</w>
Re cha
Hu shai</w>
nu mbers</w>
reve lation</w>
wi ther</w>
condu ct</w>
repa irs</w>
Je du
fing ers</w>
win e
w ars</w>
comp are</w>
E ar
swe e
sor cer
immor ality</w>
concub ines</w>
s che
for gi
tri al</w>
pl un
locu st</w>
bl in
inno m</w>
recomp ense</w>
mini sters</w>
th inks</w>
stor e
bon dage</w>
M il
er or</w>
wor ry</w>
mo thers</w>
mes h</w>
Aro er</w>
stor ed</w>
f arm
profan ed</w>
warri or</w>
gri pp
A gripp
la iah</w>
ha </w>
a sh
d od</w>
Ash dod</w>
Agripp a</w>
insu lt</w>
hor ror</w>
R aha
noti ce</w>
per son
happ ening</w>
see ks</w>
respe cted</w>
announ ces</w>
re war
re vo
eri ly</w>
V erily</w>
me ch</w>
for tresses</w>
li ver</w>
Raha b</w>
Amo z</w>
Some one</w>
Am ong</w>
secre tary</w>
per haps</w>
eigh teen</w>
mi les</w>
sa il</w>
door way</w>
Sad ducees</w>
lu m
lamen tation</w>
me tal</w>
s ounds</w>
ob ah</w>
supp er</w>
e —
sp ired</w>
preva iled</w>
suc cess</w>
A h</w>
obe ying</w>
des i
stri p</w>
wo l
wa sted</w>
sh ea</w>
H al
ing- place</w>
s lu
Phari see</w>
Be tter</w>
' My</w>
guar ante
stu mbling</w>
bo o
scep ter</w>
Eli za
e dom</w>
un cover</w>
wai st</w>
hang ing</w>
pres sed</w>
evil -
Ang el</w>
s ir</w>
magi cians</w>
dea f</w>
Ho shea</w>
a i
gu n</w>
be gun</w>
hat red</w>
b id</w>
gro wing</w>
y eth</w>
O r
Mi cah</w>
Hebre ws</w>
hel ps</w>
pi ge
F east</w>
I ddo</w>
T erah</w>
es cor
perman ent</w>
god liness</w>
ran som</w>
ri ding</w>
a el</w>
pi ck</w>
ca ted</w>
revea l</w>
repa ir</w>
forni cation</w>
E ze
cro oked</w>
m ly</w>
god less</w>
Jedu thun</w>
enti rely</w>
sh ea
ful fi
belong ing</w>
An anias</w>
la r</w>
Z ac
con cea
fin ally</w>
Gree k</w>
ow ls</w>
bear d</w>
P sal
Neb o</w>
vi cti
Hor eb</w>
hun g</w>
first fruits</w>
wi ped</w>
ro i
nur se</w>
c o</w>
Prophe ts</w>
me ly</w>
' Why</w>
prote ction</w>
fl ying</w>
Cer tainly</w>
th un
bur st</w>
i shed</w>
stan tly</w>
false hood</w>
tre mbled</w>
We ll</w>
A du
Mah li</w>
wo ke</w>
ahi ah</w>
enti eth</w>
corrup tion</w>
buri al</w>
dr on</w>
con so
sent ence</w>
i ll</w>
hea lthy</w>
emb roi
so vereign</w>
he -
mi el</w>
Ne he
multitu des</w>
ban k</w>
Jebus ite</w>
co lum
K now</w>
Ham or</w>
stup id</w>
Ja ha
tw entieth</w>
six ty-
si mple</w>
Fo llow</w>
- offerings</w>
kin dred</w>
li st</w>
bur dens</w>
C y
s man</w>
gro w
res t
of s</w>
con tain
do g</w>
ti ves</w>
forgi veness</w>
a ware</w>
Sa muel</w>
Abi hu</w>
excell ent</w>
wa shing</w>
peri od</w>
dr ess</w>
la th</w>
survi ve</w>
Wat ch</w>
bro ok</w>
merch an
ev ents</w>
fra me</w>
tra mple</w>
en gra
ming led</w>
r in
ar ra
smo oth</w>
hel pless</w>
men tion</w>
list ens</w>
bitter ly</w>
Ger shon
swe pt</w>
gra s
deman ded</w>
mi m</w>
dishon est</w>
lo veth</w>
ma in
supp o
en e</w>
ar gue</w>
le g</w>
abund antly</w>
swi ft</w>
Han un</w>
ima g
h or</w>
concer ned</w>
Eno ch</w>
deci sions</w>
success ful</w>
dist res
dire cted</w>
reven ge</w>
bas kets</w>
vor y</w>
repent ance</w>
fra g
f un
El k
d anc
se ction</w>
gu ests</w>
war m</w>
divor ce</w>
mb les</w>
ha ugh
Su ddenly</w>
y x</w>
cloa k</w>
con fir
har ves
twi sted</w>
mar ked</w>
Pa sh
Kar eah</w>
beli ever</w>
bas in</w>
Proph et</w>
R igh
H innom</w>
respon si
thi eves</w>
Gi bea
b as</w>
pres en
ba oth</w>
si ck
li eth</w>
e ighty</w>
Ara bi
Z il
ski ll
ho me
wan dering</w>
res h
la zy</w>
wor n</w>
de er</w>
su ffi
valu able</w>
ta lly</w>
Ne top
to mbs</w>
lo ad</w>
- old</w>
sta ying</w>
orda ined</w>
abo de</w>
pro ved</w>
mo cked</w>
Pash hur</w>
comm it
com par
Te man</w>
Mi ghty</w>
ri pe</w>
Edo mites</w>
Bo z
di g</w>
Je thr
Me des</w>
Z ab
merchan dise</w>
' He</w>
com mits</w>
Jethr o</w>
O badiah</w>
Ja zer</w>
app ea
poi son</w>
ser ves</w>
griev ous</w>
La mech</w>
ti </w>
m itted</w>
th ah</w>
Ne w</w>
wee ks</w>
u l</w>
Je iel</w>
O lives</w>
h en
H or</w>
e peth</w>
t ments</w>
coun tr
e w</w>
cha sing</w>
ri el</w>
as soci
trav eling</w>
after wards</w>
N im
fee ble</w>
v an</w>
Elk anah</w>
mu d</w>
' Who</w>
oc ca
ve ls</w>
ti thes</w>
wee ds</w>
phe th</w>
hi te</w>
cha ff</w>
' And</w>
Ammon ite</w>
z eal</w>
Per haps</w>
Deli ver</w>
deep ly</w>
E ast</w>
all at</w>
cu lt</w>
affir mation</w>
breast plate</w>
re cord</w>
b lah</w>
sha king</w>
disp er
ac cor
suppli cation</w>
visit ed</w>
tho od</w>
al mon
d y
to oth</w>
zi el</w>
corre ct</w>
D ead</w>
Ja pheth</w>
betra yed</w>
Steph en</w>
twenty- four</w>
She pha
robb ers</w>
accu sed</w>
n ity</w>
Jona dab</w>
di vine</w>
l -
C ry</w>
celebra ted</w>
Righ te
wh ence</w>
Hag gai</w>
Th o
cher ub</w>
rou s</w>
stri kes</w>
in ten
app ears</w>
obe dience</w>
She lo
co ast
surpri sed</w>
cra w
Nah shon</w>
7 5</w>
T ir
insu lts</w>
shame ful</w>
ef fect</w>
l ings</w>
grand children</w>
dr inks</w>
cri mes</w>
ru ling</w>
hear ted</w>
Lev i
z il
sp er</w>
Bar zil
Rema liah</w>
Ke dar</w>
ali en</w>
ga r</w>
bas ed</w>
responsi bi
c ow</w>
An ah</w>
no ble</w>
pr us</w>
citiz ens</w>
un t</w>
T al
ar rested</w>
sh ot</w>
advers ary</w>
en ters</w>
Con sider</w>
wat ches</w>
li ars</w>
ur ed</w>
centu rion</w>
Cy prus</w>
hi ther</w>
ro ds</w>
ver ily</w>
er ings</w>
C ushi
ll ness</w>
f r
lti el</w>
year -old</w>
ta xes</w>
les ti
whe el</w>
Z el
pow ers</w>
z ah</w>
An n
1 ,
Abe dne
there on</w>
fa te</w>
Des ert</w>
da k</w>
' It</w>
sp lit</w>
tta i</w>
wel com
welcom ed</w>
fast ened</w>
st le</w>
fe cts</w>
wa il</w>
ro w
Ass yrian</w>
r ene
De dan</w>
g y</w>
De b
sk ir
abomin able</w>
ne lius</w>
Cor nelius</w>
ra w</w>
def ense</w>
dep end</w>
a th-
Eph ra
pres ents</w>
d dai</w>
scor n</w>
procla ims</w>
ci stern</w>
oin tment</w>
des t
pru dent</w>
Tho mas</w>
y ers</w>
mur mur
le k</w>
prover b</w>
hi </w>
Ge ba</w>
man kind</w>
choo ses</w>
besie ged</w>
Deb ir</w>
prin ci
co p
persua ded</w>
pries thood</w>
Ko hathites</w>
dri ving</w>
de mon
un ah</w>
de fect</w>
un cle</w>
an x
Shea ltiel</w>
opp ose</w>
produ ced</w>
dis covered</w>
cal m</w>
B ere
She b
countr y
C an
P al
f ears</w>
be held</w>
Bapti st</w>
th ful</w>
ne cks</w>
D ear</w>
lu st</w>
to il</w>
J ar
assemb le</w>
tur ban</w>
for es
rewar ded</w>
in th</w>
un just</w>
lo ver</w>
Je daiah</w>
ba gs</w>
ex pen
lli g
gra bbed</w>
za dak</w>
cen ter</w>
op por
ba ked</w>
declar ation</w>
tt les</w>
en trusted</w>
Midi an
Jo ah</w>
sa ck</w>
rea ding</w>
any where</w>
mo ves</w>
no te</w>
1 ,000</w>
u ses</w>
tu mu
high way</w>
cal leth</w>
Barzil lai</w>
fi lthy</w>
ke h</w>
dwe lleth</w>
Ram oth</w>
Apo llo
Shepha tiah</w>
wa ste
bl own</w>
blo ck</w>
yar n</w>
an ti
Bil hah</w>
bab ies</w>
Re dee
Abedne go</w>
sab baths</w>
co l
dro p</w>
guarante e</w>
ing —
secre ts</w>
Apollo s</w>
dis cu
Pe or</w>
E lah</w>
es ted</w>
sp ared</w>
bene fit</w>
issu ed</w>
we th</w>
ma j
will ingly</w>
differ ence</w>
p le
ex pla
vari ous</w>
supp ly</w>
tea ches</w>
gir ls</w>
en ga
p ear
drea med</w>
dea dly</w>
Ri blah</w>
ti the</w>
' When</w>
sa pp
G ir
hea reth</w>
ex tended</w>
bla me</w>
gre et</w>
wag ons</w>
Mah ana
sna kes</w>
op ens</w>
manif est</w>
Ara mean</w>
wicke dly</w>
p op
jac k
ignor ant</w>
vin e
sh or
oppor t
vi le</w>
Ro me</w>
Uzz i</w>
migh ti
la sts</w>
wrong doing</w>
sa v
ur ged</w>
ir e</w>
hi story</w>
magi c</w>
fla ming</w>
bl owing</w>
oun ce</w>
cur ed</w>
K ir
prostitu tes</w>
la ying</w>
tra de</w>
ama zing</w>
destro yer</w>
ci es</w>
over throw</w>
inter course</w>
After ward</w>
Beer -
ear li
de cor
cau seth</w>
arti cles</w>
pre di
Gibea h</w>
s est</w>
cea n</w>
sub du
ba dly</w>
g ru
cop y</w>
d ough</w>
drun k
plan ning</w>
ing u
laugh ter</w>
lo f
transgres sed</w>
clo sely</w>
Be za
T er
Ju bilee</w>
o cean</w>
L ong</w>
Hon or</w>
cri bed</w>
conqu ered</w>
fi sh
stor ies</w>
hea ded</w>
Babyloni an</w>
B less</w>
O D</w>
N or
el der</w>
mo ck</w>
bullo cks</w>
Co m
Re zin</w>
sa ges</w>
dire ctions</w>
sig net</w>
sha ttered</w>
de dication</w>
Hu man</w>
B in
ar es</w>
Aga inst</w>
C rea
S ep
H as
dis coura
Da ugh
cur sing</w>
je wel
craft smen</w>
bo x</w>
atta cking</w>
bri be</w>
Christi ans</w>
fair ly</w>
G host</w>
sprea ds</w>
p lo
ra ging</w>
ba ld</w>
po ses</w>
G OD</w>
publi c
plu ck</w>
waste land</w>
ti mber</w>
E at</w>
U se</w>
Ma ker</w>
Ma ybe</w>
triump h</w>
S har
me lted</w>
Obe y</w>
lo ops</w>
dispo ss
authori ties</w>
inte llig
M ark</w>
contro lled</w>
woo den</w>
free will</w>
ear nes
Ger ar</w>
pro of</w>
swe ep</w>
s cre
Mahana im</w>
ac ting</w>
ri der</w>
P ad
confid ent</w>
pp led</w>
fe cted</w>
2 ,
wor m</w>
hea ps</w>
di p</w>
rea son
' Come</w>
Mi sha
b allat</w>
San ballat</w>
Da than</w>
gro aning</w>
C i
d lesti
ther more</w>
treacher ous</w>
disobe dient</w>
bear er</w>
' Look</w>
Re uel</w>
op ini
dist ur
tes ha
Bel tesha
E r</w>
Iz har</w>
ha mm
i vory</w>
er o
reck oned</w>
rep ented</w>
E zer</w>
crea tion</w>
v ul
watch men</w>
high ly</w>
Kiri ath</w>
sto ol</w>
ro b</w>
ga thers</w>
b ite</w>
near by</w>
ar rest</w>
te e
m ere</w>
camp s</w>
un punished</w>
sta in</w>
me —
½ </w>
farm ers</w>
2 4
murder ers</w>
pa ins</w>
d are</w>
Nethan el</w>
pronoun ced</w>
le —
roa ds</w>
co ve
d ful</w>
o ven</w>
cul ous</w>
stra tion</w>
Di bon</w>
accor dance</w>
G lor
wan dered</w>
th read</w>
Un leavened</w>
6 0</w>
bo ys</w>
mi strea
D r
ab hor
tro dden</w>
boa sting</w>
le -
con vin
prostitu tion</w>
dwell ings</w>
Ni co
V ash
tar oth</w>
t ched</w>
jack als</w>
over flow</w>
opport unity</w>
spi ra
lear ning</w>
be d
z ur</w>
bea m</w>
hang ings</w>
Sh out</w>
ea sy</w>
E l</w>
res tra
Teko a</w>
we lls</w>
wes tward</w>
f earing</w>
Ara unah</w>
aven ger</w>
on yx</w>
divin ation</w>
w inged</w>
run s</w>
kn i
Be or</w>
Ger sho
d ants</w>
a sa
ex change</w>
rebe ls</w>
shoul dest</w>
Zel ophe
f are</w>
he ir</w>
lea ven</w>
be ds</w>
Z in</w>
M am
distri ct</w>
eli x</w>
allo tted</w>
F elix</w>
experi ence</w>
Vash ti</w>
Si b
Zelophe had</w>
v el</w>
rea ches</w>
ju bilee</w>
cro p</w>
lo y
acc usa
jewel ry</w>
Ar t</w>
r es</w>
custo ms</w>
profi table</w>
thir teenth</w>
do er</w>
sojour ner</w>
frag rance</w>
Un til</w>
Amo s</w>
i an</w>
ordin ary</w>
Beltesha zzar</w>
z es</w>
drag ged</w>
S tr
Z u
clean sing</w>
f reed</w>
ev id
bon ds</w>
ido la
C ong
pige ons</w>
hel ping</w>
ab les</w>
ge ous</w>
Kiri ath-
flouri sh</w>
Recha b</w>
in ah</w>
st ep</w>
Jo zabad</w>
conqu er</w>
noti ced</w>
fl ows</w>
re gation</w>
capi tal</w>
mi r
fi lls</w>
Per si
tribu lation</w>
N er</w>
Ber iah</w>
thir teen</w>
c s</w>
ca te</w>
argu ments</w>
e ks</w>
colle cted</w>
ho les</w>
n ouri
ad es</w>
t a</w>
Cong regation</w>
cre eping</w>
T ro
cor rection</w>
ref resh
mira culous</w>
ent ry</w>
pre vi
mar ries</w>
en jo
deep er</w>
ter rors</w>
cre d
secu rely</w>
fa shi
bol dly</w>
lov ing
L est</w>
car es</w>
quar ts</w>
vo mit</w>
endur ance</w>
F ur
gir ded</w>
genealo gi
man a
de lay</w>
der i
ss op</w>
com pe
M ushi
discoura ged</w>
mol ten</w>
Rab bi</w>
who m
re cover</w>
lo th</w>
bapti ze</w>
Abi ram</w>
viol ently</w>
doub t</w>
li mit</w>
con spired</w>
regar ding</w>
deli ghts</w>
respon d</w>
Ju dge</w>
ar r
asa ph</w>
Su c
A las</w>
hy ssop</w>
ll est</w>
ja il</w>
plu cked</w>
gree dy</w>
liber ty</w>
ea teth</w>
h ere
jo b</w>
wa iling</w>
no stri
bas ins</w>
off ers</w>
recogni zed</w>
min ded</w>
en du
equi p
' They</w>
tru sting</w>
la d</w>
stru ction</w>
ton ight</w>
terri fy</w>
strongh ol
lif ting</w>
ma ter
dire ct</w>
mi th</w>
s cour
e g
Ki dron</w>
in si
Zo ar</w>
v ex
laugh ed</w>
Ge zer</w>
Gersho m</w>
for t</w>
tu b</w>
stan deth</w>
cro ss
hun t</w>
cont end</w>
Moab ite</w>
st ro
dar kened</w>
tra ded</w>
fav or
tur t
e us</w>
s our
ne g
lar ger</w>
fra grant</w>
wh erefore</w>
nostri ls</w>
foot stool</w>
Wh er
ve ment</w>
Z obah</w>
ma veth</w>
g loo
per ceive</w>
procla iming</w>
th re
in justice</w>
orna ments</w>
fl owed</w>
long ed</w>
par al
blos so
di eth</w>
where of</w>
' Lord</w>
over flowing</w>
equip ment</w>
ha thite</w>
G u
buil ds</w>
plun dered</w>
bow els</w>
7 0</w>
ma d</w>
interpre t</w>
instru ct</w>
un righteousness</w>
cha in</w>
Ja ir</w>
di shes</w>
b ani
le gal</w>
Har im</w>
X erxes</w>
po le</w>
chi ah</w>
rai ment</w>
Ba bel</w>
wor e</w>
answ ers</w>
Ges hur</w>
open ly</w>
escor e</w>
can dlesti
sepul ch
Eli hu</w>
suppo sed</w>
vic tor
Beth uel</w>
earnes tly</w>
bo oks</w>
guar ded</w>
Ca i
diffi cult</w>
Who soever</w>
Mam re</w>
per ceived</w>
stronghol ds</w>
in sight</w>
S it</w>
expe ct</w>
le lu
regar ded</w>
ha irs</w>
co lt</w>
Han ani</w>
' How</w>
' Go</w>
sta irs</w>
ari b</w>
An drew</w>
S anc
Sam ar
sp y</w>
thre escore</w>
ten ths</w>
pha h</w>
p ani
prote cts</w>
ste ward</w>
cri ppled</w>
U p
ascen ded</w>
ap has</w>
mo ck
Zi k
Adon i
ough ly</w>
Mil cah</w>
ti eth</w>
Si x</w>
medi tate</w>
insu lted</w>
hon orable</w>
gui ded</w>
sma shed</w>
al together</w>
Suc co
ha ll</w>
work men</w>
Bar ab
decre ed</w>
par t
def en
for got</w>
As shur</w>
sa lu
se lling</w>
se ers</w>
su l
floo ds</w>
le op
sick le</w>
She lemiah</w>
super vi
thun ders</w>
1 4</w>
swi f
ea ger</w>
g or
re turning</w>
hur ried</w>
reser ved</w>
A pp
Nehe miah</w>
thres hold</w>
T ah
Uzz ah</w>
na tive</w>
fun er
di el</w>
ch ance</w>
Th ink</w>
Amale kites</w>
Lor d—
la b
gir dle</w>
2 00</w>
wine press</w>
en cy</w>
contribu tion</w>
d an
shu b</w>
ro t</w>
G ab
li ba
fr o</w>
thor oughly</w>
bu shes</w>
Li ve</w>
weap on</w>
na ils</w>
he if
Eliza beth</w>
fi re
t ful</w>
lo vely</w>
sla yer</w>
c ken</w>
deb t</w>
A dar</w>
Hea ven
humili ated</w>
compla int</w>
heif er</w>
tw o
me el</w>
sp it</w>
car i
esti c</w>
mis chief</w>
va st</w>
wro th</w>
b last</w>
s si
ar ray</w>
bla zing</w>
pla ying</w>
W o</w>
ob tain</w>
Is cari
mai ds</w>
B ox</w>
er eth</w>
con firm</w>
Philist ine</w>
car ri
collec tors</w>
be coming</w>
rea l</w>
x an
Ale xan
l yre</w>
u ah</w>
phi r</w>
con stantly</w>
fa sted</w>
bir th
Psal m</w>
occa sion</w>
suff erings</w>
crow ns</w>
Zeph aniah</w>
ex tend</w>
mar vel
shr ines</w>
O ffer</w>
minist ered</w>
ha m
fortun es</w>
on to</w>
hea d
pier ced</w>
Cai aphas</w>
opini on</w>
sa cks</w>
Ahi tub</w>
6 00</w>
sp ar
Barab bas</w>
won d
qui ck</w>
du mb</w>
sta te</w>
cen sus</w>
s sible</w>
hop ed</w>
sor es</w>
ra in
regi stered</w>
Chi l
accomp lish</w>
Beza lel</w>
a void</w>
Im mediately</w>
impu rity</w>
poi son
loving kindness</w>
yr es</w>
l yres</w>
Eli el</w>
st on
impo ssible</w>
com plain</w>
sojour n</w>
Im mer</w>
lof ty</w>
W ere</w>
ex posed</w>
D inah</w>
S eth</w>
n on-
kin dly</w>
trust worthy</w>
stub ble</w>
0 0,000</w>
R un</w>
H ouse</w>
gree tings</w>
a than</w>
eigh teenth</w>
eli tes</w>
danc ing</w>
sme lling</w>
be gotten</w>
haugh ty</w>
in quired</w>
it e
life time</w>
obe dient</w>
Or nan</w>
sha ved</w>
ob tained</w>
fir mly</w>
cam el</w>
car ries</w>
stra te</w>
tumu lt</w>
ow ns</w>
d dle</w>
S in</w>
sanc ti
ex tre
do o
sh in
P rin
v owed</w>
loo sed</w>
con spira
stu mbled</w>
' Take</w>
si ze</w>
repu tation</w>
qu esti
o therwise</w>
app eal</w>
Philist ia</w>
adv anc
S </w>
su e</w>
So on</w>
c heat</w>
exper ts</w>
counsel ors</w>
re turns</w>
fur ni
bri cks</w>
tra pped</w>
d un
back ward</w>
u su
endu reth</w>
Succo th</w>
n arrow</w>
' Your</w>
sh one</w>
Ner iah</w>
expla ined</w>
Con cer
thro wing</w>
twenty- two</w>
sh owers</w>
He pher</w>
M ig
oppres sor</w>
treacher ously</w>
co ats</w>
sta tioned</w>
rai </w>
sn ares</w>
Heaven ly</w>
conf es
hu m</w>
ever more</w>
Sheb na</w>
Zi mri</w>
Meri bah</w>
lo ot</w>
mur dered</w>
me e
ab hor</w>
Fur thermore</w>
la in</w>
Hu sha
z im</w>
pa ying</w>
4 00</w>
loa f</w>
cu d</w>
kne lt</w>
— a</w>
pen alty</w>
citiz en</w>
par ched</w>
sever al</w>
v ent</w>
pha </w>
Sal t</w>
Iscari ot</w>
Reho b</w>
1 6</w>
slan der</w>
ex er
li a</w>
Sho bal</w>
bu l
Concer ning</w>
Re move</w>
C re
brea ch</w>
ca ke</w>
Up on</w>
physi cal</w>
& </w>
c tor</w>
ree ds</w>
ru shed</w>
o di
store houses</w>
with drew</w>
sha keh</w>
wea lthy</w>
f ever</w>
com passed</w>
ti cal</w>
R ather</w>
scre en</w>
ar el</w>
vi ew</w>
dem and</w>
coura geous</w>
f owl</w>
maj estic</w>
ar im</w>
cou ch</w>
T se
Crea tor</w>
o th-
for bid</w>
K ad
mid night</w>
To morrow</w>
resi st</w>
ha il
Mag da
mil dew</w>
sen deth</w>
out stretched</w>
pu tteth</w>
cha sti
m mim</w>
dev ise</w>
ri di
, 500</w>
Beth any</w>
Ci li
n ly</w>
sta ves</w>
lo cked</w>
acc ord</w>
crea te</w>
spo tted</w>
m -
al li
co lla
trea ty</w>
doo med</w>
concer n</w>
regi ons</w>
ce forth</w>
s kill</w>
or g
mes sages</w>
Tse baoth</w>
paral y
ob li
ang s</w>
u d</w>
loy alty</w>
t uni
go est</w>
S y
sp ite</w>
kin smen</w>
tti m</w>
ou l
for bi
sear ching</w>
sal oni
Thes saloni
phi a</w>
st eth</w>
sor rows</w>
s of
over thrown</w>
h -
A i
co l</w>
gra p
drun ken</w>
eun uch</w>
ll a</w>
Zi pp
p ouring</w>
su m</w>
atta cks</w>
ta mb
att enti
sti cks</w>
dea n</w>
T u
— that</w>
rea r</w>
trava il</w>
ignor e</w>
Redee mer</w>
hand maid</w>
ex ten
ve ge
ck led</w>
sa tion</w>
W ri
Sa ying</w>
con ta
ser ious</w>
Mak ke
wi ser</w>
s— the</w>
separ ation</w>
len e</w>
al arm</w>
earli er</w>
as cend</w>
lev el</w>
two -
stra tes</w>
sha ped</w>
is lands</w>
t ches</w>
fa iling</w>
Ada iah</w>
i ld</w>
Jero ham</w>
pa tter
Acha n</w>
ex pl
ar chers</w>
shar p
fu gi
Ear ly</w>
R am</w>
coast lands</w>
B ig
ca sts</w>
ab ound</w>
Co mm
funer al</w>
corp ses</w>
sh op
sho es</w>
temp les</w>
subdu ed</w>
Nor th</w>
po st</w>
an o
l ers</w>
Bel sha
fore heads</w>
pl ow</w>
con vo
bo ld</w>
st es</w>
Gershon ites</w>
arrog ance</w>
un ited</w>
Se ek</w>
Mushi </w>
sa yest</w>
pe gs</w>
Dr ink</w>
deligh ted</w>
Jo bab</w>
Go d—
Eli phe
i um</w>
Cili cia</w>
pani c</w>
Nebucha dre
grap ev
Je ush</w>
si mp
gener ous</w>
Glor y</w>
eri es</w>
eag les</w>
Ba anah</w>
genealo gy</w>
temp tation</w>
weigh ts</w>
ar eas</w>
ga z
Ze badiah</w>
public ly</w>
es tee
Daugh ter</w>
twi light</w>
sou thward</w>
redee mer</w>
ex claimed</w>
ra ined</w>
B esi
le per</w>
scor pi
re mind</w>
Z abad</w>
len ess</w>
ridi cu
Jer ah
j ars</w>
M ena
ke epeth</w>
Ha zar
F ri
Ammi hud</w>
i gh</w>
wond rous</w>
Acha ia</w>
Ha ving</w>
mor eover</w>
uprigh tness</w>
in formed</w>
fav our</w>
al on</w>
Me dia</w>
ck et</w>
who lly</w>
Sh ere
Go d-
colle ct</w>
sa il
ow e</w>
a we</w>
tw ined</w>
sea sons</w>
Boz rah</w>
distres sed</w>
experi enced</w>
P our</w>
t —</w>
aven ge</w>
Mena hem</w>
sour ce</w>
compla ined</w>
wi sely</w>
Beer- sheba</w>
a ged</w>
stor ero
ceremon i
in fection</w>
earth ly</w>
blood shed</w>
Me thu
b ble</w>
tor ment</w>
blos som</w>
en camp</w>
n ought</w>
ga d</w>
hamm ered</w>
c hea
Chil dren</w>
blasphe med</w>
Par an</w>
temp est</w>
ca sting</w>
ru shing</w>
Ha st</w>
mp ed</w>
dishon ored</w>
Cor inth</w>
ceremoni ally</w>
O ph
o mer</w>
bes ought</w>
O phir</w>
sto le</w>
p an</w>
confir med</w>
- ha
din ner</w>
prosp ered</w>
marvel ous</w>
carca ss</w>
ze bel</w>
Wo man</w>
ma id
comm uni
won dered</w>
pro mo
Sha ul</w>
li ation</w>
si gh
Z op
re min
in tended</w>
1 8</w>
responsibi lity</w>
Tu bal</w>
corrup ted</w>
Belsha zzar</w>
wan ting</w>
concub ine</w>
be de
Makke dah</w>
ce th</w>
co ins</w>
ri ders</w>
f owls</w>
Je zebel</w>
tamb our
sapp hire</w>
prosper ous</w>
su gg
Meshe ch</w>
te ful</w>
fa ils</w>
st am
or ig
k ins</w>
car ed</w>
Micha l</w>
pi gs</w>
sa m</w>
beha vior</w>
1 1</w>
spe ckled</w>
me an
ignor ance</w>
exer ci
celebra tion</w>
obe ys</w>
tra ders</w>
Me gi
par don</w>
im prison
— to</w>
Jerah meel</w>
advanc ed</w>
b y
fee ding</w>
st us</w>
an nu
g ger</w>
mon y</w>
ha iah</w>
compani on</w>
Obed- Edom</w>
Bu ild</w>
skir ts</w>
cont en
C ut</w>
A wake</w>
embroi dered</w>
neg le
mar ke
C ho
vol un
emp eror</w>
an ed</w>
deli vers</w>
chari ty</w>
T ophe
atta ched</w>
resid ents</w>
ur ge</w>
Ab in
1 5</w>
tri bal</w>
S tre
reli ef</w>
f er</w>
enti on
condem nation</w>
skill ful</w>
it ans</w>
ze bu
ro de</w>
accu r</w>
Z accur</w>
sail ors</w>
off ended</w>
sma sh</w>
Na zi
sub mit</w>
Eg lon</w>
ho sti
eag er
rever ence</w>
overwhel med</w>
inf ants</w>
fu r</w>
ma te</w>
sha k</w>
Misha el</w>
ough s</w>
se lls</w>
ch ronicles</w>
Be li
per mitted</w>
supp lies</w>
th ai</w>
Zi chri</w>
Ken az</w>
wa ge</w>
cri min
spo iled</w>
p ac
lea f</w>
ma kers</w>
le w
nine ty</w>
ll ers</w>
for ms</w>
M ach
resid ent</w>
M u
strai gh
with held</w>
b oughs</w>
less ly</w>
cove t
T hi
du ced</w>
1 3</w>
he th</w>
wi shes</w>
en chan
child less</w>
Ze bede
Po ti
s our</w>
fea sting</w>
bles ses</w>
bea ting</w>
S hun
1 8
quarre l</w>
is gah</w>
P isgah</w>
lo dge</w>
in fli
kin dle</w>
O nan</w>
k ite</w>
Tophe th</w>
sho cked</w>
M yself</w>
blosso ms</w>
H ur
Re hum</w>
El na
he irs</w>
appro ved</w>
la g</w>
sa vior</w>
Je di
under stands</w>
swee t-
mea sure
A kk
sha ddai</w>
dilig ent</w>
inv ite</w>
Mat ti
we igh</w>
S hel
t iness</w>
resi due</w>
ha ters</w>
Ja hath</w>
Shere biah</w>
le ments</w>
in cu
ba al</w>
el le</w>
cl ing</w>
' But</w>
Zebede e</w>
Abin adab</w>
prote cted</w>
s ounding</w>
chang es</w>
U z</w>
E bal</w>
Des tro
pit ch</w>
An sw
erna cles</w>
sul fur</w>
cele ts</w>
bra celets</w>
yi el
V i
Pe leg</w>
to- day</w>
With out</w>
pas seth</w>
pati ently</w>
' A</w>
lu </w>
li lies</w>
Wh e
off en
reconci liation</w>
patter n</w>
disp leased</w>
cro ssing</w>
en thr
O ver</w>
Ish -
f ord</w>
beli ef</w>
tal ent</w>
min ated</w>
pear ls</w>
mira cle</w>
exper t</w>
fin ding</w>
Wa ter</w>
well- being</w>
da m
gras shop
con stant</w>
lar ly</w>
Sh es
sur es</w>
ir ing</w>
mi ll
gaz elle</w>
fal leth</w>
Ke desh</w>
b b
w re
la yed</w>
Comm and</w>
gloo m</w>
cri ti
low ly</w>
th under
er red</w>
Jeho hanan</w>
Cushi te</w>
pres cribed</w>
eli te</w>
cont ent</w>
Gree ce</w>
ge ment</w>
e mer
Mar es
nine ty-
e ty</w>
ma in</w>
li on
ref ined</w>
nu i</w>
ev ils</w>
divor ced</w>
Whe ther</w>
far mer</w>
nor thward</w>
wor ms</w>
stub born
s ite</w>
th iah</w>
conspira cy</w>
Zik lag</w>
wal keth</w>
sweet- smelling</w>
u ttered</w>
sp s</w>
peace -offerings</w>
d ess</w>
flu te</w>
d der</w>
sw arms</w>
I ttai</w>
Megi ddo</w>
sion ate</w>
a ti
str inged</w>
app arel</w>
co lor
Maha la
be fore
buil dings</w>
off ense</w>
ke lon</w>
sh ines</w>
ter ms</w>
e led</w>
A za
co pper</w>
i dle</w>
deser ves</w>
a ting</w>
confu sed</w>
turt le
Hal lelu
Go mer</w>
s ink</w>
' These</w>
cu e</w>
solem nly</w>
mu les</w>
int ention
des pair</w>
Bere chiah</w>
mana ger</w>
enthr oned</w>
ba mah</w>
clea ve</w>
war -
supp or
mor tals</w>
vine gar</w>
ter day</w>
ta sk</w>
sit teth</w>
courty ards</w>
Hallelu jah</w>
Arabi a</w>
bl ot</w>
slop es</w>
ha ri
Ada h</w>
ban ner</w>
sum mon</w>
ti a</w>
preser ved</w>
g ged</w>
criti ci
De cl
sti ff
titu tion</w>
know le
Akk ub</w>
lean ed</w>
cor ner
b other</w>
Res cue</w>
o stri
J earim</w>
Pe daiah</w>
Tir zah</w>
s ites</w>
E dre
victi ms</w>
com pass</w>
qu il
Adu llam</w>
res titution</w>
religi on</w>
ba ker</w>
loa ded</w>
Wor ship</w>
go ssi
consu lt</w>
Na than
in ly</w>
dra g</w>
Matti thiah</w>
Kad miel</w>
des cend</w>
ni el</w>
minist ering</w>
wa x</w>
Wa it</w>
Un der</w>
rejoi ces</w>
bu d</w>
be on</w>
rela ted</w>
li mits</w>
astoni shment</w>
li qu
less ness</w>
n ow
con ne
en rolled</w>
for ts</w>
Ch er
ele ct</w>
accep ts</w>
pur chase</w>
pla tes</w>
ber ea
She pher
M assa
ff ed</w>
sw ears</w>
r ess</w>
previ ously</w>
I b
ki ′ah</w>
Edre i</w>
there by</w>
ha ir
Jeri moth</w>
repro of</w>
ac quired</w>
' No</w>
par ables</w>
do est</w>
Shi l
repro ach
att end</w>
o d
ac coun
ve -
H ab
thor n</w>
o lives</w>
god dess</w>
Shar on</w>
sche mes</w>
a ld</w>
par ty</w>
she wed</w>
fla g</w>
self- control</w>
with hold</w>
ere ly</w>
pen ters</w>
Nebuchadre zzar</w>
discer n</w>
pur ge</w>
E n</w>
desir ing</w>
mi sta
desig na
k a
easi er</w>
ha u
cep tion</w>
ac tion</w>
p ans</w>
w et</w>
plan ting</w>
can st</w>
ca ses</w>
compar ed</w>
in ation</w>
K ir</w>
mi stress</w>
Car mi</w>
Bin nui</w>
g on</w>
m or</w>
pres ses</w>
Jer e
mi re</w>
g ging</w>
b end</w>
Benj am
Ash kelon</w>
' Give</w>
bapti zing</w>
joy fully</w>
dest ined</w>
psal m</w>
Malchi jah</w>
th ree
dece it
sa kes</w>
Mares hah</w>
En -
H old</w>
priva te</w>
sacrifi cing</w>
Hur ry</w>
Be ware</w>
advi sers</w>
lo cau
person al</w>
Hi de</w>
Mo lech</w>
un intention
ch us</w>
guar di
gir d</w>
lu sts</w>
Zi beon</w>
Bu y</w>
stru gg
tter y</w>
suffi cient</w>
coun se
De part</w>
oa ks</w>
ho locau
sor ts</w>
sta te
m erely</w>
hi tes</w>
seventy- five</w>
clu ded</w>
car penters</w>
govern ment</w>
sh ly</w>
Az maveth</w>
st irs</w>
o enai</w>
marke t
Ca st</w>
ru sh</w>
fa tt
thor n
Mal ki
le prou
pro ceeded</w>
l ting</w>
cir cle</w>
ven s</w>
pur posed</w>
k id</w>
gla dly</w>
eg gs</w>
th ri
B rea
Gibe onites</w>
Magda lene</w>
Uri </w>
te dly</w>
gi lead</w>
21 </w>
wor l
parti ality</w>
pa vement</w>
i dea</w>
Je hu
di mini
ap peti
oppres sors</w>
de fects</w>
Eli oenai</w>
expe c
sett ings</w>
foll ower</w>
p aga
paga n</w>
ll ment</w>
enga ged</w>
Asa iah</w>
tou cheth</w>
sig ni
v ings</w>
bri bes</w>
low est</w>
H ear
A quil
des cri
fri end
val ry</w>
procla mation</w>
just ly</w>
ear n</w>
op posed</w>
ad op
ck y</w>
Zil pah</w>
fear ful</w>
la ys</w>
di pped</w>
la p</w>
deri sion</w>
disobe yed</w>
Sep har
usu al</w>
con ce
practi ced</w>
eal ous</w>
res trained</w>
leprou s</w>
Man as
bu t
tes ting</w>
magni fied</w>
tar ry</w>
sta gger</w>
W ake</w>
w oul
op o
hen ceforth</w>
l er
She c
oun ces</w>
fu llness</w>
in ner
candlesti ck</w>
int end</w>
ac qua
chang ing</w>
in ward</w>
d el</w>
war es</w>
ve -offering</w>
down fall</w>
pomegran ate</w>
y es
rai ses</w>
Ari och</w>
Ana k</w>
convin ced</w>
2 5</w>
amb assa
en vi
b ond</w>
Answ er</w>
he wn</w>
wol ves</w>
va im</w>
h es</w>
pla inly</w>
T H
Ethiop ians</w>
2 3</w>
husb an
desig ns</w>
immor al</w>
repro ve</w>
Mak ir</w>
colla p
assemb lies</w>
Pe th
p ours</w>
rest ing-place</w>
clo ser</w>
ban ks</w>
3 ,
de mo
ul ts</w>
suppli cations</w>
consu lted</w>
ang led</w>
pa in
easi ly</w>
Wher ever</w>
ra mp
dispu te</w>
— all</w>
i llu
sta ture</w>
pl owed</w>
day light</w>
la cking</w>
bro ther
dev ices</w>
Eli ′
de pri
Mi sh
she ep
Wi lt</w>
M el
fin ely</w>
sha kes</w>
car t</w>
Stre tch</w>
ac tually</w>
frigh ten</w>
remain der</w>
cu ts</w>
sha h</w>
cra ft</w>
plo tted</w>
re ques
g ers</w>
es y</w>
S yrian</w>
L ight</w>
5 ,000</w>
bru i
ja sper</w>
hand ful</w>
in divi
indivi du
Z ur</w>
ra ins</w>
with draw</w>
' As</w>
Je hon
sta ined</w>
fl at</w>
Shelo mith</w>
val or</w>
spe e
ga shi
a x</w>
adv ance</w>
op pon
wher eas</w>
o ms</w>
mu th</w>
te m
P en
Decl are</w>
spr out</w>
lo be</w>
beg ins</w>
Rab shakeh</w>
le tting</w>
P res
Hu ram</w>
sw o
gr ind</w>
Fir e</w>
con ceive</w>
Cre te</w>
inclu des</w>
da mage</w>
v et</w>
pu sh</w>
stri ve</w>
my st
P on
c in
ble ms</w>
ang er
T ig
Samari tan</w>
B low</w>
quie tly</w>
cy press</w>
win es
recei ving</w>
magni fy</w>
as much</w>
s nu
pries tly</w>
persecu tion</w>
her bs</w>
Un less</w>
hi des</w>
lan d
J ared</w>
C oun
Th row</w>
v esti
s quar
G itti
hon ors</w>
devi sed</w>
eigh ty-
wea kness</w>
Kir ja
en lar
Jab esh</w>
T app
po lished</w>
p les</w>
convo cation</w>
fa irs</w>
distribu ted</w>
Chi ef</w>
qu o
stan dar
un righteous</w>
ci ta
ten s</w>
gre ement</w>
Lo tan</w>
for ming</w>
accusa tion</w>
su dden</w>
Shu shan</w>
her b</w>
as sure</w>
peace ful</w>
pr un
Aha </w>
lo ses</w>
cover eth</w>
sea ts</w>
moun ted</w>
fla shes</w>
dedica te</w>
— I</w>
Shec aniah</w>
24 ,000</w>
ano ah</w>
ann a</w>
Ar ba</w>
to ssed</w>
l ent</w>
Ne co</w>
Elna than</w>
Proph esy</w>
ow ners</w>
op h
wea ried</w>
bea reth</w>
ath aim</w>
a lo
commit ting</w>
Tim nah</w>
er r</w>
accu sers</w>
fig ure</w>
thro at</w>
Ha mu
mer ry</w>
po ols</w>
Ger a</w>
Hor mah</w>
af ford</w>
mater ial</w>
cen ser</w>
boundar ies</w>
so lu
s -in-law</w>
beg ging</w>
ba ke</w>
emb ra
fa ce
sa traps</w>
pro blems</w>
in vol
' Where</w>
worshi pers</w>
s cra
Gir gashi
sepulch re</w>
exc use</w>
over lay</w>
kn esses</w>
en i
vesti bu
Pe k
Aquil a</w>
gra pe</w>
ea m</w>
ad mon
Tapp uah</w>
foun tains</w>
fle eing</w>
incl ine</w>
faith less</w>
cri m
reme mbers</w>
pier ce</w>
ha dad</w>
Ki ll</w>
fle w</w>
trav el
loo keth</w>
Wri tings</w>
Go spel</w>
Zo an</w>
to ler
evid ence</w>
st ened</w>
— you</w>
pop u
a ge
Pas s</w>
see keth</w>
ha ra
Jar muth</w>
storero oms</w>
re mo
lo cks</w>
boo ths</w>
gr in
R ight</w>
circumci se</w>
hail stones</w>
sho vels</w>
shar es</w>
d don</w>
bo ats</w>
sta ys</w>
e cra
inj ured</w>
ff ers</w>
one- year-old</w>
Who so</w>
Jo ′
sig nal</w>
Ai j
g l
un believers</w>
sea ls</w>
na mely</w>
inva de</w>
disobe dience</w>
mis sing</w>
th in
sho ots</w>
ro pe</w>
custo dy</w>
Di shon</w>
s cu
bea ms</w>
des ign</w>
S ons</w>
sit u
as cent</w>
Eno sh</w>
Eli m</w>
poison ous</w>
pur chased</w>
sor row
re pea
supp orted</w>
dr en
fla x</w>
imp ure</w>
' Because</w>
wa xed</w>
g lah</w>
arri ve</w>
pro ceed</w>
2 4</w>
puni shing</w>
E </w>
p its</w>
questi oned</w>
perver t</w>
bra ke</w>
li ce</w>
work man</w>
burnt- offerings</w>
refresh ed</w>
u t
mar ks</w>
arr anged</w>
lea p</w>
human kind</w>
He le
De laiah</w>
standar ds</w>
occup y</w>
goo d-
p ite</w>
mai dens</w>
exi st</w>
Ch ur
Y ear</w>
cub s</w>
ra ged</w>
co a
men ted</w>
Eliphe let</w>
mi ssed</w>
the st</w>
pla ster</w>
cour ses</w>
crim son</w>
d rought</w>
per mission</w>
dr ink
re qui
genealogi es</w>
colum ns</w>
rea l
con sent</w>
mi lity</w>
ho of</w>
12 ,000</w>
three -
Thessaloni ca</w>
devasta ted</w>
whi sp
ad mini
oun g</w>
Y oung</w>
anx ious</w>
deceit fully</w>
compas sionate</w>
Uzz a</w>
allo tment</w>
priva tely</w>
revi ve</w>
M oun
c est</w>
t ests</w>
gla ss</w>
exam ined</w>
La ws</w>
ha ting</w>
yes terday</w>
se tteth</w>
hi p</w>
con dition</w>
se lah</w>
peti tion</w>
as sur
ll ows</w>
pro cee
ff s</w>
ent rea
quen ch</w>
A the
b ites</w>
I *</w>
* I*</w>
Obed- edom</w>
Hi ram</w>
He ber</w>
A r</w>
Persi ans</w>
ai oth</w>
C ep
deliver er</w>
Destro y</w>
ca ves</w>
Ga mali
cru el
de por
Sh in
vestibu le</w>
main tain</w>
T en</w>
Jes haiah</w>
is les</w>
ex hau
Ha th</w>
' God</w>
so le</w>
Sa viour</w>
pa ys</w>
Lib y
ar ch</w>
clo ck</w>
Jeho zadak</w>
pu shed</w>
Bu k
hu mility</w>
D u
ro tten</w>
coa sts</w>
Gamali el</w>
with stand</w>
in tent</w>
country side</w>
whor e
li d</w>
Phara o</w>
in fir
brea thed</w>
sto ck</w>
se est</w>
friend ship</w>
con ium</w>
I conium</w>
long ing</w>
grow th</w>
terri bly</w>
der ly</w>
o '
Cep has</w>
th ly</w>
Brea k</w>
pur poses</w>
R ea
D oth</w>
advers ity</w>
t s—
quar ters</w>
i mi
ga vest</w>
argu ment</w>
believ eth</w>
n ice</w>
so a
se vere
kin sman</w>
Pe la
Beer oth</w>
m less</w>
dist in
so o
Be loved</w>
E than</w>
shea ves</w>
fi shes</w>
pa le</w>
d ging</w>
Me mp
ci an</w>
gra ze</w>
engra ved</w>
severe ly</w>
pan hes</w>
Wa y</w>
wa its</w>
sorrow ful</w>
stri cken</w>
o' clock</w>
il er</w>
whom ever</w>
z ealous</w>
intellig ent</w>
l th
st les</w>
dun ge
breast piece</w>
whi p</w>
corner stone</w>
Memp his</w>
paraly zed</w>
spo ts</w>
Nathan ael</w>
Az el</w>
nur sing</w>
Mo on</w>
H eth</w>
Juda ea</w>
prophesi es</w>
scrip tures</w>
Ja van</w>
smi th</w>
han dle</w>
th on</w>
gri eve</w>
Ge dor</w>
ta s
low ered</w>
to e</w>
kno ck</w>
seven teen</w>
ho mer</w>
atten dants</w>
fla sh</w>
deman ds</w>
Be ing</w>
wh ore</w>
ki </w>
Joi ada</w>
provi sions</w>
har der</w>
par ted</w>
da tha</w>
i ′ah</w>
T ower</w>
Methu selah</w>
before hand</w>
A ze
Ahi jah</w>
forbi dden</w>
F lee</w>
one- tenth</w>
spe edi
Ju dg
st ink</w>
inclu de</w>
f ted</w>
ta lity</w>
Tro as</w>
Abi hail</w>
you —</w>
un circumcision</w>
qu ali
carca sses</w>
sh ort
vio let</w>
r s</w>
mo an</w>
la l</w>
Mal lu
gh o
t ess</w>
distur bed</w>
Mer aioth</w>
K or
remin der</w>
peop le—
ex ult</w>
Wh ere
por ters</w>
over threw</w>
exhor t</w>
Gree tings</w>
cruci fy</w>
or phan</w>
ac cursed</w>
Sham mah</w>
speedi ly</w>
far thest</w>
g all</w>
ev en
en ces</w>
inno cen
A ho
upro o
ahi tes</w>
E phah</w>
gre ed</w>
In struction</w>
dra wing</w>
Li fe</w>
m wood</w>
Tru st</w>
po or
prepar ing</w>
ho ofs</w>
Te man
hop ing</w>
wor keth</w>
gar ri
S il
p ou
scorpi ons</w>
state ment</w>
mar ching</w>
Righte ous</w>
forty- two</w>
roo ster</w>
na sty</w>
upro ar</w>
roa sted</w>
Tah panhes</w>
i as</w>
terri fying</w>
Baa sha</w>
dis cre
despi ses</w>
Az ri
ite ms</w>
twenty- three</w>
ne w
Hor on</w>
re building</w>
expen sive</w>
sw are</w>
ing ing</w>
m ers</w>
gre eting</w>
b owing</w>
almon d</w>
g a</w>
quen ched</w>
whor edom</w>
enti oned</w>
serp ents</w>
ca valry</w>
Gala tia</w>
Shi shak</w>
sin c
sinc ere</w>
tri ck</w>
Midian ite</w>
Besi des</w>
h owl</w>
bo iled</w>
be get</w>
soli d</w>
gui ding</w>
che ek</w>
p ine</w>
dev ouring</w>
N ab
forty- five</w>
fol ds</w>
Eze ki
ra c
m entioned</w>
bo lts</w>
Samar itans</w>
Jere moth</w>
emp tied</w>
str a</w>
Hiv ite</w>
si mi
1 0
hi ll-
ta ils</w>
posi tions</w>
she mesh</w>
ter y</w>
u sur
eager ly</w>
bond men</w>
ta m</w>
attenti ve</w>
Oholi bamah</w>
Tab or</w>
es —</w>
ce ful</w>
ra sh</w>
birth right</w>
disapp ointed</w>
wea ker</w>
them —
st ops</w>
Ly stra</w>
pa d</w>
real m</w>
decor ated</w>
dr es
disapp eared</w>
O ther</w>
Jaha ziel</w>
dis cover</w>
Be el
1 0,000</w>
ban iah</w>
She baniah</w>
co oked</w>
She mesh</w>
lew dness</w>
O th
y st</w>
be tro
gol d
appeti te</w>
gra y</w>
ho o
ho ok</w>
E nan</w>
j earim</w>
du ce</w>
dev ils</w>
J amin</w>
B ea
musi cians</w>
foolish ly</w>
murmur ed</w>
colum n</w>
g lean</w>
W al
lamp stands</w>
hel pers</w>
cli mb</w>
S tri
O b
bri ers</w>
ma kest</w>
F e
n ests</w>
h ence</w>
men stru
lo an</w>
dist ingu
A post
tu ous</w>
dy nasty</w>
dro w
tion al</w>
vani sh</w>
dev ours</w>
Ta hath</w>
where by</w>
non- Jewish</w>
in flu
m mon</w>
ah s</w>
unintention ally</w>
af fairs</w>
ear ned</w>
M ere
ga il</w>
designa ted</w>
woul dest</w>
whi te
man s</w>
ke m</w>
worshi ps</w>
disper sed</w>
O mri</w>
abi des</w>
d anger
She ma</w>
sw arm</w>
si as</w>
dev out</w>
che eks</w>
o li
st ac
go ings</w>
ex tor
twenty- fourth</w>
for ests</w>
Ge der
deep est</w>
di tions</w>
bas is</w>
Ar pha
app al
li ties</w>
Ab don</w>
justi fy</w>
′ zar</w>
compla ining</w>
Mere moth</w>
anc y</w>
prou dly</w>
plea ded</w>
princi pa
li m</w>
ear rings</w>
stri pes</w>
collec tor</w>
M ad
fl int</w>
s crea
ci ents</w>
Ezeki el</w>
g li
Cho ose</w>
ali ens</w>
Zac hari
Arpha x
go g</w>
goo dly</w>
' d</w>
u mmim</w>
thu mb</w>
ber y</w>
di ly</w>
c ture</w>
Se eing</w>
sha ft</w>
al lies</w>
Thi r
loa ds</w>
m us</w>
consecra tion</w>
husban d
Ze bo
' There</w>
emb arra
cli mb
' Behold</w>
i us</w>
Ar pad</w>
sha dows</w>
dem us</w>
Nico demus</w>
mali ce</w>
be it</w>
do om</w>
Na tions</w>
pl enti
Arphax ad</w>
consi ders</w>
ri seth</w>
co vet</w>
min es</w>
transgres sors</w>
there th</w>
predi cted</w>
dunge on</w>
sn ared</w>
bol dness</w>
hel met</w>
contain ing</w>
pow der</w>
hor on</w>
che w</w>
wor ried</w>
s sion</w>
Shepher d</w>
ll o</w>
gree ted</w>
' In</w>
ste pped</w>
danger ous</w>
es tly</w>
dire ctly</w>
Ari el</w>
d ence</w>
counse ll
magni fi
wa y
rai sing</w>
P ho
ken ness</w>
va i</w>
st en
k er
qu it</w>
mighti er</w>
ac knowle
ex changed</w>
re covered</w>
mor tar</w>
2 2</w>
u g</w>
wol f</w>
Sephar vaim</w>
A tta
slu mber</w>
S hal
ma r</w>
spo ils</w>
Zab di</w>
remain eth</w>
b its</w>
magi strates</w>
ex iled</w>
quir es</w>
ja ws</w>
Hear ken</w>
A greement</w>
deser ts</w>
For e
argu ed</w>
D raw</w>
labor ed</w>
Abi gail</w>
par ta
d yed</w>
excell ency</w>
regu larly</w>
Ti ll</w>
wi thers</w>
d dled</w>
wa ved</w>
sett lements</w>
age -
un failing</w>
Si on</w>
Ma ac
Ho sea</w>
be z</w>
Lib ni</w>
swe lling</w>
un known</w>
wi t</w>
inha bit</w>
ador ned</w>
smit eth</w>
3 00</w>
sw ine</w>
hon ey
hi ll
dep en
kni fe</w>
pi les</w>
ad dressed</w>
fa de</w>
an cients</w>
leop ard</w>
ing- greatness</w>
merch ant</w>
far away</w>
for gave</w>
Fi ve</w>
per fe
Naha sh</w>
instru ment</w>
disobe y</w>
ceremon y</w>
le ans</w>
tri bun
El ders</w>
valu ation</w>
Str eng
Ch ronicles</w>
musi cal</w>
mi a</w>
compani es</w>
prover bs</w>
— this</w>
Ahi o</w>
ma dness</w>
ran k</w>
ha teth</w>
far ther</w>
cl ever</w>
Judg ment</w>
sav or</w>
S till</w>
do l</w>
z en</w>
sh ow
R est</w>
shin ing-greatness</w>
Ara mai
shi </w>
on ing</w>
Mi b
Azri kam</w>
disposs ess</w>
kin d
bani shed</w>
bin ding</w>
Fi ll</w>
plea sures</w>
Ammi el</w>
M ana
C al
me —</w>
vin dica
Ish bosheth</w>
Aij alon</w>
sun set</w>
Sanc tuary</w>
Gitti te</w>
ro cky</w>
el ess</w>
dri es</w>
Oholi bah</w>
Ba k
in spe
ga ted</w>
bar ns</w>
Aramai c</w>
Sham mai</w>
for mation</w>
en ter
Mahala lel</w>
Ha shu
appro pri
fortun e</w>
Fri end</w>
ca lly</w>
ran ge</w>
Na ar
F ar</w>
arra yed</w>
ces sion</w>
Ser ug</w>
human ity</w>
Mig dol</w>
p lots</w>
dilig ence</w>
Haz er
Ha gri
recei veth</w>
in se
expe cting</w>
plea </w>
fu el</w>
desi rable</w>
liqu id</w>
E ′
Athe ns</w>
ex act</w>
ho llow</w>
sma ller</w>
mi st</w>
W il
P it</w>
st ab
z ai</w>
enjo yed</w>
po int
lion ess</w>
sy ca
pursu ing</w>
bor row</w>
fami liar</w>
eter nity</w>
to es</w>
sh ings</w>
Fo ols</w>
uproo ted</w>
disp lay</w>
bes tow
c ta
P h
ha llowed</w>
res ts</w>
rai ls</w>
Ethiop ian</w>
Ash taroth</w>
sof t</w>
org ans</w>
fin al</w>
assi stant</w>
ce ly</w>
tab ernacles</w>
wa sting</w>
slop e</w>
ri ch
wines kins</w>
Aze kah</w>
i leth</w>
c ry
pro long</w>
Jaha z</w>
liba tions</w>
I ra</w>
z an</w>
n evertheless</w>
ar ts</w>
bri dle</w>
persua de</w>
opo ta
le el</w>
un believing</w>
perfu mes</w>
vi lah</w>
Ha vilah</w>
argu ing</w>
Ser ve</w>
pasture land</w>
Uri m</w>
sma llest</w>
door posts</w>
gu est</w>
corp se</w>
Ana kim</w>
ber y
adulter ers</w>
qui ver</w>
ent rails</w>
smi ths</w>
pow er
ha teful</w>
bed room</w>
Je ther</w>
Lu z</w>
Jok tan</w>
ear then</w>
comm end</w>
man dra
e pi
ta sted</w>
mi ties</w>
terri tor
in ity</w>
manif ested</w>
gra ss
d ors</w>
grin ding</w>
hea vi
inj ury</w>
ex t
Ram oth-
pas sage</w>
ey eli
eyeli ds</w>
ti p</w>
bu ck
cla p</w>
temp ered</w>
min ate</w>
Re u</w>
Z ar
Righte ousness</w>
Ab arim</w>
cru shing</w>
Jedi ael</w>
mer ly</w>
sun rise</w>
inva ded</w>
wor st</w>
pursu ers</w>
ma sons</w>
hill- country</w>
Hag gi
squar es</w>
turtle doves</w>
disea sed</w>
′ a
appal led</w>
ze el</w>
over -
sele cted</w>
he- goats</w>
Jo sue</w>
Wil derness</w>
For give</w>
su ck</w>
contribu tions</w>
m it
m stone</w>
Y our
gui des</w>
Des tru
— he</w>
fee ds</w>
— for</w>
conso lation</w>
Pro te
Beth sa
s owed</w>
pro b
prob lem</w>
ven ture</w>
scor ched</w>
over seers</w>
Je con
Mes opota
har med</w>
oa ths</w>
con tra
Sha phat</w>
encoura gement</w>
D or</w>
of -
stu mp</w>
her d
pas sion</w>
fa sten</w>
Your self</w>
1 7</w>
lo dged</w>
be d-
Ha th
sa viour</w>
no on
gro ves</w>
divin ers</w>
cho i
discer ning</w>
ru bble</w>
f ter</w>
drunk ards</w>
vio lated</w>
dep th</w>
T wel
whore doms</w>
harves ted</w>
e quity</w>
dea ls</w>
mo ons</w>
Ser v
threa tened</w>
mo b</w>
V ery</w>
dam sel</w>
c un
fi c
pain ful</w>
estab li
blasphe my</w>
tambour ines</w>
Al ways</w>
n y</w>
fi lth
there with</w>
Che bar</w>
rescu es</w>
titu de</w>
es tate</w>
Zipp or</w>
ne cked</w>
Par o
— it</w>
pra ys</w>
mb er
Shin ar</w>
g ently</w>
mill stone</w>
As se
C ru
victor ious</w>
Tar sus</w>
wr ongs</w>
co ven
Beel zebu
lo g</w>
sen seless</w>
la cks</w>
fi lth</w>
choi cest</w>
Repha iah</w>
descen ding</w>
m ent
emb race</w>
Bil dad</w>
gi ants</w>
er ahs</w>
L and</w>
rob ber</w>
un married</w>
drun kenness</w>
point less</w>
con vi
F our</w>
pp im</w>
thro ws</w>
la th-
guar ding</w>
con stru
climb ed</w>
bri mstone</w>
fi ghts</w>
A iah</w>
emp ty-
′ i
Eli melech</w>
sp la
requi re
habi tations</w>
' On</w>
over took</w>
In ter
ri tually</w>
scour ge</w>
usur y</w>
utter most</w>
par ties</w>
Re p
sp ort</w>
dro ps</w>
Mi k
Abi b</w>
l ines</w>
P re
Benjam in
laugh s</w>
P am
com b</w>
bery l</w>
reje cts</w>
fro st</w>
a w
age- during</w>
wrong ed</w>
filth iness</w>
soo thing</w>
sel fish</w>
pha r</w>
bri ck</w>
san k</w>
min ent</w>
expe cted</w>
provi des</w>
me ek</w>
bear ds</w>
over seer</w>
cry st
bo ttle</w>
mandra kes</w>
cla sps</w>
Ma gog</w>
di vers</w>
Wal k</w>
E lath</w>
C over</w>
Ja son</w>
' Get</w>
Ha kk
concea l</w>
ordin ation</w>
sci lla</w>
b ye</w>
Pri scilla</w>
Mesopota mia</w>
covet ousness</w>
wea ver</w>
stu dy</w>
rea ching</w>
bl ing</w>
Chur ch</w>
sear ches</w>
Kiri athaim</w>
' Here</w>
pe lah</w>
pre h
sp rou
lo cated</w>
cl ine</w>
lif ts</w>
G ar
sur render</w>
coun sels</w>
inv esti
sub due</w>
ba thed</w>
y —</w>
har shly</w>
presen ting</w>
T y
Go zan</w>
myst eries</w>
gover n</w>
Is hi</w>
Baa lah</w>
wa stes</w>
scri bed</w>
Mes seng
' Be</w>
t an
fea thers</w>
Tim na</w>
rea pers</w>
o king</w>
fe eling</w>
app ly</w>
' For</w>
Ephra th</w>
wit ch
A in</w>
transg ress</w>
d ened</w>
Mach pelah</w>
R ul
me th
Zi ph</w>
7 00</w>
Zachari as</w>
re d
reli able</w>
Netop hathite</w>
disa sters</w>
nouri shed</w>
le h</w>
u ll</w>
Alexan der</w>
Jecon iah</w>
tri cked</w>
ow beit</w>
mo sh</w>
Com man
Che mosh</w>
1 4
emp ire</w>
Paro sh</w>
tre mbles</w>
pl en
per si
ou tward</w>
per ple
Ju deans</w>
grea t-
boo ty</w>
Mallu ch</w>
E la
neigh bor
bar n
en a</w>
cryst al</w>
s ows</w>
id a</w>
La st</w>
per mit</w>
d ant</w>
Mel chi
hop es</w>
furni shings</w>
bo k</w>
Jab bok</w>
d or
f arm</w>
sha red</w>
mir th</w>
mea l
cra zy</w>
co in</w>
ref rain</w>
prea cher</w>
Girgashi tes</w>
affli ctions</w>
Levi athan</w>
Bi chri</w>
b be
sel f
gossi p</w>
reques ted</w>
don ians</w>
ten ing</w>
puni shes</w>
stret ching</w>
ti us</w>
sh eath</w>
drunk ard</w>
wor mwood</w>
light nings</w>
Pam phy
mar ve
Chal de
mon -
Be bai</w>
Esh col</w>
ru thless</w>
ro lo
ast rolo
rob bery</w>
scor e</w>
bur ying</w>
ar mor
incu rable</w>
dro pped</w>
U pper</w>
U r</w>
Eli asaph</w>
Levi tical</w>
Ka des
fugi tives</w>
sanda l</w>
me lo
Re kem</w>
inherit ed</w>
gent leness</w>
f enced</w>
distribu te</w>
Destru ction</w>
victi m</w>
Pe da
g lu
so les</w>
der er</w>
ba tt
abhor red</w>
' Amen</w>
qu anti
conf essed</w>
in y</w>
aven ged</w>
approach ing</w>
top az</w>
a xes</w>
Mor e</w>
Ho glah</w>
straigh t
the w</w>
Mat thew</w>
Hu s
moun tain
M </w>
sca tters</w>
Prin ce</w>
wel fare</w>
on i</w>
i im</w>
with standing</w>
Ge mariah</w>
sp an</w>
Ri z
Gil bo
se math</w>
or char
Ba semath</w>
divi ding</w>
Massa h</w>
W ash</w>
Ho sah</w>
. Selah</w>
sh er
s ar
Big vai</w>
tor mented</w>
Twel ve</w>
myr tle</w>
op ed</w>
ignor ed</w>
counsel or</w>
E mp
mu te</w>
mon thly</w>
cap able</w>
measure ments</w>
la bors</w>
bloo dy</w>
surpri se</w>
fi st</w>
t withstanding</w>
Oph el</w>
dor la
in sol
exam ines</w>
Ke de
pi led</w>
Pu rim</w>
stor es</w>
Cyr ene</w>
na m</w>
deli ca
da sh</w>
cen ess</w>
Her odi
fin deth</w>
Na hath</w>
s— and</w>
an ni
min dful</w>
cita del</w>
Sal mon</w>
p angs</w>
we aned</w>
bene fi
abi deth</w>
a va
to tally</w>
emer ald</w>
so ber</w>
associ ate</w>
f ers</w>
Sal vation</w>
orig in
he el</w>
S ac
grasshop pers</w>
hol deth</w>
ci ously</w>
Asse mble</w>
de ur</w>
Mo za</w>
twenty- eight</w>
Gab riel</w>
vi ah</w>
slu g
mol ding</w>
al ong
Hazer oth</w>
les er</w>
twenty- third</w>
life -
ing —</w>
Ahi ezer</w>
salu te</w>
Ha zar</w>
Ju dean</w>
fla ttering</w>
situ ation</w>
blin ded</w>
titu te</w>
des titute</w>
brea the</w>
G un
hun ter</w>
e dges</w>
cun ning</w>
Ga ius</w>
Pamphy lia</w>
de ba</w>
Me deba</w>
Ar chi
one- third</w>
sorcer ers</w>
mista ke</w>
fores kin</w>
f ir</w>
Me lech</w>
vi si
pre tend</w>
Shim ea</w>
hoo ves</w>
sto cks</w>
corru pti
- keepers</w>
whor ing</w>
hin der</w>
dar ed</w>
Shim ron</w>
tra it
for merly</w>
strong ly</w>
er ity</w>
ambassa dors</w>
s well</w>
so oth
Ra ise</w>
depor ted</w>
bi es</w>
Hazar -
with drawn</w>
bestow ed</w>
along side</w>
territor ies</w>
rep or
ran so
v a</w>
par tly</w>
′ e
F all</w>
pro je
jo ining</w>
sa n</w>
4 5</w>
o dor</w>
da w
for giving</w>
st in
under world</w>
Amasa i</w>
2 ,000</w>
har m
subje ction</w>
hea ve-offering</w>
ra te</w>
ce ment</w>
s ly</w>
hor des</w>
Gilbo a</w>
Res tore</w>
righ tly</w>
El on</w>
ol a</w>
cred it</w>
vo i
Prote ct</w>
plenti ful</w>
ef fort</w>
T re
Poti phar</w>
empty- handed</w>
u rim</w>
mid wives</w>
shea f</w>
sprink ling</w>
M ith
labor ers</w>
refu sing</w>
har den</w>
di ct</w>
e m</w>
post erity</w>
Malki jah</w>
dorla omer</w>
E ve</w>
ver se</w>
bro oks</w>
Bethsa ida</w>
D evil</w>
Barn ea</w>
hur ting</w>
Pela tiah</w>
Mar ah</w>
ri ah</w>
o da
over sight</w>
ridicu le</w>
fa tness</w>
declar ing</w>
ta unt</w>
a zim</w>
tar ried</w>
sea shore</w>
La dan</w>
ere cted</w>
Lea d</w>
Beli eve</w>
e ans</w>
har lo
val our</w>
mistrea t</w>
devo tion</w>
de cent</w>
lean ing</w>
ck ers</w>
Ro mans</w>
Han och</w>
hou rs</w>
sha tter</w>
righte ously</w>
qu ite</w>
miser able</w>
tor ches</w>
ga ze</w>
Ad mah</w>
Ne ba
Zi m
bu ds</w>
mon ster</w>
Sib mah</w>
Jeremi as</w>
ki ller</w>
ob s
neigh b
Ach bor</w>
vi sible</w>
comfor ts</w>
wel comes</w>
s lip</w>
re zer</w>
la n</w>
ac ci
hi ss</w>
T rou
reconci led</w>
ta i</w>
survi ved</w>
ri pped</w>
n igh
ra va
fair ness</w>
it tle</w>
la yeth</w>
o z</w>
brui sed</w>
' Then</w>
ra ven</w>
wit nes
Ham me
long s</w>
Wa il</w>
Qu i
reig ns</w>
Lor d—</w>
n ment</w>
ar am</w>
comm un
exi sted</w>
coun ting</w>
Oth niel</w>
sanc tu
mu a</w>
D ar
back sli
bo ils</w>
uprigh tly</w>
for so
Ken an</w>
fri en
pro vision</w>
advi sed</w>
bo ast
cre dit
ab use</w>
An ything</w>
tri als</w>
supp lied</w>
bar e
spi lled</w>
mar ble</w>
en during</w>
anni hi
prophe cies</w>
des ecra
de lu
— but</w>
s mar
compla ints</w>
admini stra
me ets</w>
Ba als</w>
7 ½</w>
pea cea
foo led</w>
near est</w>
medi c
cla ims</w>
al ms</w>
E der</w>
dro ss</w>
gho st</w>
she et</w>
O ho
Genti le</w>
She th
Is shi
zi b</w>
strong est</w>
fier ceness</w>
ere thites</w>
Pal lu</w>
o s</w>
T ola</w>
exp ose</w>
k an</w>
Tal mai</w>
solu tely</w>
revea ls</w>
bond man</w>
ro wed</w>
exhau sted</w>
s lo
gall ows</w>
m n</w>
evil- doers</w>
co ok</w>
respon se</w>
— they</w>
pollu te</w>
Fore ig
l ing
holocau st</w>
ma ment</w>
anx i
Ha tt
conver ted</w>
u se
les son</w>
T esti
gi ver</w>
conf ined</w>
besi ege</w>
To gether</w>
igh s</w>
Midian ites</w>
J achin</w>
ta h</w>
per fection</w>
ge b</w>
f ou
Chal dea</w>
pas sions</w>
re tain</w>
de ba
swif tly</w>
an k
visi tation</w>
quar ter</w>
tw ins</w>
th aim</w>
over- against</w>
cen sers</w>
ba ttles</w>
Abi ezer</w>
increa ses</w>
Foreig ners</w>
Ca ph
wa fers</w>
fir mament</w>
craft sman</w>
app le</w>
deca y</w>
maid servant</w>
Te ma</w>
forso ok</w>
E′ ph
i son</w>
foo ds</w>
Ta ana
Shi ttim</w>
7 ,
st ard</w>
ent reat</w>
Pa ha
sure ty</w>
Ne geb</w>
di a
Ach or</w>
slug gard</w>
hi ah</w>
e du
bra zen</w>
Tal mon</w>
ch ri
ham mer</w>
Je b
up hold</w>
tor rent</w>
fles h
occup ied</w>
de ception</w>
ref le
di us</w>
Bak bu
dis missed</w>
ha biah</w>
cha rac
appropri ate</w>
sha pe</w>
ab ly</w>
H ad
u te</w>
mu le</w>
harm ful</w>
Di shan</w>
A phe
star ting</w>
fir es</w>
en raged</w>
pla cing</w>
ranso med</w>
destru ctive</w>
cu lti
Beth- horon</w>
foot steps</w>
Na y</w>
simp ly</w>
consu ming</w>
Lu d</w>
ri tual</w>
hypocri sy</w>
mar veled</w>
de po
H y
mo i
Do st</w>
cha ble</w>
answ ereth</w>
after noon</w>
at tain</w>
le gi
appea led</w>
Re habiah</w>
deter mine</w>
ar ou
wo of</w>
f ins</w>
co al</w>
u s—
tuni c</w>
ext ingu
perfe ctly</w>
che erful</w>
fi eth</w>
blin dness</w>
testi fies</w>
al ert</w>
per fected</w>
in scribed</w>
hand some</w>
kno cked</w>
un faithfulness</w>
ja iler</w>
grand father</w>
wri tings</w>
be ware</w>
up stairs</w>
af fection</w>
market place</w>
hair y</w>
Bea u
Sham mua</w>
consu mes</w>
discre tion</w>
B ah
to ols</w>
ad mit</w>
Hele z</w>
mi x
Un der
Mah lah</w>
Hor ites</w>
rene wed</w>
day time</w>
ele bra
Th ummim</w>
C elebra
stret ches</w>
scor ching</w>
re quires</w>
Buk ki</w>
sen sible</w>
medi u
thirty- two</w>
Joi arib</w>
stor e-
incl ined</w>
op e</w>
in form</w>
quali fied</w>
ha llow</w>
G alli
An ge
lu de</w>
ceremon ies</w>
Inter lude</w>
glu tt
li ked</w>
In to</w>
sexu ally</w>
char ging</w>
thank ful</w>
B en</w>
gras p</w>
Hatt ush</w>
Nazi rite</w>
deci des</w>
pri vi
man -
har sh</w>
exp an
arrog antly</w>
Mer cy</w>
ne t
in vo
in ven
war p</w>
des po
che er</w>
Be zer</w>
mediu ms</w>
har dly</w>
edi ct</w>
un belief</w>
crow ned</w>
ru bies</w>
dig nity</w>
Hashu m</w>
on y</w>
Ti b
oc cur
m ited</w>
Ange ls</w>
des pite</w>
lea m</w>
na tion
sa i
phi dim</w>
diffi cul
Re phidim</w>
Jo zadak</w>
th —
stu ff</w>
se h</w>
el -
in ti
da shed</w>
clu sters</w>
de iah</w>
Manas ′
disper se</w>
prophe tess</w>
Hamme datha</w>
dis gui
Si donians</w>
te mo
un fair</w>
thin im</w>
Testi mony</w>
Ne thinim</w>
face down</w>
sil k</w>
si ders</w>
expec tation</w>
b -
Ishma elites</w>
li pp
app or
C lau
mon u
app earing</w>
an ch
neighb ours</w>
dri vers</w>
Ja phia</w>
E zi
in stant</w>
gna shing</w>
' Is</w>
G ra
a men</w>
pl us</w>
H ades</w>
stea dy</w>
z or</w>
who le
Thir ty</w>
pursu es</w>
Abi shua</w>
ste d
use ful</w>
door keepers</w>
defen ses</w>
Esh temo
E vi
t ons</w>
Ass ir</w>
provo king</w>
lipp i</w>
Phi lippi</w>
melo dy</w>
thi stles</w>
Teman ite</w>
tain ty</w>
cer tainty</w>
Pho eni
bal ances</w>
ostri ches</w>
ra vines</w>
gra zing</w>
bal ance</w>
c le
bra gging</w>
as under</w>
Gi lea
stu mb
estee med</w>
com est</w>
Tru th</w>
Mor tal</w>
da l</w>
thi as</w>
concea led</w>
E′ph raim</w>
Elea leh</w>
lo ck</w>
Ar p
stu ck</w>
at or</w>
lo dging</w>
ab sent</w>
na ti
' Cursed</w>
ro th</w>
A taroth</w>
conten tion</w>
t on</w>
rou gh
foo thi
Se ba</w>
S ear
Man asses</w>
honey comb</w>
dispu tes</w>
Shes han</w>
lo cal</w>
dir ty</w>
ci fy</w>
arm ing</w>
a vah</w>
Ki bro
associ ates</w>
a woke</w>
psal ms</w>
n it
to ol</w>
ha dst</w>
Bah urim</w>
con fli
barn ea</w>
Zer ahiah</w>
blo tted</w>
mour ners</w>
e —</w>
exerci se</w>
Ma tta
Apost les</w>
craw ling</w>
ru mor</w>
subje cts</w>
ex pres
kni ves</w>
Hor on
Car ry</w>
frien dly</w>
witch craft</w>
t in</w>
overwhel m</w>
ga thereth</w>
where on</w>
mo tives</w>
be el</w>
spea ker</w>
cer eal</w>
re wards</w>
bare foot</w>
un it</w>
temp or
sancti fication</w>
perver ted</w>
can op
el ings</w>
Can a</w>
der ers</w>
Ben- Hadad</w>
consi der
e ds</w>
blasphe me</w>
whi sper</w>
ne ls</w>
ha sten</w>
Pek ahiah</w>
sa r</w>
B ur
dra ws</w>
suff ers</w>
stubborn ness</w>
star ve</w>
com preh
e ′
be er</w>
bar n</w>
Ho diah</w>
n on
Has shub</w>
ge tteth</w>
threa ts</w>
po t
ar ches</w>
O no</w>
distin ction</w>
La y</w>
foothi lls</w>
fatt ened</w>
Ephra thah</w>
Jehon adab</w>
con tain</w>
a id</w>
es es</w>
Shu the
Ahi melech</w>
re gre
Wi se</w>
inse cts</w>
fe tters</w>
ha i</w>
ga me</w>
sa ddled</w>
sigh ing</w>
betro thed</w>
de layed</w>
Ramoth- gilead</w>
open eth</w>
Z anoah</w>
ti mb
timb re
stri king</w>
g t</w>
n owing</w>
3 5</w>
bu sh
m melech</w>
Be yond</w>
2 7</w>
o thite</w>
Zo har</w>
gro ans</w>
Ann as</w>
kne el</w>
sa sh</w>
who so</w>
sp arrows</w>
as sign</w>
n eath</w>
scrip tion</w>
ran ks</w>
person ally</w>
cam est</w>
Kiriath- jearim</w>
l on
g lo
dri ves</w>
in wards</w>
Oho lah</w>
virg inity</w>
stro ke</w>
grapev ines</w>
bo dy
Egy p
straight way</w>
e ments</w>
perman ently</w>
or a
Ho da
Ch ana
ti gh
rain bow</w>
ra gs</w>
p ound</w>
T ra
ca i</w>
ac ti
TH E</w>
se men</w>
restra in</w>
Ra amah</w>
un its</w>
stea ling</w>
acqua int
be ans</w>
wrong -
par a
m ound</w>
bal m</w>
fo xes</w>
water -
cor respon
astrolo gers</w>
treacher y</w>
A ven</w>
sha ble</w>
four score</w>
idola try</w>
gra ins</w>
dis sol
bu tter</w>
str ing</w>
ra di
Th y
A ter</w>
W ea
fish er
deb ts</w>
he dr
confes sion</w>
comman deth</w>
fe elings</w>
A way</w>
U p</w>
gi el</w>
Maa ca
por ti
Azar el</w>
D er
entrea ted</w>
E bed-
resi de</w>
watch tower</w>
d ites</w>
ac quire</w>
No twithstanding</w>
d— the</w>
pre vent</w>
des per
ef fe
bur dened</w>
Thy ati
Hel on</w>
le ment</w>
Wa di</w>
Cru cify</w>
ren dered</w>
out casts</w>
With in</w>
San hedr
noon day</w>
negle ct</w>
He bron
quarre ling</w>
He gai</w>
sh oweth</w>
z aniah</w>
Jaa zaniah</w>
home town</w>
Gi de
Der be</w>
th ighs</w>
an a</w>
brea keth</w>
chari o
ea fter</w>
A bo
revo lted</w>
alo es</w>
B ran
ves tments</w>
recor der</w>
popu lation</w>
pit cher</w>
Horon aim</w>
out cry</w>
worl dly</w>
mo cking</w>
con fron
out siders</w>
T error</w>
mur ders</w>
Sear ch</w>
ro ars</w>
sy mb
fisher men</w>
On esi
C ould</w>
ho mage</w>
cherub ims</w>
te llers</w>
fa mines</w>
short ened</w>
' Make</w>
part ner</w>
ju mped</w>
conver sation</w>
en mity</w>
sharp ened</w>
corrupti ble</w>
year ling</w>
hon ou
fifty- two</w>
one- fifth</w>
war nings</w>
ta un
pru dence</w>
invol ved</w>
brea ches</w>
daughter s-in-law</w>
Isshi ah</w>
mu r</w>
Wo men</w>
reason ed</w>
Gu ard</w>
ba dg
ye *</w>
* ye*</w>
ther soever</w>
stir ring</w>
Rep ent</w>
Ob serve</w>
stor k</w>
fa inted</w>
under neath</w>
U lam</w>
Sh esh
Be er</w>
A v
by word</w>
Zop har</w>
I ta
twenty- nine</w>
li an</w>
pa irs</w>
Manas′ seh</w>
h —
Hoda viah</w>
Sal ute</w>
exten ds</w>
wi shed</w>
than ked</w>
sa iling</w>
husband men</w>
it ess</w>
exp lo
Bro ok</w>
1 9</w>
Ram eses</w>
Jo′ ab</w>
mi ss</w>
law less</w>
bush el</w>
Kades h-
lo gs</w>
t earing</w>
inf eri
ci ster
law lessness</w>
clo ths</w>
Pe le
Riz pah</w>
sh ear
na i</w>
m at</w>
culti va
cli ffs</w>
botto mless</w>
du l
ye llow</w>
exhor tation</w>
Pro claim</w>
prote ctor</w>
a tion
Nim rod</w>
tt est</w>
testi fying</w>
en sla
sojour ners</w>
Wi cked</w>
woo ds</w>
tr arch</w>
day break</w>
G en
Ara d</w>
fa in
gna ts</w>
Pi ck</w>
tres passed</w>
Shel u
Ahi ra</w>
Abi dan</w>
collap se</w>
swi m</w>
Jehu di</w>
mu stard</w>
dan -
Vi ol
— oracle</w>
hosti lity</w>
mer c
merc y-
cro ws</w>
Stri ke</w>
O ver
Ari star
Me un
s anna</w>
gui dance</w>
fle es</w>
Ja ph
tres passes</w>
man tle</w>
Go lan</w>
tro op</w>
mour ns</w>
seven teenth</w>
Meshe lemiah</w>
vex ation</w>
drow ned</w>
Heze ki′ah</w>
re duced</w>
Moun tains</w>
4 ,
win d
Y ah</w>
comp en
cred ited</w>
Ba th
Uri jah</w>
re present</w>
comm ended</w>
stiff -
assi st</w>
Ke i
Elea sah</w>
puri fying</w>
ren own</w>
re place</w>
Lo -
3 ,000</w>
- tree</w>
A dra
sa le</w>
canop y</w>
E tham</w>
persecu ting</w>
celebra ting</w>
en large</w>
stop ping</w>
lu sted</w>
Hi story</w>
devo te</w>
fla shed</w>
sha ring</w>
chi as</w>
sha d</w>
quarre ls</w>
Arp ach
me lts</w>
pal ms</w>
charac ter</w>
store house</w>
si gh</w>
badg ers</w>
vi per</w>
hur led</w>
k ens</w>
is y</w>
hun ted</w>
inferi or</w>
f re
Z att
Gun i</w>
enlar ged</w>
Pad dan-
O nam</w>
Jok shan</w>
you ths</w>
sw arming</w>
bur neth</w>
ba zzar</w>
Shesh bazzar</w>
Sanhedr in</w>
ck er</w>
embra ced</w>
C ount</w>
upro ot</w>
t ying</w>
Ke tu
wa sh
stor ms</w>
fav ored</w>
surroun ds</w>
pre ten
li ly</w>
vul tures</w>
Abo ve</w>
A M</w>
Messeng er</w>
bu sy</w>
simi lar</w>
ne ck
Aga g
' Listen</w>
Si lo
Celebra te</w>
part ners</w>
1 3
gi ant</w>
intellig ence</w>
i llness</w>
ste w</w>
be cometh</w>
troub le
pti ve</w>
ph on</w>
increa sing</w>
da te</w>
si c
mon ey
ho spi
Han an
Bil han</w>
hu mb
hi roth</w>
bu yer</w>
Sib be
ha w
Zu ri
sil enced</w>
g or</w>
e ding</w>
Neba i
app lies</w>
Peda h
Mik loth</w>
pro minent</w>
hi ssing</w>
g ent</w>
Uri el</w>
c rou
first- fruits</w>
lif f</w>
dwell est</w>
P el
d is</w>
L ittle</w>
Mi ch
Agag ite</w>
poor est</w>
ci pa
interpre ted</w>
sin cer
tain ing</w>
fi tting</w>
appro ve</w>
Alexan dri
S hua</w>
is ance</w>
equi pped</w>
rai ded</w>
vi de</w>
one- half</w>
cross bars</w>
Ja bez</w>
Ty chi
me lek</w>
Aristar chus</w>
dimini sh</w>
le tus</w>
Shelu miel</w>
Pa giel</w>
Ar go
le pers</w>
x ury</w>
Nebai oth</w>
endur ed</w>
disposs essed</w>
perple xed</w>
off end</w>
vers y</w>
spe ci
he dge</w>
contro versy</w>
ves —
pi c
magnifi cent</w>
Oholi ab</w>
gra b</w>
Paha th-
sincer ity</w>
peri shing</w>
A h
Emp eror</w>
qua kes</w>
Kei lah</w>
stiff- necked</w>
Thyati ra</w>
grapev ine</w>
Mish ma</w>
Pro mi
im mi
Tychi cus</w>
Adoni jah</w>
sic knesses</w>
Shu r</w>
quie tness</w>
gar mah</w>
Mu st</w>
fa ded</w>
Argo b</w>
defi ling</w>
repa id</w>
advi sors</w>
ce ans</w>
l is</w>
arri val</w>
stor my</w>
Trou ble</w>
journe ys</w>
arou sed</w>
fi cations</w>
1 50</w>
rene w</w>
ll es</w>
P l
Eph rai
D ab
whi thersoever</w>
ob serv
la dy</w>
ro ofs</w>
comm en
Hagri tes</w>
vege tables</w>
gro pe</w>
Fa ith
conce ited</w>
advi se</w>
stri ps</w>
recomp en
pi l
net work</w>
cister ns</w>
mar rying</w>
′ ia</w>
si bly</w>
cover ings</w>
ma el</w>
destro yers</w>
an ks</w>
bro ken
4 2</w>
power less</w>
ro ared</w>
disp lea
tem is</w>
sun k</w>
imprison ed</w>
imag ine</w>
embarra ssed</w>
Ketu rah</w>
Ar ar
com ely</w>
hea ve</w>
fulfi l</w>
extre mely</w>
innocen ce</w>
Ben- hadad</w>
to ss</w>
dea ling</w>
Netop hah</w>
— not</w>
be fall</w>
smar t</w>
doub ts</w>
Zatt u</w>
E pher</w>
rich ly</w>
def ended</w>
Re ceive</w>
sca b</w>
o es</w>
fur rows</w>
Cor ner</w>
fulfi llment</w>
insu lting</w>
boa sts</w>
att ra
sele ct</w>
fashi oned</w>
po sing</w>
car go</w>
Pele thites</w>
ex to
In cline</w>
T ry</w>
jo you
st ly</w>
meal -offering</w>
Eli zur</w>
w er</w>
principa l</w>
N ea
valu ed</w>
su stain</w>
ad venture</w>
na mon</w>
herd smen</w>
v ests</w>
say ers</w>
t ent
fea reth</w>
H owbeit</w>
thirty- seven</w>
Some times</w>
Eze chias</w>
all ow
Bo sheth</w>
po lis</w>
ti fully</w>
te trarch</w>
Sy nago
nor ma
Shu hite</w>
plu mb</w>
Zac cha
Kor ahites</w>
supervi sors</w>
c liff</w>
ligh ted</w>
en camp
w ins</w>
Zuri shaddai</w>
Zu ar</w>
Gide oni</w>
swif ter</w>
stra ted</w>
str ings</w>
mean ing
defi les</w>
e we</w>
d ite</w>
clu ster</w>
Sho bab</w>
After wards</w>
adulter ess</w>
re lent</w>
vin tage</w>
sle eps</w>
cin namon</w>
at titude</w>
fou l</w>
fu ls</w>
A long</w>
pl owing</w>
be lls</w>
Hath ach</w>
e dged</w>
expan se</w>
Ann ounce</w>
fi lling</w>
' Father</w>
tru thful</w>
cha ll
hear th</w>
i zz
hea ls</w>
nur sed</w>
crimin als</w>
ama thite</w>
li tes</w>
ha sty</w>
Pedah zur</w>
volun tary</w>
ll owing</w>
capi tals</w>
trea ds</w>
tab let</w>
Mesha </w>
ri fi
Sac rifi
pres ump
obe isance</w>
un holy</w>
sl ow
sh ri
evil- doing</w>
Hakk oz</w>
H ador
g ree</w>
ena dad</w>
Mo la
H enadad</w>
par ation</w>
reproach ed</w>
C u
mistrea ted</w>
sli pped</w>
grou n
vani ties</w>
l us</w>
hon oured</w>
hon or
Gershon ite</w>
ru shes</w>
star ts</w>
mp s</w>
drea dful</w>
She deur</w>
' Sir</w>
dig ged</w>
ri des</w>
mis sion
b ounds</w>
Ges hem</w>
sanctu aries</w>
kn ea
mur mur</w>
buil ded</w>
Jeho zabad</w>
cri eth</w>
A zz
fa il
ex cluded</w>
respe c
sp ice</w>
slo thful</w>
mu stered</w>
ba g
tta h</w>
sure dly</w>
puri ty</w>
quie ted</w>
sca le</w>
demo lished</w>
Arpach shad</w>
p led</w>
prepar ation</w>
hard ship</w>
foo ted</w>
Zaccha eus</w>
sixty- two</w>
rai sins</w>
mu s
medi tation</w>
trea ting</w>
carri ages</w>
in sp
s ower</w>
a ds</w>
i tion</w>
berea ved</w>
d early</w>
ab zeel</w>
Shim shai</w>
low land</w>
Tru e</w>
Taana ch</w>
Ho sha
r end</w>
profi ts</w>
garri sons</w>
annu al</w>
atten dant</w>
twenty- one</w>
ti sh</w>
discipl ined</w>
allow ance</w>
depar ting</w>
Ar temis</w>
7 ,500</w>
ra ped</w>
col or</w>
Pres ent</w>
sav our</w>
phe g</w>
per forming</w>
ensla ved</w>
sin neth</w>
bu ying</w>
rejoi ceth</w>
el dest</w>
Hal f</w>
ma ybe</w>
life- giving</w>
Fi eld</w>
Mah lon</w>
neighbor ing</w>
A ttai</w>
k ath</w>
af firm</w>
no isy</w>
visit ing</w>
infli cted</w>
des cent</w>
Ammi shaddai</w>
ab stain</w>
down ward</w>
1 5
po ttery</w>
oppon ents</w>
mi x</w>
ju mp</w>
triump h
surviv or</w>
guardi an</w>
home land</w>
d dy</w>
can e</w>
arti cle</w>
Zer esh</w>
A re
loa the</w>
gra pe
cou sin</w>
or us</w>
ti les</w>
dia de
whi ps</w>
Ne pheg</w>
El hanan</w>
Al tar</w>
Prin ces</w>
O ff
Tig lath-
Pa thro
sa i</w>
ac counted</w>
Ara h</w>
lu xury</w>
tu ously</w>
sta gg
for bear</w>
clo sest</w>
hur ts</w>
esti mation</w>
house tops</w>
ann im</w>
ski l
Hador am</w>
guil tless</w>
pla tter</w>
bal dness</w>
Husha m</w>
ca steth</w>
Sanc tify</w>
Paddan- aram</w>
brigh ter</w>
ar range</w>
imag ination</w>
Nim shi</w>
si de
Tib eri
spee ch
Cher ub</w>
w ears</w>
li ck</w>
Jeho ad
O ut
2 0
treasur ed</w>
res e
Pathro s</w>
ligh ten</w>
gener ously</w>
clu de</w>
Rea iah</w>
J i
reser ve</w>
ang ered</w>
En ter</w>
w rea
victor ies</w>
skill fully</w>
o ceans</w>
hypocri te</w>
ra zor</w>
pro longed</w>
Sam lah</w>
app lied</w>
mee kness</w>
Silo am</w>
woo d
shor tly</w>
stra ps</w>
O both</w>
Da ys</w>
idola ters</w>
hal f
fe tch</w>
Con se
pro ves</w>
ga ins</w>
revi led</w>
Ja shub</w>
for ti
individu al</w>
e el</w>
h ow
a voi
vi ces</w>
syca more</w>
floo d
Je k
g erahs</w>
Beau tiful</w>
man ship</w>
chario te
Sha rezer</w>
B es
expl ore</w>
ea ble</w>
i or</w>
expl ored</w>
b und
kin dre
kindre ds</w>
hin dered</w>
i c</w>
t inu
ninety- nine</w>
divor ces</w>
Shuthe lah</w>
d dim</w>
spiri tually</w>
obli gation</w>
dri p</w>
chasti se</w>
depen dent</w>
quen ces</w>
conse quences</w>
' So</w>
li v
ta sk
mp ortant</w>
Wea lth</w>
ran g</w>
in dica
gra fted</w>
B am
Atta ck</w>
it —
high ways</w>
aby ss</w>
The bes</w>
exam ples</w>
cou ple</w>
Di sa
B ir
op ing</w>
cont ended</w>
persecu tors</w>
awa its</w>
Hea l</w>
l un
Wi ld</w>
tra vels</w>
b each</w>
tra ding</w>
Arar at</w>
thres h</w>
de k</w>
Ze mar
country men</w>
mira moth</w>
deli cate</w>
She miramoth</w>
th ink
declar eth</w>
mar ket</w>
fa ding</w>
enti ous</w>
sh re
pre cept</w>
Coun cil</w>
for cing</w>
2 8</w>
B ow</w>
despi seth</w>
S el
be holding</w>
ri ver
z ite</w>
re thren</w>
B rethren</w>
ex ter
deso lations</w>
dar ling</w>
am el</w>
sooth sayers</w>
seven fold</w>
kn oc
roo ted</w>
trea ts</w>
accu sing</w>
pi pe</w>
hi res</w>
do mes
ow es</w>
mock ers</w>
ali en
Su n</w>
ri s
repor ts</w>
Z orah</w>
stam ped</w>
separ ates</w>
ch ry
z ′zar</w>
pla t
in scription</w>
counsell ors</w>
bund les</w>
Ne ph
Aphe k</w>
' and</w>
wonder ing</w>
non sense</w>
sub stitu
medic ine</w>
… </w>
parta kers</w>
man slayer</w>
Peth ahiah</w>
uni on</w>
thi el</w>
contro ls</w>
confron ted</w>
temp ting</w>
9 0</w>
Naar ah</w>
wri ter</w>
gr ants</w>
har vests</w>
deb tors</w>
Bro ther</w>
c ow
am oun
wrong- doing</w>
st ence</w>
Ser ah</w>
beha viour</w>
Ale meth</w>
d da</w>
7 ,000</w>
cup bearer</w>
hosti le</w>
insi sted</w>
whole hear
shu ts</w>
be have</w>
Jo t
le f
W est</w>
serv an
grow l</w>
deliver eth</w>
trea ding</w>
en ess</w>
w rest
ve iled</w>
g in</w>
over came</w>
sen ess</w>
Du mah</w>
gener al</w>
Ear th</w>
stra it
gu ed</w>
fo e</w>
vir tu
en ro
Zebo iim</w>
suppor ts</w>
pro portion</w>
k on</w>
yiel ding</w>
ra ven
d ded</w>
De me
ent ran
cle fts</w>
Ac cept</w>
thirty- three</w>
speech less</w>
gui le</w>
i jah</w>
arri ves</w>
En ough</w>
Chal dean</w>
snu ffers</w>
con s
Husha thite</w>
deser ved</w>
al armed</w>
assur ed</w>
Hebron ites</w>
ti re</w>
ma ture</w>
bin ds</w>
ba el</w>
vul ture</w>
b ig
procee ds</w>
inten ding</w>
shi p
disgu st</w>
L od</w>
show bread</w>
Mola dah</w>
Ish- bosheth</w>
tigh tly</w>
enti ce</w>
id enti
Ko hathite</w>
Co mp
vi shed</w>
cri </w>
correspon ding</w>
Eshtemo a</w>
to ken</w>
disapp ears</w>
pro w
sna tched</w>
ther ing</w>
whom soever</w>
bru ise</w>
Z ered</w>
tri us</w>
fav ors</w>
sp ac
Ly dda</w>
sa west</w>
loving- favor</w>
ba de</w>
Sal ma</w>
bun dle</w>
adulter ous</w>
ser vile</w>
sa </w>
chri st</w>
cla iming</w>
lou der</w>
Kadesh- barnea</w>
wholehear tedly</w>
m med</w>
ref resh</w>
K ore</w>
re len
trou bling</w>
gold smith</w>
spi ed</w>
honou rable</w>
Mep ha
fa bri
K now
meaning less</w>
zz ah</w>
u tters</w>
i dea
a se</w>
sten ch</w>
for ks</w>
F oun
Ges hu
Ab ′
resi ding</w>
gall ons</w>
c led</w>
c anc
Eph esi
temp er</w>
str angled</w>
star vation</w>
st are</w>
Ly dia</w>
coun tless</w>
atten ai</w>
T attenai</w>
out sider</w>
nine teenth</w>
pri ze</w>
j amin</w>
ha sti
fore men</w>
difficul ty</w>
spea kest</w>
w ers</w>
res ults</w>
persecu tions</w>
c it
Ne ko
do cu
Merar ites</w>
refu ge
fif ties</w>
a -
pla tea
fla shing</w>
M ini
' Please</w>
ze dek</w>
Mepha ath</w>
sna tch</w>
re presen
envi ous</w>
6 ,000</w>
repro ved</w>
hi moth</w>
ar ite</w>
weigh s</w>
s ung</w>
require ments</w>
— as</w>
she ls</w>
porti co</w>
bu shels</w>
ble -
decei ving</w>
tempor ary</w>
desi reth</w>
App oint</w>
Perizz ite</w>
to ta
tota led</w>
co ol</w>
Viol ence</w>
regar ds</w>
in eth</w>
emb al
Shelo moth</w>
Liby a</w>
Han amel</w>
Ad dar</w>
sco ff</w>
compe lled</w>
requ ests</w>
gen u
Jerusa lem
Az ari
sta ges</w>
liba tion</w>
se ment</w>
po lice</w>
2 50</w>
we -
Aho hite</w>
tra ining</w>
l ur
enti al</w>
To garmah</w>
in ers</w>
th ing—
2 9</w>
sho e</w>
1 20</w>
fu tile</w>
la cked</w>
ob serving</w>
mis fortune</w>
laugh ing</w>
cir cu
idea s</w>
acc ess</w>
Sen ir</w>
sta tion</w>
offen ses</w>
inter nal</w>
blo cks</w>
any way</w>
tra dition</w>
ch op</w>
in an</w>
vi pers</w>
he- goat</w>
li ken</w>
la ver</w>
end less</w>
Galli o</w>
pos sibly</w>
Deme trius</w>
spar k
r ant</w>
g el</w>
corre cted</w>
vin e-
gu l
harlo try</w>
dd el</w>
ad di
buck ler</w>
Shu bael</w>
P ub
con tri
approach es</w>
id ity</w>
si ster
C ir
tuni cs</w>
exc ited</w>
con struction</w>
rou se</w>
ex tra
adop ted</w>
belong ings</w>
P il
Ca inan</w>
dra ined</w>
occur red</w>
depo sit</w>
entran ces</w>
up ha</w>
dres sers</w>
bi ll</w>
D is
re ces
Joi akim</w>
wag on</w>
ub s</w>
threa ten</w>
grape -
Pon tius</w>
s -
drag ons</w>
Ha ti
har bor</w>
benefi ts</w>
f s</w>
na iled</w>
Chi ld</w>
t ow</w>
Ish- Bosheth</w>
tribun e</w>
resid ence</w>
5 2</w>
vege tation</w>
th some</w>
re mission</w>
her eafter</w>
abo th</w>
' unclean</w>
an ites</w>
contribu ted</w>
Beelzebu l</w>
reck on</w>
acci den
sugg ested</w>
monu ment</w>
con front</w>
color ed</w>
th i</w>
gra ciously</w>
shi r
communi on</w>
ear nest</w>
orna ment</w>
qu art</w>
co oking</w>
ab ounding</w>
vani shed</w>
toler ate</w>
on —
fashi on</w>
Persi an</w>
Pas eah</w>
Go d—</w>
Do than</w>
Sar dis</w>
them —</w>
rebu kes</w>
hand fuls</w>
lan d—
co stly</w>
Nazi rites</w>
Az gad</w>
yiel ded</w>
sca ll</w>
app les</w>
Gali leans</w>
blemi shed</w>
Nazar ene</w>
y ards</w>
ca tches</w>
Beth- shemesh</w>
mai den</w>
la tti
da ma
E ra
Egyp t—
craw l</w>
pa tri
fe els</w>
devasta tion</w>
sti c</w>
stal k</w>
signi fic
loa thsome</w>
gra ting</w>
man i
fif tieth</w>
decei ves</w>
re cl
genealogi cal</w>
com mo
sa l</w>
du ll</w>
mercy- seat</w>
infir mities</w>
co ck</w>
conne cted</w>
com mon-
re c
du ke</w>
coun ts</w>
g eth</w>
light ened</w>
credit or</w>
rev ere</w>
mis lead</w>
Ad in</w>
w el</w>
responsibi lities</w>
ang eli
Gi ddel</w>
pl ow
kne e</w>
ci us</w>
Mi jamin</w>
sh ower</w>
en es</w>
na im</w>
c on</w>
mor sel</w>
dr in
s oun
prea chers</w>
Ara bs</w>
st able</w>
mi le</w>
da m</w>
Har arite</w>
Kede moth</w>
tor ch</w>
cen tly</w>
Se ll</w>
ba ttering</w>
Ever y
Bala dan</w>
se ct</w>
king ship</w>
Se me
confli ct</w>
Ha il</w>
car ing</w>
Eliza phan</w>
cruel ty</w>
Wor k</w>
delica cies</w>
shel ters</w>
ad j
oda ch</w>
goo d
ba ge</w>
She ep</w>
clu b</w>
un willing</w>
Ab′ salom</w>
some what</w>
ha stened</w>
cir cled</w>
car case</w>
i so
authori zed</w>
almon ds</w>
Fe ed</w>
thorn bushes</w>
glo at</w>
fi lle
langu i
jo int</w>
fugi tive</w>
puni sh
sp rang</w>
r ents</w>
lea ped</w>
def in
bul war
re ling</w>
splen did</w>
li te</w>
compreh end</w>
tra in</w>
corrup tly</w>
Disa ster</w>
A no
origin al</w>
go al</w>
wea ther</w>
un done</w>
teach eth</w>
sy mp
promo te</w>
plat form</w>
decei ver</w>
to- morrow</w>
Bran ch</w>
si m</w>
Ha sh
hon estly</w>
ani ′ah</w>
ne phe
arr ang
prophe tic</w>
re moving</w>
deser ving</w>
Bere kiah</w>
E ven
Samar ′ia</w>
A en
B ear</w>
house top</w>
re ins</w>
loo ted</w>
con stra
me ts</w>
accusa tions</w>
Sheth ar
he *</w>
crimin al</w>
child hood</w>
* he*</w>
inf ant</w>
stead fast
qu e
sp on
pp ers</w>
en vo
o ths</w>
Beth- el</w>
fi rep
c tors</w>
sacrifi cial</w>
strugg le</w>
over comes</w>
confes sing</w>
restra int</w>
pub lish</w>
loo k
for gets</w>
distres ses</w>
a x
Che dorlaomer</w>
represen ta
au dience</w>
Na ph
Rul er</w>
a ph</w>
compen sation</w>
in come</w>
d les</w>
offer eth</w>
g ly</w>
A holi
en ri
De uel</w>
travel ers</w>
ju ice</w>
hun ting</w>
Tob ijah</w>
lamen ted</w>
travel er</w>
gri p</w>
Whi ther</w>
Az ub
ste m</w>
hel mets</w>
bri m</w>
5 ,
nit ure</w>
lea gue</w>
fur niture</w>
lab oured</w>
hasti ly</w>
depar ture</w>
Be cher</w>
thirty- five</w>
Shim ri</w>
T ha
comfor ting</w>
tur b
turb ans</w>
ha y</w>
big ger</w>
z ards</w>
sta ins</w>
haw k</w>
f ancy</w>
k ine</w>
humili ation</w>
lon ely</w>
s cho
relati on
l a</w>
I N
Ch erethites</w>
alli ance</w>
in c
Shu ah</w>
- el</w>
plea ding</w>
Sa ys</w>
Des cen
Comman d
ra vens</w>
o ting</w>
deliver ing</w>
equ ally</w>
3 2</w>
stea ls</w>
slow ly</w>
She mariah</w>
see meth</w>
s owing</w>
un believer</w>
backsli ding</w>
Ph ry
er ate</w>
Im nah</w>
Hab a
orda in</w>
dece ptive</w>
dea ths</w>
cou ri
N aboth</w>
i als</w>
pe or</w>
Ca use</w>
Am ra
over night</w>
e ws</w>
e well</w>
P or
Mi ca</w>
C en
repa iring</w>
Ch inner
car ts</w>
pi cks</w>
t ines</w>
mp ing</w>
fol ded</w>
acciden tally</w>
ll ous</w>
lea deth</w>
fortun e-
sta ir
Pu l</w>
1, 2
mi ll</w>
fe cti
d— and</w>
cont entious</w>
Ba ′
shre w
con tained</w>
psal tery</w>
K itti
ta stes</w>
pre ven
joyou s</w>
chan nels</w>
wor ries</w>
r ing
lu d</w>
uni mportant</w>
A shan</w>
bear ers</w>
buil deth</w>
Herodi as</w>
imi ta
Na amah</w>
vex ed</w>
re treat</w>
ja vel
judg eth</w>
wre cked</w>
bloo m</w>
1 75</w>
ki lleth</w>
E bi
plo tting</w>
guar d
grand daughter</w>
B ind</w>
bit ten</w>
Ken izz
un sear
unsear chable</w>
st el
rememb ering</w>
Do do</w>
hon esty</w>
enchan ters</w>
guardi ans</w>
thun dered</w>
sugg es
8 0</w>
ri p
medi ator</w>
fav orable</w>
Hanan el</w>
ge ms</w>
imi tate</w>
enro llment</w>
T reat</w>
t re</w>
rela tion</w>
Rebe c
impo sed</w>
ari ly</w>
K eri
tr a</w>
Hus him</w>
descri be</w>
vin dication</w>
oppon ent</w>
mor s</w>
Bu z</w>
pri sons</w>
Azub ah</w>
p ham</w>
disp layed</w>
con temp
Nab u
B el</w>
Hab or</w>
produ cing</w>
horse man</w>
gi a</w>
Ex cept</w>
treasur ers</w>
reig neth</w>
Pon tus</w>
white wash</w>
hi reling</w>
Ita ly</w>
1 ⁄
cons cious</w>
imp res
cho ked</w>
Sacrifi ce</w>
Psal ms</w>
crea se</w>
spe cta
se wed</w>
pu ffed</w>
' Master</w>
sa ti
depri ve</w>
inter ce
n -
beha ved</w>
bre e
disgra ceful</w>
d na
M uch</w>
Con tinu
di am
Rebec ca</w>
lu mp</w>
cea sing</w>
perver seness</w>
Ja lam</w>
ha re
ra cks</w>
virtu e</w>
pu lling</w>
ah —
Abi ′
trumpe ters</w>
s ity</w>
contain ers</w>
car eless</w>
anch ors</w>
Ha lah</w>
A hu
m —
insi st</w>
s es
w less</w>
mighti ly</w>
d le
Japh let</w>
Pad dan</w>
' Hear</w>
A u
tur mo
ga tions</w>
ad ore</w>
ni a</w>
critici ze</w>
pray eth</w>
accoun table</w>
Neko da</w>
res ol
4 ,000</w>
su it</w>
chea ted</w>
blasphe mies</w>
constru cted</w>
accomp any</w>
ple dged</w>
revo lt</w>
T han</w>
op poses</w>
Ber ea</w>
spo ons</w>
ki dna
gre es</w>
1 30</w>
' See</w>
de fied</w>
ter ies</w>
produ cts</w>
emi ssion</w>
stubborn ly</w>
ag ony</w>
zz le</w>
P uni
' O</w>
some day</w>
le —</w>
awa ken</w>
Phry gia</w>
Ber nice</w>
je wel</w>
ga ge</w>
thi stle</w>
ra s</w>
meth yst</w>
lo od</w>
immor tality</w>
gra in-
er -
Ahi lud</w>
pen ny</w>
de test</w>
ble eding</w>
Mat tan</w>
Gi hon</w>
Clau dius</w>
kno cks</w>
in fla
Zipp orah</w>
Maac hah</w>
es e</w>
can ce
Phoeni cia</w>
resi des</w>
Ebi asaph</w>
concer ns</w>
T aha
Mes hi
stor age</w>
c ons</w>
tu als</w>
dra weth</w>
bu ck</w>
zz ling</w>
ul dah</w>
turmo il</w>
trust eth</w>
H uldah</w>
Ara b</w>
yar ns</w>
exal ts</w>
platea u</w>
evil- doer</w>
bl ush</w>
Rema in</w>
por t</w>
gu shed</w>
dd les</w>
Na amathite</w>
some times</w>
pur ged</w>
t ance</w>
Amale kite</w>
stup idity</w>
ligh tly</w>
demon strate</w>
E u
menstru al</w>
bles seth</w>
buil der</w>
bo ′
imprison ment</w>
whel ps</w>
tu mn</w>
sm iting</w>
radi ant</w>
lig ree</w>
fi ligree</w>
Mib sam</w>
Gir d</w>
perfu med</w>
thou *</w>
over pow
a methyst</w>
* thou*</w>
thi ckets</w>
co llar</w>
A ner</w>
' Bring</w>
te cost</w>
skir t</w>
ha b</w>
Per azim</w>
Pen tecost</w>
H ena</w>
wra p</w>
peri shes</w>
Era stus</w>
Ann als</w>
Out side</w>
Malchi ah</w>
tra ffi
promo ted</w>
Bath sheba</w>
t— a</w>
Gilea dite</w>
un blemished</w>
thresh ing-
reconci le</w>
mo cks</w>
rou te</w>
lif teth</w>
bab es</w>
stan ces</w>
ramp s</w>
cou pled</w>
exi stence</w>
ev ed</w>
chariote ers</w>
' Whoever</w>
lea ping</w>
Sa le
she wn</w>
bo iling</w>
atten ded</w>
un changing</w>
o ds</w>
am ed</w>
B ury</w>
te ous</w>
diam ond</w>
enga ge</w>
Meshe za
vio late</w>
pe ct</w>
mo tioned</w>
bo d
scor ner</w>
rou ghout</w>
grand sons</w>
Th roughout</w>
' Yahweh</w>
pursu it</w>
fer red</w>
' clean</w>
Steph an
sli pp
regu lation</w>
Zil lah</w>
fa ster</w>
emi sh</w>
disgu sted</w>
ch emish</w>
li mbs</w>
gh s</w>
domes tic</w>
con sen
A sen
stal ls</w>
spe ed</w>
ser vices</w>
' the</w>
stab bed</w>
r eared</w>
first ling</w>
c keth</w>
evid ent</w>
en grave</w>
thi cket</w>
th west</w>
me w</w>
fig ures</w>
sle ep
in stal
Faith ful</w>
lu xu
def ence</w>
favor ably</w>
cu lar</w>
H ope</w>
ty pe</w>
sei zes</w>
Fa thers</w>
continu ing</w>
c -
A scribe</w>
colle ction</w>
ven om</w>
twi st</w>
in tes
ascen ding</w>
H igh
imp ati
Sime onites</w>
Descen dants</w>
Wor ds</w>
u gly</w>
mb ering</w>
Li e</w>
n el</w>
le i
bar racks</w>
ba y</w>
seventy- two</w>
over turned</w>
conne ction</w>
N ight</w>
Je zer</w>
under foot</w>
craf ty</w>
color s</w>
Hi rah</w>
ob vi
atta ch</w>
eli ta</w>
den arius</w>
ther to</w>
P ith
2 0,000</w>
mani fold</w>
here by</w>
adop tion</w>
Ho sanna</w>
G eri
B un
knoc king</w>
enti ced</w>
Mi letus</w>
red dish</w>
ostri ch</w>
over taken</w>
lev i
un godliness</w>
ev a</w>
din ess</w>
subje cted</w>
ru bbed</w>
Sal lu</w>
infir mity</w>
le ga
h en</w>
tu de</w>
drea mer</w>
distingu ish</w>
chil dren
O ld</w>
tter eth</w>
tar get</w>
' Suppose</w>
4 0
acknowle dged</w>
Geshu rites</w>
on e—
gi vest</w>
ad ver
smo king</w>
th —</w>
da tion</w>
Archi te</w>
bu ys</w>
sig n
ang le</w>
Kitti m</w>
out skirts</w>
be lts</w>
Y ours</w>
Ab di</w>
Hor i</w>
Serv ants</w>
Me he
au tumn</w>
S mo
Ana kites</w>
exto l</w>
confid ently</w>
Israel —
conver t</w>
con cluded</w>
R ev
task masters</w>
drin keth</w>
Nea riah</w>
spe ck</w>
admon ish</w>
Geri zim</w>
Aha va</w>
slipp ery</w>
que ens</w>
pear l</w>
fellow -
ri cher</w>
recompen sed</w>
con tem
Meshi lle
mir ror</w>
fla wless</w>
lea der
app re
be headed</w>
′ u
quanti ty</w>
comfor ters</w>
imp eri
en closed</w>
shi ttim</w>
dep ends</w>
Sa ints</w>
fore told</w>
for gives</w>
cum ci
Cir cumci
prepar ations</w>
mock er</w>
fol k</w>
bro od</w>
twenty- seven</w>
tt en
mar vel</w>
ar ba</w>
stair way</w>
ce —
ax e</w>
work manship</w>
soli te</w>
Jehoi ′
hin o
di ce</w>
tran sla
ey e
S to
Ja d
star ed</w>
Hamu tal</w>
vine dressers</w>
si ties</w>
cl ubs</w>
K abzeel</w>
Hasha b
L ower</w>
reason ing</w>
O rion</w>
K anah</w>
Bo oths</w>
Per ga</w>
Shim eah</w>
Ahi man</w>
z el</w>
trou ghs</w>
star ving</w>
e w
pre ce
en quire</w>
bes tow</w>
t ongs</w>
s kin
pl under
pil gri
im mo
anxi ety</w>
assa s
scor ned</w>
pi pes</w>
contain er</w>
Ari ma
fi x</w>
Chalde ′
conta ct</w>
alien ated</w>
A vi
scep tre</w>
rep tiles</w>
no body</w>
war dly</w>
sepul cher</w>
declar ation
li city</w>
ce —</w>
langu ish</w>
bu dded</w>
bri ef</w>
rebe lling</w>
hi ts</w>
hel p
Mi zzah</w>
Fo o
St one</w>
' S</w>
she dding</w>
O mar</w>
J arib</w>
Hamu l</w>
desper ate</w>
pac k</w>
Stephan as</w>
un ned</w>
sorcer ies</w>
ri ot</w>
overpow ered</w>
gra te</w>
di c
T ou
Je tu
Arabi ans</w>
tho lo
tholo mew</w>
she ets</w>
chea ting</w>
Bar tholomew</w>
Bakbu kiah</w>
peri ls</w>
in dul
for evermore</w>
Ho lon</w>
sh ′
Car chemish</w>
O ded</w>
pro cession</w>
oppres ses</w>
man ure</w>
fi shing</w>
cha mber
al ed</w>
we- insp
we-insp iring</w>
un justly</w>
stu mbles</w>
re presents</w>
reck oning</w>
lan ded</w>
strengthe ning</w>
re duce</w>
ban us</w>
in spired</w>
a cah</w>
wa di</w>
dev el
sojour ned</w>
ma imed</w>
accep tance</w>
U z
dou ble-
Sel a</w>
ti el</w>
dis sen
mee tings</w>
inner most</w>
sepulch res</w>
A ba
yr us</w>
ra vine</w>
Me mu
org ani
man uel</w>
di an</w>
Ja sho
un walled</w>
mu zzle</w>
extingu ished</w>
C ri
Bun ni</w>
p him
phim us</w>
ex tra</w>
dit ch</w>
Zim mah</w>
Tro phimus</w>
st ice</w>
a van</w>
Ju stice</w>
Es ar
she -
pi tied</w>
da in
Israeli </w>
Ahi sa
bla de</w>
Az mon</w>
si es</w>
sha d
hur un</w>
Tre mble</w>
Jes hurun</w>
shame fully</w>
che ck</w>
Gala l</w>
me l
couri ers</w>
We ep</w>
ew es</w>
ca s</w>
sin ews</w>
Ex al
ve ils</w>
diade m</w>
aga te</w>
in quir
good- bye</w>
ti lity</w>
sai dst</w>
da zzling</w>
assas sin
A k
ur ging</w>
sh ined</w>
utter eth</w>
under go</w>
v ey
glori fying</w>
Th or
regre t</w>
labor er</w>
horse back</w>
ha ch</w>
extra ordinary</w>
be ho
Po ol</w>
d ine</w>
relation ship</w>
li mited</w>
exten ding</w>
be ll</w>
ma yst</w>
po mp</w>
fell ows</w>
Abe d-
prepar es</w>
Me hi
des cribed</w>
O F
OF </w>
G over
Jad du
Th ank</w>
Ith ran</w>
Asen ath</w>
int ently</w>
' Friend</w>
ken az</w>
heavi er</w>
Ma hath</w>
war fare</w>
punish ments</w>
Z al
ra hiah</w>
vin ess</w>
qua ked</w>
Pi leser</w>
rea cher</w>
P reacher</w>
tti r</w>
ir ri
Ja ttir</w>
wan ders</w>
strea ked</w>
6 0
twenty- seventh</w>
ste ep</w>
rea ped</w>
ou tra
ast ounded</w>
establi shes</w>
or derly</w>
discer nment</w>
pe g</w>
parti cipa
P ra
El y
worshi pping</w>
promi scu
norma l</w>
it ch</w>
hea ted</w>
Mana hath</w>
ou reth</w>
expe lled</w>
ck ling</w>
canc el</w>
s ne
Chal da
physi cians</w>
Chana an</w>
Bam oth</w>
go at
symp a
shr ine</w>
se du
Streng th</w>
him —
extor tion</w>
ten ants</w>
dissol ved</w>
infli ct</w>
Ga tam</w>
ut most</w>
soa ked</w>
Al pha
Jaddu a</w>
El pa
s— all</w>
mai d-
l enti
enri ched</w>
Command ments</w>
t ching</w>
n early</w>
def ra
co ll
Na phi
demo lish</w>
Streng then</w>
fig -tree</w>
ex pi
adj ure</w>
Jetu r</w>
eli minated</w>
cou ches</w>
H owl</w>
commit teth</w>
cal cu
tramp ling</w>
Ma on</w>
staf fs</w>
mater ials</w>
her oes</w>
craw ls</w>
se ller</w>
den ies</w>
Ti sh
Jo si
wi lls</w>
re moves</w>
now here</w>
Wh ence</w>
O me
Eli as</w>
Al pha</w>
un profitable</w>
thu si
Reho both</w>
g leaned</w>
N op
B ith
s care</w>
h esi
gl owing</w>
a we-inspiring</w>
sw ea
boast ful</w>
it ely</w>
revi le</w>
kn eam</w>
Jo kneam</w>
Hor onite</w>
luxu ri
tal ks</w>
s sah</w>
ex ul
de grees</w>
th ru
chry solite</w>
hand breadth</w>
witnes sed</w>
d less</w>
d da
Mehe ta
Jasho beam</w>
gar bage</w>
Ha t
wi dow
escap es</w>
R ho
Aba ddon</w>
stro ve</w>
ser a</w>
′ el</w>
bbe thai</w>
Sha bbethai</w>
S la
Ra pha</w>
he els</w>
P lei
L ake</w>
Alpha eus</w>
sw eat</w>
mon i</w>
enchan tments</w>
divi des</w>
Si ddim</w>
deligh tful</w>
Hosha iah</w>
maid servants</w>
z u
un fruitful</w>
Shel ters</w>
re lied</w>
Tiberi as</w>
re count</w>
Shethar -
ab solutely</w>
men -
favor ite</w>
f requ
bl an
whi ter</w>
war- wagons</w>
vers ary</w>
B lood</w>
threshing- floor</w>
orig in</w>
che ws</w>
Sibbe cai</w>
cap e</w>
Zeph on</w>
Re ca
ri p</w>
hol der</w>
child birth</w>
si mili
ri sk</w>
quo ise</w>
ele ction</w>
Gala ad</w>
there to</w>
signific ant</w>
exc el</w>
dev ious</w>
Under stand</w>
thres holds</w>
for tieth</w>
E tam</w>
We eks</w>
Ti e</w>
sorcer y</w>
prof aning</w>
pro consu
in wardly</w>
destro yeth</w>
sprea deth</w>
kk u
harves ting</w>
prun ing</w>
preven ted</w>
hino am</w>
Az riel</w>
A hinoam</w>
van us</w>
appea reth</w>
K elita</w>
lea fy</w>
impati ent</w>
Esh ta
B l
sha ph</w>
na il</w>
m in</w>
defen der</w>
Ash bel</w>
thri ce</w>
po ints</w>
Shu al</w>
2 8
fabri c</w>
— And</w>
ta im</w>
Mi s
Ash kenaz</w>
fra ud</w>
z ard</w>
overwhel ming</w>
man ger</w>
body guard</w>
7 2</w>
su pre
nee dle
fle eth</w>
will ows</w>
d angers</w>
fortun ate</w>
cha st
tra ditions</w>
Pe let</w>
ma sh</w>
bur den
trait or</w>
spe cially</w>
e z</w>
cou pl
conten tions</w>
Ome ga</w>
sent enced</w>
pal m-
ta ted</w>
pre de
n- out</w>
un wise</w>
law -keepers</w>
envi ed</w>
coven an
en coun
grass lands</w>
Ch en
tambour ine</w>
peacea ble</w>
flo ors</w>
J ah</w>
ze lles</w>
me on</w>
ga zelles</w>
Ben hadad</w>
hi deth</w>
Moab itess</w>
un tie</w>
sco ffers</w>
a ven</w>
bla thaim</w>
x i
p ins</w>
circum stances</w>
Ha did</w>
Gover nor</w>
t rance</w>
wea knesses</w>
po inted</w>
dar es</w>
continu ously</w>
Plei ades</w>
worshi ppers</w>
v ites</w>
b im</w>
aw ful</w>
S pain</w>
z on</w>
ur gent</w>
Naphi sh</w>
stra yed</w>
si vely</w>
s is</w>
docu ment</w>
enter eth</w>
en an</w>
Liby ans</w>
Ephesi ans</w>
ver dict</w>
sprou ted</w>
e d—
pi g</w>
ob stin
ridicu led</w>
pre fer</w>
sp ur
genu ine</w>
fla ttery</w>
C ha
pas sa
Zi ha</w>
requ ite</w>
pro test</w>
ev ent</w>
ef forts</w>
wor n-out</w>
Miz raim</w>
zi ′ah</w>
peti tions</w>
M in
sa ddle</w>
Matt enai</w>
tur quoise</w>
sted fast</w>
relen ted</w>
par take</w>
mo ab</w>
contri te</w>
se w</w>
h ers</w>
privi le
kk esh</w>
brother ly</w>
I kkesh</w>
1 00,000</w>
negle cted</w>
abi ding</w>
ra mp</w>
mar ker</w>
Gar eb</w>
ru leth</w>
edu cated</w>
nephe w</w>
ki sses</w>
hard ships</w>
al -
grasshop per</w>
Je ka
Ith rite</w>
coll ea
Shi hor</w>
he e
t led</w>
ve- born</w>
smi le</w>
sla ck</w>
him ham</w>
I j
C himham</w>
Azz ur</w>
ro e</w>
encoura ging</w>
Th ings</w>
needle work</w>
even ings</w>
b ark</w>
Smo ke</w>
Nico la
vali antly</w>
v or</w>
thi ans</w>
every body</w>
¾ </w>
en as</w>
corre ctly</w>
S op
Keri oth</w>
ver i
run ner</w>
ch angers</w>
Eli ada</w>
run ners</w>
horri fied</w>
bal sam</w>
L earn</w>
v vah</w>
ro lling</w>
cro w</w>
Pu ah</w>
rou d</w>
cruel ly</w>
cei ving</w>
rin sed</w>
fear some</w>
atta ckers</w>
wear iness</w>
swea reth</w>
prede cess
hare m</w>
Ash er
bb ing</w>
si </w>
en thusi
scar cely</w>
numer able</w>
no i
amoun ts</w>
Pres ence</w>
min ation</w>
commo tion</w>
Jer iah</w>
9 :
g enti
l st</w>
dimini shed</w>
craft iness</w>
ser i
drea ded</w>
S hop
Alexandri a</w>
ta me</w>
gli ttering</w>
c teth</w>
Ne muel</w>
Ne cho</w>
S laughter</w>
preser ves</w>
over power</w>
Jo y</w>
y ard</w>
the th</w>
exi sts</w>
nati ve-born</w>
' Have</w>
o sor</w>
don osor</w>
cho donosor</w>
Nabu chodonosor</w>
Le b
As riel</w>
moun ds</w>
estee m</w>
What soever</w>
so -
as keth</w>
pre tended</w>
in formation</w>
g an
soa p</w>
gru mbled</w>
f an
A diel</w>
murmur ings</w>
Shal man
gre ets</w>
es er</w>
fa ileth</w>
as suredly</w>
accu ser</w>
M as
where unto</w>
ti ble</w>
sa shes</w>
wind storm</w>
st ent</w>
brea thing</w>
par doned</w>
gro ve</w>
Si sera</w>
H ere
jac inth</w>
deman ding</w>
P au
fa tal</w>
ch -
carri age</w>
Pi ra
Elpa al</w>
javel in</w>
ba thah</w>
ad ding</w>
Maha rai</w>
Gi b
G in
Bil gah</w>
Be tween</w>
li mb</w>
intes tines</w>
ba tch</w>
off ence</w>
mid a</w>
She mida</w>
fulfi lling</w>
sp arrow</w>
ma g
pl ough
ki ds</w>
twenty- first</w>
imp ort
Sil vanus</w>
Ne phi
F ight</w>
tu re
hand maids</w>
demon -
coven ants</w>
batt le-
ca s
Shi ph
Meheta bel</w>
vindica ted</w>
s cent</w>
peri ods</w>
ren owned</w>
condem ns</w>
be fallen</w>
Shun em</w>
ti ght</w>
so- called</w>
con clu
F ish</w>
quarre led</w>
de gree</w>
mo ld</w>
danc ed</w>
besie ging</w>
self- controlled</w>
f ow
depri ved</w>
I vvah</w>
utter ance</w>
mock ery</w>
bo dily</w>
epi stle</w>
cl eared</w>
T ran
Synago gue</w>
She phe
Qui ck</w>
C hel
op position</w>
hea viness</w>
Pe laiah</w>
tor ture</w>
tain eth</w>
Pri de</w>
se -
in numerable</w>
man nah</w>
El te
oth ai</w>
A reli
zz am</w>
rep eat</w>
S p
por ches</w>
do me</w>
declaration —</w>
spee ches</w>
pur est</w>
evil doer</w>
Ken ites</w>
wrest led</w>
him —</w>
ex ces
Benjamin ites</w>
mid wife</w>
discu ssed</w>
bor rowed</w>
a v
Mi llo</w>
Ara ma
occup ation</w>
envo ys</w>
as su
Mar ch</w>
sco ffer</w>
fro ward</w>
expen se</w>
wa fer</w>
bla ck
am mite</w>
Shun ammite</w>
on ward</w>
ri ly</w>
pla gued</w>
necess ity</w>
ex ce
ck a
Shalman eser</w>
Adra mmelech</w>
war ming</w>
wa tering</w>
s nor
corre cts</w>
pige on</w>
per adventure</w>
high lands</w>
car nal</w>
Ib har</w>
o sity</w>
mol ded</w>
hol den</w>
discu ssion</w>
cra ving</w>
defin itely</w>
mix ture</w>
dun g
Da vi
s ling</w>
head long</w>
addi tional</w>
para dise</w>
measure ment</w>
il legal</w>
fail ure</w>
d fold</w>
abo ard</w>
Eze m</w>
son -in-law</w>
Ch ange</w>
mu l
tri cks</w>
how ling</w>
I gal</w>
lenti ls</w>
— so</w>
la ting</w>
ban da
rai ding</w>
ex cu
Ch es
mini stration</w>
pro mp
ing stock</w>
gi ble</w>
ref er
She ph
' Our</w>
la sted</w>
su stained</w>
advi ser</w>
S up
Ahisa mach</w>
sapp hires</w>
covet ous</w>
dro wn</w>
Elisha h</w>
up side</w>
un aware</w>
past ors</w>
exhor ted</w>
ti tle</w>
supre me</w>
od our</w>
reproach es</w>
market places</w>
humb ly</w>
I ri
spi der</w>
skil ful</w>
plan ks</w>
for asmuch</w>
sto oped</w>
obstin ate</w>
compar ison</w>
F al
wine presses</w>
relati ves—
ll us</w>
passa ge
sp ending</w>
ma ss</w>
foll oweth</w>
ca ter
administra tors</w>
abo lished</w>
n ite</w>
Jot bathah</w>
Gin ne
oli ve-
ch op
tri mmed</w>
ar ge</w>
L arge</w>
Ar d</w>
de ls</w>
accu rate</w>
S or
R ub
thirty- six</w>
thir tieth</w>
vi ties</w>
sojour neth</w>
ha sted</w>
ar chs</w>
shar pen</w>
al u
. .</w>
a dah</w>
S ong</w>
Mesheza bel</w>
two- tenths</w>
the a
am ong
a po
Zi don</w>
the -
cloa ks</w>
Jeka miah</w>
widow hood</w>
reig ning</w>
conta minated</w>
bo′ am</w>
stru cture</w>
du sk</w>
comple tion</w>
for fe
en joy
m ns</w>
hy mns</w>
assa ult</w>
ze ment</w>
va il</w>
hur l</w>
Tou ch</w>
sche me</w>
Ga th-
ma st</w>
bla zed</w>
ri ddles</w>
wea ve</w>
interpre ter</w>
H </w>
di gs</w>
H un
be es</w>
ar a</w>
Ad versary</w>
har lots</w>
confi sca
two- edged</w>
mon ah</w>
candlesti cks</w>
ri bs</w>
pla ted</w>
acqua inted</w>
six teenth</w>
la den</w>
justi fication</w>
per sever
illu stration</w>
lin ea
cere ly</w>
pa ined</w>
harves ters</w>
deb tor</w>
ann ah</w>
P ur
transla ted</w>
pa tro
or dering</w>
ac qu
pou reth</w>
marve llous</w>
ra vished</w>
k -
princi ples</w>
presump tuously</w>
ev alu
. ..</w>
up lifted</w>
sp ire</w>
it —</w>
ing- places</w>
st all</w>
eli </w>
- day</w>
griev ously</w>
conso le</w>
invo ke</w>
S k
Mo ser
wri sts</w>
tten ness</w>
fa n</w>
demon- possessed</w>
Spi ri
E ne
Che phi
orchar d</w>
al co
acquaint ances</w>
' She</w>
th reat</w>
clo ds</w>
shear ers</w>
orac les</w>
ap him</w>
a ah</w>
Ga ash</w>
some body</w>
emp tiness</w>
f ence</w>
Maha lath</w>
I ron</w>
wi ck</w>
cum in</w>
contemp tible</w>
For ty</w>
brea thes</w>
Baa lath</w>
pa tch</w>
app oin
T ur
Ke muel</w>
Foun tain</w>
neck lace</w>
con ditions</w>
bar ely</w>
orchar ds</w>
great- grandson</w>
d ship</w>
near er</w>
mus cles</w>
accep ting</w>
regi ster</w>
li kes</w>
hill side</w>
Le bo
wa it
ss us</w>
timbre ls</w>
holocau sts</w>
' After</w>
previ ous</w>
anti christ</w>
gra teful</w>
collea gues</w>
occa sions</w>
a la
musi c-
genti les</w>
among st</w>
deligh teth</w>
To i</w>
pur se</w>
' May</w>
organi zed</w>
de pra
Kenizz ite</w>
itu de</w>
forty- four</w>
cover t</w>
W es
Jeb us</w>
ck les</w>
Sho mer</w>
qua il</w>
laugh ingstock</w>
f es
bi sh</w>
pre fects</w>
natura lly</w>
Sa beans</w>
suppo sing</w>
mar y</w>
li ath</w>
breast plates</w>
atta ined</w>
Go liath</w>
ver ing</w>
th ing
insol ent</w>
Phi col</w>
sp un</w>
accu sto
Gali lean</w>
thresh ed</w>
ru mors</w>
but ler</w>
yo kes</w>
pi ti
ith a</w>
Tab itha</w>
foot men</w>
fe ig
ar dly</w>
accomp lish
Aen eas</w>
Kiriath- arba</w>
F ind</w>
imp lor
b at</w>
Juda is
influ ence</w>
in n</w>
burden some</w>
Repha ites</w>
A p
nee dle</w>
bri lli
tas ks</w>
T reason</w>
Memu can</w>
Go l
forti fications</w>
Au gu
su peri
in fected</w>
di verse</w>
le thai</w>
Mor es
Mini amin</w>
res t—a</w>
simili tude</w>
run neth</w>
sh ear</w>
instal led</w>
tent -
hang s</w>
whisp ering</w>
as ed</w>
Thor ns</w>
won t</w>
provo cation</w>
indig nant</w>
ha mah</w>
Pre paration</w>
in fecti
infecti ous</w>
ha lt</w>
es t
Hel dai</w>
suc cee
conf erred</w>
attra ctive</w>
Poti pher
Abi melek</w>
Ner ga
Ephrai mites</w>
va ts</w>
sub ver
sil ly</w>
comfor ter</w>
dis may</w>
di cta
wi zards</w>
migh test</w>
for ds</w>
bo ss</w>
Ib leam</w>
er ath</w>
Un ni</w>
pro strate</w>
zebu b</w>
tribu tion</w>
sca ttering</w>
de dom</w>
accusto med</w>
Obe dedom</w>
s oweth</w>
Sla ves</w>
Mo ve</w>
Aza ziah</w>
S ev
t les</w>
pla stered</w>
pa vi
gold smiths</w>
Bl ind</w>
crow ded</w>
coupl ing</w>
ru mbling</w>
re fine</w>
deli ty</w>
Har sha</w>
n ites</w>
cu tters</w>
accomplish ments</w>
Where in</w>
Serv ant</w>
Iz ha
trouble makers</w>
spar ks</w>
new born</w>
p tion</w>
distribu tion</w>
sal ty</w>
Li ving</w>
sha tters</w>
g lean
doc tors</w>
tru th
stri ctly</w>
revo ke</w>
Zi za</w>
Bin ea</w>
ma tch</w>
incu r</w>
hundre dfold</w>
bro w</w>
attenti vely</w>
vi </w>
con tains</w>
Tim na
2 6</w>
' Prepare</w>
mission aries</w>
honor ing</w>
fille ts</w>
convi ct</w>
assur ance</w>
practi cing</w>
ar ch
Recha bites</w>
I r</w>
long suffering</w>
an t
Chalde′ ans</w>
de cked</w>
Melchi zedek</w>
Promi se</w>
Me on</w>
les hip</w>
cas sia</w>
proper ly</w>
m yri
3 4</w>
' Now</w>
elev ated</w>
la ze</w>
some how</w>
An cient</w>
har mony</w>
' Surely</w>
psal teries</w>
half way</w>
deli ber
a pr
Ha ma
per taining</w>
der eth</w>
T il
wai st
shir t</w>
re tribution</w>
len der</w>
ho meless</w>
fa w
cultiva ted</w>
M our
obvi ous</w>
gar den
de l
consci ences</w>
boa sted</w>
wi de
toler able</w>
hospi tality</w>
hee ded</w>
Ju lius</w>
st unned</w>
oppres sing</w>
Onesi ph
pres sing</w>
expe dient</w>
bo oth</w>
hi therto</w>
gener osity</w>
four -
ev angeli
J anoah</w>
' Thou</w>
den ying</w>
birth day</w>
Sho ot</w>
Sale cah</w>
ma ting</w>
Has sen
embroi derer</w>
Ad d</w>
si el</w>
har t</w>
fortun e
wor rying</w>
slan dered</w>
par ate</w>
com mission</w>
Se parate</w>
God- fearing</w>
pub lished</w>
for tify</w>
crow ed</w>
Z or
G rea
pit chers</w>
j es
expen ses</w>
desecra ted</w>
ve he
tres pas
la mite</w>
berea ve</w>
we ll
fa des</w>
app ointing</w>
i er</w>
E m
stal ks</w>
refuge es</w>
rea sons</w>
amb u
transgres sor</w>
ston ecu
in ju
announ cement</w>
Arima the
win e-
nu mbering</w>
dep ended</w>
increa seth</w>
revi ved</w>
ne go</w>
engra vings</w>
ab laze</w>
simp licity</w>
ar cher</w>
Be zai</w>
far ewell</w>
b led</w>
Res pect</w>
sho ck</w>
Chri st
fa ults</w>
ama zement</w>
parti al</w>
i ve</w>
flood waters</w>
ban ners</w>
sh -
mea ls</w>
f arms</w>
Ter rors</w>
T ear</w>
Puni sh</w>
2 :
tion ers</w>
p hath</w>
jo ke</w>
en ab
earth quakes</w>
Car me
spon ge</w>
den ounce</w>
M y
Iri jah</w>
sixty- six</w>
pa inted</w>
mar iners</w>
T an
dri ver</w>
Judais m</w>
mali cious</w>
co h</w>
a wait</w>
sea coast</w>
dama ged</w>
E ver</w>
passage way</w>
Me de</w>
Ta king</w>
vi gor</w>
revi ling</w>
W on
prophesi eth</w>
s es—
pro ving</w>
lef to
Jehon athan</w>
Can st</w>
' From</w>
res tless</w>
ne ther</w>
de pu
scra ped</w>
Beer othite</w>
ten ding</w>
clea veth</w>
al legi
Dab erath</w>
Chephi rah</w>
hen na</w>
bun ch</w>
Jo sa
Wher eas</w>
in ations</w>
har d-
Ly sias</w>
humili ate</w>
armor y</w>
wrong fully</w>
doub ting</w>
ob lations</w>
investi gate</w>
sher d</w>
leop ards</w>
gu m</w>
fla sk</w>
whi pped</w>
li ze</w>
assi sted</w>
under standeth</w>
scu m</w>
ador n</w>
Ter ri
un clean
tor rents</w>
re ct</w>
journe ying</w>
Onesiph orus</w>
un faithfully</w>
Ash hur</w>
la shes</w>
Shephe lah</w>
sen ses</w>
belong eth</w>
Caph tor
T el-
Conse cra
fa ction</w>
Kirja th
Foo lish</w>
ing es</w>
exp ired</w>
ye lled</w>
gra sp
S irs</w>
regar deth</w>
over flowed</w>
Uz al</w>
Gar den</w>
long -
ar ted</w>
tas sels</w>
bu el</w>
allegi ance</w>
cre eps</w>
tta avah</w>
suppor ting</w>
slaugh tering</w>
repea tedly</w>
ne iah</w>
help ful</w>
Sho ba
Ha ttaavah</w>
ex cre
pres u
min as</w>
ari ses</w>
Hor se</w>
hat ta
extre me</w>
Ebed- melech</w>
stor ing</w>
over board</w>
cru shes</w>
P un
Massa </w>
Im manuel</w>
Ach sah</w>
pe h</w>
exam ination</w>
tran sp
Ter tu
op er
Ja da</w>
thi ckness</w>
strugg led</w>
se duced</w>
ent angled</w>
re el</w>
in sides</w>
d ′
can als</w>
Manas sites</w>
well- watered</w>
accu mu
mit re</w>
for k</w>
fi delity</w>
extre mity</w>
a do
A void</w>
screa med</w>
pop lar</w>
da ub
Ti k
ze z</w>
fa t
d ons</w>
Par ents</w>
Meun ites</w>
Ish vi</w>
re da
reda th</w>
forni cations</w>
J an
- lands</w>
war med</w>
Elea ′zar</w>
un authorized</w>
dest iny</w>
de le
Pi si
Maa kah</w>
Ela sah</w>
stri ct</w>
edi fication</w>
El za
beho veth</w>
Jab in</w>
ple dges</w>
De f
' Therefore</w>
y ah</w>
enjo ying</w>
Mat that</w>
Chalda eans</w>
ex press</w>
es tr
Adoni kam</w>
stonecu tters</w>
e lo
conce it</w>
T el</w>
Arimathe a</w>
glutt on</w>
va p
reli eve</w>
out come</w>
o m
spo on</w>
serv itude</w>
sha ckles</w>
D eal</w>
shrew d</w>
pa th
lab ours</w>
Ba ali
with al</w>
con ven
he wers</w>
hara ss</w>
v au
man age</w>
er ase</w>
spla shed</w>
heavi ly</w>
fa tho
re turneth</w>
I ra
pi lots</w>
her ald</w>
chasti sement</w>
cau l</w>
bo z
bag gage</w>
Shu ppim</w>
f angs</w>
boun tifully</w>
dr esses</w>
Sa la
Ke bar</w>
7 50</w>
pe tals</w>
k able</w>
cur ds</w>
Every where</w>
knea ding</w>
ti ly</w>
sw earing</w>
perfu mer</w>
devasta te</w>
am ing</w>
Je h
trou gh</w>
ta ller</w>
strong -
g our
Fo od</w>
C e
a shore</w>
Tish bite</w>
Ri ches</w>
dri pping</w>
H es
Continu e</w>
har dness</w>
blasphe mous</w>
D ung</w>
in er</w>
She buel</w>
' All</w>
plea ds</w>
earli est</w>
cha i</w>
vi al</w>
excre ment</w>
annihi late</w>
op ag
happ ier</w>
Are opag
ra ces</w>
law giver</w>
i cs</w>
hea d-
ha ddon</w>
respe cts</w>
convin ce</w>
bo ttles</w>
ances tor
pac i
cap tors</w>
la p
Tertu llus</w>
k es
ha ter</w>
Ex cell
b raided</w>
aro ma
Chinner eth</w>
' Are</w>
sp ouse</w>
reve lations</w>
la del
ladel phia</w>
dro pping</w>
T ry
S myr
Phi ladelphia</w>
han ah</w>
en der</w>
un worthy</w>
provi ding</w>
pro tested</w>
cu cu
b light</w>
Go b</w>
ra f
fla gs</w>
ba ster</w>
app ado
ala baster</w>
C appado
loving- pity</w>
sa ws</w>
rever ent</w>
glean ings</w>
fol ding</w>
doub led</w>
a piece</w>
temp tations</w>
lamp -
k a</w>
Mith redath</w>
ter e
blo cked</w>
appor tioned</w>
E th
Caph tor</w>
Ara n</w>
P ap
Ach zib</w>
lla mite</w>
j uni
announ cing</w>
Sor row</w>
accoun ts</w>
sister -in-law</w>
comple x</w>
b ing</w>
K nowing</w>
Han g</w>
offi ces</w>
gener als</w>
fore front</w>
che ese</w>
vic tuals</w>
oin tments</w>
ris ked</w>
mid day</w>
ey es
Str ong</w>
For est</w>
7 0,000</w>
trespas s
conf esses</w>
elo qu
cho ir</w>
p ant</w>
R ead</w>
refle ct</w>
spac ious</w>
proconsu l</w>
garri son</w>
distingu ished</w>
le ph</w>
S pr
en circled</w>
Cur se</w>
3 6</w>
rea </w>
exerci sed</w>
' Blessed</w>
flu tes</w>
commun ed</w>
ro ttenness</w>
p ho
ahi te</w>
over shad
fifty- four</w>
ca stle</w>
mi da
cen e</w>
Hu ppim</w>
fla tter</w>
counsell or</w>
Daugh ters</w>
tis ans</w>
robb ing</w>
p ly</w>
So s
La odi
El dad</w>
D ra
ste wards</w>
so cket</w>
ju g</w>
conf use</w>
P at
C as
defea ting</w>
bru tish</w>
b us</w>
Nah um</w>
Izha rites</w>
Bo han</w>
Aga bus</w>
fores kins</w>
mu ddy</w>
cla pped</w>
Meri b-
wea kened</w>
ra th</w>
exhor teth</w>
adulter er</w>
Consecra te</w>
t iny</w>
tere bin
rea diness</w>
in asmuch</w>
despo iled</w>
N is
8 00</w>
de tail</w>
bulwar ks</w>
B urn</w>
stri ving</w>
Go ing</w>
Amor r
rou ted</w>
ignor es</w>
K er
sk ull</w>
gi on</w>
so much</w>
fer vent</w>
cl ings</w>
Di vide</w>
un inhabited</w>
loa thed</w>
he wed</w>
cre ep</w>
I r
Ch ena
in significant</w>
fig ured</w>
Car e
haugh tiness</w>
en clo
char ms</w>
a tive</w>
my ths</w>
conqu ers</w>
6 ,
wri tes</w>
re pri
look out</w>
gate keeper</w>
can dle</w>
sur named</w>
str ung</w>
car ne
Sk ull</w>
Pel onite</w>
hear ers</w>
Ha k
prea ches</w>
marve lled</w>
hu mbles</w>
Esar haddon</w>
un controlled</w>
men- servants</w>
cro sses</w>
Exal t</w>
in stantly</w>
swa llows</w>
J E
D ev
ro wing</w>
eg g</w>
consi dering</w>
L ah
F if
sin cerely</w>
shu dder</w>
bani sh</w>
yi elds</w>
then es</w>
Per ga
se ctions</w>
r or
lo in
law yer</w>
in cre
bul us</w>
Se led</w>
Me dad</w>
Lu cius</w>
Ge ther</w>
Ga zez</w>
El da
A mp
up held</w>
law yers</w>
col our</w>
N oa
scorpi on</w>
kku k</w>
faw ns</w>
collap sed</w>
che bed</w>
Tik vah</w>
Rub en</w>
Jo chebed</w>
Haba kkuk</w>
¼ </w>
wor th
linea ge</w>
gate ways</w>
Tab ernacles</w>
re placed</w>
pi leser</w>
p ens</w>
ow est</w>
pro ven</w>
go tha</w>
sur rendered</w>
con stel
′ a</w>
sixty- five</w>
peace fully</w>
fortune- tellers</w>
ff ing</w>
co m</w>
Su ffer</w>
Mil com</w>
thri ve</w>
ref rained</w>
pie ty</w>
ja mbs</w>
- trees</w>
han ding</w>
Eli </w>
B ered</w>
' By</w>
win nowing</w>
s— they</w>
rea cheth</w>
whi lst</w>
swee tness</w>
self same</w>
of- the-
ad ds</w>
en trust</w>
decei vers</w>
estr anged</w>
acti vities</w>
Nerga l-
twenty- fifth</w>
hatta avah</w>
cha stened</w>
at tempt</w>
P lead</w>
za hab</w>
mil lion</w>
Mes sage</w>
ten ons</w>
sel y
sancti fies</w>
reven ue</w>
murmur ing</w>
plen teous</w>
liv ing-place</w>
effe ctive</w>
sugges tion</w>
spe lls</w>
hat ch</w>
cri be</w>
me tal
le te</w>
Moun tain</w>
— one</w>
thirty- ninth</w>
tan ner</w>
rebelli ons</w>
oun ced</w>
concea ls</w>
ri ons</w>
wa ve-offering</w>
soli tary</w>
wre tched</w>
trea deth</w>
enjoy ment</w>
instru cting</w>
plan ation</w>
3 3</w>
pl ows</w>
co pi
ca ble</w>
Hu l</w>
public ans</w>
fo x</w>
fa cts</w>
Smyr na</w>
8 75</w>
imita tors</w>
firep ans</w>
Ru ach</w>
Cappado cia</w>
moi st
gra vel</w>
camp ing</w>
na ve</w>
Elza phan</w>
rava ged</w>
Qu ar
P ower</w>
Jo anna</w>
emp lo
D or
7 3</w>
m ons</w>
discu ssing</w>
Hu mble</w>
recl ining</w>
adulter ies</w>
S ound</w>
P har
Ha te</w>
so s</w>
li zed</w>
boun ty</w>
As sos</w>
Ar kite</w>
ma m</w>
en gul
cre epeth</w>
Adu llamite</w>
war- carriages</w>
spr ung</w>
desi rous</w>
conso led</w>
low lands</w>
e dst</w>
bor row
For asmuch</w>
un fairly</w>
te xt</w>
I phta
dissen sion</w>
su i
patri archs</w>
war dro
wardro be</w>
ever -
mill stones</w>
Ho tham</w>
Benjamin ite</w>
fo dder</w>
ex its</w>
eli gible</w>
blood thirsty</w>
Rab -
ro ast</w>
ven ison</w>
stan dest</w>
sta kes</w>
seri ously</w>
pon ds</w>
poison ed</w>
o ars</w>
G old</w>
hamm ers</w>
Ge ber</w>
Eli sa
consen ted</w>
th with</w>
su spe
prin cess</w>
ligh ter</w>
Oph rah</w>
O pp
re cently</w>
l y
ma il</w>
li zard</w>
G it
stri ped</w>
sto ma
sea son
quarre l
Josa phat</w>
sp lin
quanti ties</w>
parta ker</w>
be ck
Sos thenes</w>
sh op</w>
ne el</w>
holi day</w>
a ground</w>
Nim rim</w>
Ken ath</w>
ta d</w>
sp us</w>
gu b</w>
en snared</w>
de ck</w>
blo cka
Se gub</w>
Noa diah</w>
N obah</w>
Ma dai</w>
He th
Cri spus</w>
Be hind</w>
App aim</w>
z bi</w>
bla sts</w>
ambassa dor</w>
Zi biah</w>
De mas</w>
vindica te</w>
an ite</w>
ab ated</w>
Gol gotha</w>
Ahi ′
10 ½</w>
vex </w>
ho s</w>
cha ses</w>
bin deth</w>
Pap hos</w>
Lu ke</w>
ta sty</w>
p peth</w>
in ting</w>
Matta thias</w>
nine teen</w>
c er</w>
ang rily</w>
ac ha
Pisi dia</w>
ann als</w>
vo cate</w>
v able</w>
nigh t
bi lity</w>
lif es
immi grant</w>
Im ri</w>
mul ber
li est</w>
br ink</w>
O ne
trespass -offering</w>
Mor ning</w>
t arily</w>
ha mites</w>
' —
un happy</w>
trea tment</w>
per cent</w>
dev ice</w>
Kibro th</w>
un true</w>
threa tening</w>
raven ous</w>
Cher ub
5 4</w>
pro cess</w>
gru mbling</w>
sme lled</w>
pa p
hol ders</w>
gh t
win n
sil ver
good bye</w>
ex cess</w>
turtle dove</w>
tra ins</w>
sli pping</w>
la ble</w>
l ars</w>
fe tched</w>
broken hearted</w>
g es
Si rion</w>
pe des
ex planation</w>
di ction</w>
vo tive</w>
prosp ers</w>
jo yed</w>
ch ran</w>
bla ze</w>
O chran</w>
Jaco b
ge ber</w>
critici zed</w>
bla ckness</w>
tax -
symb ol</w>
quarrel some</w>
kne west</w>
ter ror
rea m</w>
garden er</w>
Zab bai</w>
Ni san</w>
Beer i</w>
P roud</w>
Neph to
Mer on
Ju stus</w>
Ij on</w>
Dor cas</w>
Bith y
cross -
Mer om</w>
Mat thias</w>
reason able</w>
pilgri mage</w>
d- out</w>
stumb ling
cra shing</w>
M en
D ri
Am zi</w>
lea sh</w>
Ter esh</w>
dishon ors</w>
Har vest</w>
tru ths</w>
latti ce</w>
escap ing</w>
d ru
ce -
Leb o</w>
w ent
o ils</w>
eli minate</w>
Reca b</w>
Potipher a</w>
de crease</w>
Jeho ′
Ang el-
in corruptible</w>
ex tent</w>
Pahath- Moab</w>
Chena anah</w>
u ter
apost leship</w>
Ishma elite</w>
te d—
fl oweth</w>
1⁄ 2</w>
om ens</w>
chall eng
Nehe lamite</w>
sti ff</w>
condu it</w>
stal lions</w>
qua ils</w>
pap yrus</w>
am a</w>
qui cken</w>
individu ally</w>
S word</w>
Ana tho
dar ics</w>
P lain</w>
centu rions</w>
exhor ting</w>
substitu te</w>
ro of
gro weth</w>
a las</w>
zi as</w>
un loved</w>
ken eth</w>
Ezi on-
ra bb
ar tisans</w>
N u
them a</w>
Te lem</w>
tto cks</w>
sum mit</w>
men a
consi sted</w>
Pen uel</w>
Or pah</w>
O had</w>
swe eps</w>
pri me</w>
peacea bly</w>
pavi lion</w>
moist ure</w>
N ation</w>
Jer u
Abi shur</w>
ze ph</w>
tow el</w>
re b</w>
pha ge</w>
hi th</w>
au ran</w>
am eam</w>
U lai</w>
Re zeph</w>
Pek od</w>
O reb</w>
No b</w>
Nis ro
Nab al</w>
My sia</w>
Lu hith</w>
Jek ameam</w>
Ira d</w>
Heth lon</w>
He lam</w>
He lah</w>
H auran</w>
Bar sab
Apo ll
Am it
- to-
treasur er</w>
i ll
ex pressed</w>
Taha n</w>
Je muel</w>
Cen ch
it ting</w>
gu r</w>
Tir ha
Sha aph</w>
A tad</w>
we *</w>
pen ance</w>
leader ship</w>
far -
* we*</w>
tra ys</w>
re call</w>
mis led</w>
inten se</w>
Su dan</w>
Nephi lim</w>
Ga di</w>
Ben e-
reser vo
di stor
an an</w>
sh an
in tro
dishon our</w>
consu mption</w>
Th anks</w>
Pur sue</w>
Mat red</w>
smo l
B al
Netop hathites</w>
Carme lite</w>
serv eth</w>
oni a</w>
Re lease</w>
Me lek</w>
devi ses</w>
au ght</w>
remo val</w>
dev oureth</w>
trait ors</w>
rai sin</w>
Ex plain</w>
Eph od</w>
store- houses</w>
na y</w>
magi cian</w>
Con aniah</w>
thr ong</w>
over flows</w>
ne ttles</w>
slan derers</w>
scri pt</w>
carne lian</w>
ab ounded</w>
sele ction</w>
ren amed</w>
pro sely
li mp</w>
H ari
man- servant</w>
li el</w>
IN G
deli cious</w>
Un clean</w>
we b</w>
arti fic
ro am</w>
Zeph o</w>
in most</w>
separ ating</w>
cen ce</w>
beg gar</w>
expla ining</w>
imp ose</w>
gr ess</w>
ba be</w>
an der</w>
' Leave</w>
vers ity</w>
enab led</w>
beg in
al lied</w>
She pham</w>
' Yes</w>
ze h</w>
rough ly</w>
Hel kath</w>
whi stle</w>
restor es</w>
stret cheth</w>
inspe ct</w>
ge lim</w>
deba te</w>
ad ored</w>
Evi </w>
′ e-
Ze dad</w>
Over seer</w>
Bithy nia</w>
A tar
A dri
imp aled</w>
celebra tions</w>
T ou</w>
Pub lius</w>
Elda ah</w>
ze m</w>
sh ru
no ble
Str angers</w>
de fy</w>
Ish ba
Es cape</w>
Do ing</w>
- bearer</w>
ob serves</w>
Me hu
volun te
suffi ce</w>
Lebo -ha
E hud</w>
— who</w>
res ul
quar ant
predi ctions</w>
perver sion</w>
thirty- eight</w>
spur ned</w>
pres id
bod y-
a thite</w>
lo cation</w>
furni shed</w>
un stable</w>
n ard</w>
Chen aniah</w>
— because</w>
agre ements</w>
accu ses</w>
ac quit</w>
Juda hites</w>
pen az</w>
obli gated</w>
fini shing</w>
d s—
Is ma
murder ing</w>
app ointment</w>
nouri sh</w>
brea kers</w>
Jab esh
in adver
wa ged</w>
spo kes
sheep folds</w>
Ja kin</w>
whisp ered</w>
inv ites</w>
a unt</w>
Shil lem</w>
A round</w>
ha ven</w>
e wed</w>
cre w</w>
Nethan eel</w>
' Tell</w>
produ ctive</w>
un a
no ses</w>
d ous</w>
wonder fully</w>
pro gress</w>
p es
bi dden</w>
Eli shua</w>
Ad na</w>
pot tage</w>
hear dest</w>
ank les</w>
de bar</w>
Ab solutely</w>
pres ently</w>
Mor iah</w>
Malchi el</w>
Ham mon</w>
Da gon</w>
' To</w>
y mus</w>
id ymus</w>
hu meth</w>
ch ests</w>
cea seth</w>
Zop hah</w>
T w
Pith on</w>
O zem</w>
Me dan</w>
Ishba k</w>
Hy mena
Ez bon</w>
Esh ban</w>
D idymus</w>
Bil shan</w>
un tying</w>
ho stages</w>
Tirha kah</w>
Ti ras</w>
Tab erah</w>
Sab te
Peth or</w>
Meshille moth</w>
Amit tai</w>
Adu mmim</w>
thirty- seventh</w>
appro ves</w>
Shes hai</w>
Aza zel</w>
Ad or
stra p</w>
ramp art</w>
drink -offerings</w>
am id</w>
Le muel</w>
Ginne thon</w>
Beli al</w>
Ar va
wri the</w>
thro ats</w>
pea ks</w>
forsa king</w>
di stra
constel lations</w>
pl ying</w>
op hi
hus ks</w>
frag ments</w>
tri m</w>
even tually</w>
Zede ki′ah</w>
ston y</w>
sca r</w>
s sions</w>
rough test</w>
ri dden</w>
influ ential</w>
fire wood</w>
Lebo-ha math</w>
Hy pocri
superi or</w>
remo te</w>
l y—
cra cked</w>
Jeho sheba</w>
In side</w>
water less</w>
hor de</w>
depar ts</w>
Gab a
fer ence</w>
went est</w>
suffi ci
st ants</w>
Hel per</w>
Ash penaz</w>
All- powerful</w>
Zi cri</w>
three- tenths</w>
res tri
cla ws</w>
engra ving</w>
chasti sed</w>
— those</w>
sh′ ap
sh′ap hat</w>
Baali m</w>
rip ened</w>
l ined</w>
Chalde es</w>
Beelzebu b</w>
l ends</w>
circu it</w>
bl er</w>
flesh ly</w>
en er
beau tify</w>
Ko z</w>
ea lot</w>
cor al</w>
ava i
In dia</w>
ri mmon</w>
success or</w>
mor tally</w>
ge di</w>
Se le
sol ve</w>
ph el</w>
for thwith</w>
cu b</w>
ad mitted</w>
Shoba ch</w>
Mour n</w>
Know est</w>
to fore</w>
Geder ah</w>
peri shable</w>
la ph</w>
head bands</w>
griev ing</w>
descri ption</w>
Ro gelim</w>
Re ge
Mi sp
Ly ca
An ab</w>
Cushi tes</w>
Ad nah</w>
shor n</w>
ja el</w>
Nephto ah</w>
Mehu jael</w>
Ha hiroth</w>
Arva d</w>
- minded</w>
tro d</w>
ha unt</w>
W ine</w>
P hy
' Son</w>
sw ung</w>
sta g</w>
snor ting</w>
ophi lus</w>
chop ped</w>
The ophilus</w>
Sh eva</w>
6 5</w>
1 ,0
trans formed</w>
si oned</w>
si ded</w>
min t</w>
dee ps</w>
Rul ers</w>
E ither</w>
manif es
betra ys</w>
agre es</w>
S wear</w>
Merar ite</w>
terebin th</w>
sp in</w>
predecess ors</w>
practi se</w>
c ea</w>
S ca
Pahath- moab</w>
Mer odach</w>
Laodi cea</w>
at us</w>
re treated</w>
en sign</w>
deci as</w>
Se decias</w>
′ decai</w>
prof es
Mor ′decai</w>
princi ple</w>
ar e
am end</w>
Besi de</w>
of-the- Angel-
he- lambs</w>
abhor rent</w>
God- of-the-Angel-
gather ers</w>
ca ul
assi stants</w>
volun tarily</w>
persever ance</w>
dra ch
dep ending</w>
Some thing</w>
land s—
Bur n
sho oting</w>
lo vest</w>
dishon estly</w>
whir ling</w>
sca ttereth</w>
men tal</w>
con spire</w>
thir sts</w>
Ezi on</w>
C ease</w>
indica te</w>
bla me
Be g
— even</w>
Su kk
— in</w>
Beth- aven</w>
5 0,000</w>
sent in
Ha la
Edo mite</w>
ho lies</w>
hand led</w>
gan g</w>
deliber ately</w>
ob stac
judg est</w>
g lea
una wares</w>
triumph ed</w>
refresh ing</w>
mu l</w>
gru dge</w>
Jok the
Git taim</w>
′ im</w>
over joyed</w>
amb ition</w>
He lek</w>
up ham</w>
h esh</w>
disa bled</w>
av ans</w>
Re mind</w>
Ni b
Na ′
Mor eh</w>
Har u
Har bon
Ham math</w>
Fri ends</w>
son s-in-law</w>
here tofore</w>
T est</w>
Sha ve
Jaa kan</w>
un defiled</w>
bu ttocks</w>
bri </w>
Ze tham</w>
Tan humeth</w>
Shea riah</w>
Mad on</w>
Kirja th</w>
Jab neel</w>
Hymena eus</w>
Du ke</w>
An aniah</w>
pro piti
men servants</w>
ef ly</w>
ana thema</w>
Zim ran</w>
Cor in
3 1</w>
she weth</w>
lear ns</w>
fo al</w>
Tran s-
T ub
C har
Beth phage</w>
Ahi </w>
scra pe</w>
pic tures</w>
loin cloth</w>
har e</w>
Kibro th-
C ross</w>
pa ce</w>
ac ces
en eth</w>
fi sts</w>
earth —</w>
dis da
dd ling</w>
bro ther-in-law</w>
F ree</w>
Bles sings</w>
g ans</w>
Abi da</w>
ron ites</w>
servan t-
sla pped</w>
some where</w>
shr ink</w>
rou sed</w>
annihi lated</w>
o ever</w>
mista kes</w>
es oever</w>
de gra
Jeho sh′aphat</w>
Eli′ sha</w>
sympa thy</w>
stu died</w>
inc ited</w>
enjo ys</w>
da ble</w>
ad der</w>
kind nesses</w>
den ari
Jo in</w>
En courage</w>
ref iner</w>
reces ses</w>
mighti est</w>
hin ds</w>
at tire</w>
3 0
se dition</w>
gru mble</w>
custo mary</w>
bea tings</w>
rea ping</w>
mar ches</w>
bre ed</w>
multip lies</w>
cha ined</w>
Ah lai</w>
mo veth</w>
drink -offering</w>
2 5,000</w>
to kens</w>
in ous</w>
hi stor
ch ann
chann el</w>
Pe leth</w>
questi oning</w>
D al
Abed- nego</w>
under garments</w>
pi la
on der</w>
ce ll</w>
camp a
ar ouse</w>
vi gor
tra sh</w>
ki l
Ti dal</w>
Amra phel</w>
tre men
ir us</w>
all ows</w>
Za avan</w>
wi shing</w>
temp erate</w>
stir reth</w>
lan ted</w>
fla ws</w>
O z
Haggi th</w>
Haggi </w>
E lla
pa per</w>
Sar id</w>
L es
Jeh deiah</w>
Eph lal</w>
E ther</w>
Co zbi</w>
sta tely</w>
la lai</w>
F ort
san e</w>
in experienced</w>
embal med</w>
carca ses</w>
Mo ons</w>
Jon as</w>
Ch ora
over turn</w>
nu lli
fru it
S app
Naha liel</w>
dre gs</w>
un fit</w>
thi s—
fortune tellers</w>
Zer ahites</w>
po inting</w>
eager ness</w>
E bed</w>
tribu lations</w>
r ants</w>
deser ting</w>
pa gans</w>
k ening</w>
Ju ttah</w>
Circumci sion</w>
kn it</w>
aha </w>
Do dai</w>
timbre l</w>
vani shes</w>
he dges</w>
hand ling</w>
$ </w>
wi lled</w>
ri ties</w>
rep ul
plea s</w>
choo sing</w>
ari sen</w>
Li banus</w>
ur ine</w>
frigh ted</w>
despi sing</w>
bo thering</w>
af frighted</w>
acti vity</w>
God-of-the-Angel- Armies</w>
fe wer</w>
contra ct</w>
car p
blan ket</w>
repea ted</w>
over cometh</w>
with stood</w>
par ting</w>
ava il</w>
n ful</w>
gra ceful</w>
ex clude</w>
reme dy</w>
hor i
be getteth</w>
R each</w>
sui table</w>
ar ezer</w>
af fected</w>
Had arezer</w>
Beg inning</w>
or ity</w>
mo ther
ante l
t s—</w>
pa late</w>
p in
it es—
consi st</w>
tra ve
star tled</w>
persua ding</w>
on y
meth ath</w>
be moan</w>
mor al</w>
k lah</w>
dicta ted</w>
: 1</w>
ma m
h s</w>
fore most</w>
assassin ated</w>
wa llow</w>
min a</w>
m inu
congre gations</w>
c or</w>
Cas lu
peace -offering</w>
la tes</w>
Zemar aim</w>
Mas re
Je theth</w>
Ja irus</w>
C ab
Avi th</w>
Ana iah</w>
Ad beel</w>
u s—</w>
al le
Zab diel</w>
Shun i</w>
Sha shak</w>
S ered</w>
Ith ream</w>
Eg lah</w>
E ri</w>
Abi tal</w>
oph kah</w>
kn itted</w>
en -
disobe ying</w>
brigh tly</w>
Sa lem</w>
Melchi </w>
Esh ton</w>
D ophkah</w>
Az or</w>
Al ush</w>
ro ad
y —the</w>
qu ently</w>
fu tility</w>
delu sion</w>
3 7</w>
pp er
Do om</w>
gor es</w>
go dah</w>
discu ssions</w>
To b</w>
Ro ll</w>
Onesi mus</w>
Nisro ch</w>
' With</w>
privile ge</w>
imp orted</w>
dis order</w>
Trans- Euphrates</w>
Ta beel</w>
A cacia</w>
strait ened</w>
lifes ty
feig ned</w>
de mi
Tiglath- pileser</w>
Nicola itans</w>
Dar kness</w>
y early</w>
rai seth</w>
mea ts</w>
en v
Ma king</w>
vali d</w>
Cushi </w>
pu shing</w>
E un
levi tical</w>
hur ri
dispu ting</w>
discu ss</w>
b roughtest</w>
P ur</w>
myri ads</w>
juni per</w>
Beth- ha
Mores heth</w>
un usual</w>
palm- trees</w>
man servant</w>
ti er</w>
si tion</w>
se us</w>
Eli seus</w>
swee ter</w>
sharp ly</w>
carp enter</w>
borrow er</w>
tribun al</w>
do llars</w>
Nebuchadne z′zar</w>
tra ge
st y
bro i
pe eled</w>
eighty- five</w>
Pro vide</w>
s op
9 5</w>
accomp li
shoul der
rain y</w>
re plen
pursu eth</w>
immi grants</w>
Ha v
Eshta ol</w>
Ba d</w>
scour ged</w>
lan d—</w>
compe l</w>
win now</w>
waist band</w>
un certain</w>
sit test</w>
clou dy</w>
mo s</w>
inter cession</w>
door ways</w>
am ine</w>
Mib zar</w>
Lo oking</w>
dis course</w>
Miz peh</w>
zi z</w>
well- known</w>
op posing</w>
mo aning</w>
forty- eight</w>
d .</w>
bu cket</w>
a kin</w>
Jo g
Chi lion</w>
Aza liah</w>
Areli </w>
flouri shing</w>
Sham ir</w>
Ko laiah</w>
Jah leel</w>
i ent</w>
hol dest</w>
forni ca
en ge</w>
chall enge</w>
aroma tic</w>
Ne th
sojour ning</w>
I thiel</w>
H earing</w>
for ge
cor i
M ered</w>
sa veth</w>
fa tted</w>
awa kened</w>
Wat ch
Ish ′
ten -
bri efly</w>
Meun im</w>
De bar</w>
Corin thians</w>
Chora zin</w>
per azim</w>
he w</w>
fow ler</w>
el se
di ll</w>
daub ed</w>
A tro
ten derly</w>
smo oth
si ft</w>
kin s
frigh tening</w>
daw ns</w>
accu ra
' At</w>
ty rants</w>
ro bed</w>
no table</w>
lega cy</w>
comfor table</w>
associ ated</w>
sted fast
steadfast ly</w>
por tra
lamp- stand</w>
la yer</w>
ck le</w>
Ach shaph</w>
s can
forty- one</w>
de tests</w>
buck lers</w>
Tiglath- Pileser</w>
coun dre
Beth- lehem</w>
bru tal</w>
Nop h</w>
En joy</w>
z kiah</w>
ef s</w>
dis close</w>
dire cts</w>
ad dress</w>
se duce</w>
Tal k</w>
Fa mi
re in
he llo</w>
acquaint ance</w>
W ar
Jes himoth</w>
— will</w>
si pa
m ming</w>
clea ved</w>
char ger</w>
inti mate</w>
Pal tiel</w>
L am
desig ner</w>
all en</w>
Se con
F allen</w>
supervi sed</w>
fl ow
seventy- seven</w>
mir rors</w>
ath ah</w>
7 60</w>
wi tt
zi oth</w>
v ad
th ir</w>
sh be
lo thi</w>
in on</w>
ci de</w>
be l
bbe thon</w>
Ro mam
P inon</w>
Maha zioth</w>
Mag diel</w>
Jo shbe
Jo ha</w>
Ho thir</w>
Gi dda
Eli am</w>
Be dad</w>
n arro
gre en
Ja kim</w>
mo dad</w>
lti </w>
es eth</w>
dung hill</w>
cra sh</w>
avai lable</w>
She leph</w>
Naph tu
Mat than</w>
Mad mannah</w>
Jer ah</w>
Jar ha</w>
Hala k</w>
Fal se</w>
El to
E lu
Di klah</w>
Ash nah</w>
Am ok</w>
Abi mael</w>
tis m</w>
favor i
dren ched</w>
distur b</w>
dan im</w>
Ne hu
Jaa ziah</w>
H allo
Ga le
insol ence</w>
hi stories</w>
Maaca thite</w>
re gain</w>
Vi sion</w>
privi ly</w>
o my</w>
W all</w>
cori ander</w>
Dis ci
2 2,
su its</w>
al ter</w>
Her mes</w>
For get</w>
si phia</w>
music- maker</w>
lo sing</w>
d godah</w>
cance led</w>
as ses
accura tely</w>
Iz rahiah</w>
Gu dgodah</w>
Ab ba</w>
mar shes</w>
wait eth</w>
sun shine</w>
ma dest</w>
P reserve</w>
lu st
S mite</w>
Hon our</w>
— if</w>
gri pped</w>
non- Jews</w>
gra tu
S ur
mix ing</w>
li ve
imperi shable</w>
De ce
procee deth</w>
ex ecra
d ger</w>
c left</w>
Maaca thites</w>
impu rities</w>
acqu itted</w>
I S</w>
condu cted</w>
St art</w>
Ro sh</w>
Fami ly</w>
li kened</w>
common- land</w>
land mark</w>
hand les</w>
- house</w>
6 2</w>
trage dy</w>
thorn y</w>
stu dent</w>
broi dered</w>
eloqu ent</w>
Jehoi arib</w>
she wing</w>
mar row</w>
Ezion- geber</w>
k ab</w>
Sha ha
hill tops</w>
er rors</w>
dispu ted</w>
super vision</w>
rabb im</w>
Thessaloni ans</w>
Th yself</w>
Ash ter
Areopag us</w>
vo y
pan eled</w>
ep hath</w>
Gi bbethon</w>
witt ingly</w>
spokes man</w>
I ram</w>
U thai</w>
Ra kk
Pun on</w>
Jokthe el</w>
Hez ir</w>
Even ing</w>
Ca lah</w>
Bes ai</w>
reck less</w>
nati vity</w>
y onder</w>
na zi
life less</w>
Ge di</w>
A chi
usu ally</w>
sor ely</w>
sma i</w>
car ve</w>
Si smai</w>
Jez aniah</w>
rec ite</w>
mis leading</w>
i ze</w>
favori tism</w>
Gi loh</w>
w ounding</w>
speci fi
clo sing</w>
Zal mon</w>
sm eared</w>
satis fies</w>
ha bit</w>
ad deth</w>
Re ba</w>
pres sure</w>
Shop hach</w>
E pi
sun -
chur ning</w>
betra ying</w>
Sil ver</w>
Fort un
Anatho thite</w>
- workers</w>
avoi ded</w>
arti stic</w>
ar et</w>
Gen nes
E pa
re tained</w>
physi cian</w>
per dition</w>
participa te</w>
in visible</w>
ga in
dea cons</w>
cum min</w>
ca ge</w>
t el</w>
smooth ly</w>
chast ening</w>
transgres sing</w>
repa ys</w>
kne eling</w>
valu ables</w>
reques ting</w>
per forms</w>
Je w
wash basin</w>
stoma chs</w>
mo bi
— what</w>
vi cious</w>
fatt y</w>
Ara mites</w>
rea per</w>
mu m</w>
fifty- three</w>
cita dels</w>
Zebu b</w>
tra ct</w>
na vel</w>
mor n
ma d
cu r</w>
Redee m</w>
tra ce</w>
ki ssing</w>
execu tes</w>
despo il</w>
eyes ight</w>
presid ents</w>
C lean
1, 500</w>
plea seth</w>
ha bit
ar ded</w>
to ll</w>
se cured</w>
rep ents</w>
ero s</w>
dra in</w>
bro wn</w>
8 7½</w>
Zechari ′ah</w>
Te mp
st ing
sele cts</w>
Z ealot</w>
v ite</w>
pon der</w>
maid- servant</w>
gloo my</w>
Ela mites</w>
Abe l-
te lleth</w>
Su pper</w>
Secon d</w>
taun ts</w>
ta kest</w>
ka shah</w>
inha bah</w>
fla tters</w>
Masre kah</w>
Mal lothi</w>
Joshbe kashah</w>
Gidda lti</w>
D inhabah</w>
Ar vad
sa vory</w>
par ent</w>
lea veth</w>
Mi kne
path way</w>
fi tted</w>
Hor ite</w>
Hazar maveth</w>
Har hur</w>
Geder oth</w>
Elto lad</w>
Al modad</w>
trans fer</w>
thirty- one</w>
th onite</w>
K ING
1 10</w>
rep ho
h es
expi ation</w>
bri er</w>
syca mor
ri b</w>
Jo ahaz</w>
Isa ias</w>
Boz kath</w>
shri veled</w>
el derly</w>
Nehu sh
Har eseth</w>
Hallo hesh</w>
Gale ed</w>
per versity</w>
drag ging</w>
Jo sias</w>
A ton
inten tions</w>
tremen dous</w>
conven ient</w>
consu meth</w>
com mis
cha os</w>
ba th-
mo te</w>
bur sts</w>
ste eds</w>
thunder ing</w>
ston ing</w>
sil ently</w>
satis faction</w>
s nee
po sted</w>
plan e</w>
grain- floor</w>
dres sing</w>
Bu zite</w>
' Saul</w>
′ rah</w>
s c
great- grandchildren</w>
disgui sed</w>
B la
ra shly</w>
Jehoad dah</w>
ta med</w>
spr inging</w>
m our</w>
lur k</w>
G rant</w>
wan ton</w>
the us</w>
shoul dst</w>
glor ying</w>
cor mor
P lea
per tained</w>
gir dles</w>
un like</w>
stret che
quarant ine</w>
Ha zz
2 2,000</w>
turt le-
peop led</w>
M ur
stra it</w>
pla yers</w>
in somuch</w>
ere ct</w>
end owed</w>
One -
fa bles</w>
en slave</w>
shi on</w>
the arted</w>
n ally</w>
en compassed</w>
cha </w>
sw er
sur name</w>
ele ments</w>
br and</w>
sta ted</w>
law suit</w>
descen ds</w>
de pressed</w>
arm our</w>
he la
crea tes</w>
Josi ′ah</w>
Eli athah</w>
overshad owed</w>
Shil onite</w>
' Well</w>
vi ewed</w>
st ently</w>
ith mah</w>
imag inations</w>
Shim eath</w>
Ri bai</w>
Naha rai</w>
E mim</w>
Con iah</w>
shu al</w>
sa ted</w>
rea s
ra tional</w>
e tor
brother hood</w>
almon ah</w>
Zar ephath</w>
Z almonah</w>
Misha l</w>
Abi ud</w>
a k</w>
id leness</w>
cal med</w>
Jah ze
sti lled</w>
shu tting</w>
sen ior</w>
hun ters</w>
ca m</w>
refu seth</w>
appre ci
Cal neh</w>
fre t</w>
Davi d.</w>
soun dness</w>
sharp ens</w>
dwe lled</w>
ai ′ah</w>
Matt anah</w>
Ge bal</w>
pi cture</w>
Nim rah</w>
Kibroth- hattaavah</w>
uter on
uteron omy</w>
chi </w>
boun tiful</w>
No e</w>
Mu lti
Gennes aret</w>
De uteronomy</w>
5 50</w>
cli mbs</w>
bri des</w>
stam p</w>
ro gel</w>
prun e</w>
les h</w>
kil n</w>
gi l
first lings</w>
Won der
Ri phath</w>
Mah seiah</w>
Augu stus</w>
Arama eans</w>
12 0,000</w>
po li
ig n
fier cely</w>
cur seth</w>
aga in
E naim</w>
wa kes</w>
dar ken</w>
c el</w>
but ch
tw ardly</w>
discer ned</w>
Des o
Az o
sm ear</w>
cra n</w>
O cran</w>
ou ter
fle eting</w>
ere m</w>
Zik ri</w>
Timo theus</w>
Scri bes</w>
sl ing
on —</w>
observ ance</w>
mour neth</w>
imp art</w>
admini stration</w>
Cherub ims</w>
y im</w>
to iled</w>
rea ds</w>
impu ted</w>
daw ning</w>
cru mbs</w>
mo ths</w>
M yr
wi pes</w>
pre destined</w>
o ther
mulber ry</w>
for ever
fo li
Jo as</w>
A H</w>
representa tives</w>
fish ers</w>
ba im</w>
Su mmon</w>
P la
simi le</w>
lu sh</w>
husband man</w>
displea sure</w>
Elo ah</w>
prof ess</w>
pro ce
proce dur
Zo heth</w>
ko s</w>
four s</w>
Ze lek</w>
Sev enty</w>
Ri ssah</w>
R ithmah</w>
Pl ant</w>
Pad on</w>
Mikne iah</w>
Mak he
Ke hela
K eros</w>
In stru
Hati pha</w>
Hat til</w>
Ga zzam</w>
Ga har</w>
El zabad</w>
Dar kon</w>
Buk kiah</w>
Beth- ar
Bar kos</w>
Bakbu k</w>
Ba z
where upon</w>
three- year-old</w>
execu tion</w>
- e′
Eli ud</w>
spi ll</w>
side -
wi el
one- fourth</w>
enlar ges</w>
craf ted</w>
ca both</w>
b ari
Mis repho
Le ha
Je uel</w>
Ho bab</w>
E ast
er est</w>
T ri
voy age</w>
un wittingly</w>
ti ous</w>
fami shed</w>
Ex amine</w>
fa ul
as cribe</w>
Sa do
Rho des</w>
Han niel</w>
sojour ns</w>
on es
in sur
constra ined</w>
commen dation</w>
over look</w>
Micha iah</w>
ra tion</w>
displea sing</w>
col ours</w>
ex acted</w>
ent ment</w>
sing er</w>
hail storm</w>
exces sive</w>
C a</w>
A tt
slan der
immor tal</w>
defi lement</w>
Sa id</w>
mountain tops</w>
g res
banqu ets</w>
af fe
thi ly</w>
specta cle</w>
shin eth</w>
do e</w>
Ze us</w>
— with</w>
tra ck</w>
quir ing</w>
multi plying</w>
go ts</w>
ea ter</w>
Dri ve</w>
outer most</w>
myst eri
lin tel</w>
disgui se</w>
De ep</w>
4 30</w>
stumbling block</w>
revea ling</w>
her eth</w>
gna sh</w>
D am
Ca p
re ce
en able</w>
ch ant</w>
as sig
a while</w>
S lay</w>
v ey</w>
menstru ation</w>
in cur
desig ned</w>
cha pit
swo op</w>
fa llow</w>
jes himoth</w>
ro bs</w>
prote cting</w>
neg lig
Ji z
peop le—</w>
pan els</w>
lo ans</w>
foli age</w>
chil dish</w>
Aga g</w>
cra cks</w>
Sha al
Hari ph</w>
st ability</w>
con tribute</w>
So co</w>
Ahi am</w>
teach est</w>
hy mn</w>
fo am</w>
en dea
require ment</w>
out standing</w>
me tery</w>
di al</w>
denari i</w>
ce metery</w>
Sp read</w>
Ro om</w>
inju ries</w>
hear est</w>
bond woman</w>
admon ished</w>
Pa thru
be e</w>
Pira thonite</w>
Kede mah</w>
etor ium</w>
Am mi</w>
vo mited</w>
gall eries</w>
l s—
hori zon</w>
du kes</w>
ch est
ar id</w>
Kirja th-
Jah zeel</w>
pre ferred</w>
survi ving</w>
reje cting</w>
cha l
Zil lethai</w>
va le</w>
ch aniah</w>
blood guilt</w>
She chaniah</w>
think est</w>
hu gged</w>
F air</w>
Di ana</w>
flu id</w>
clo ses</w>
at tempted</w>
12 8</w>
su spi
sha ven</w>
pas ser
ha st
day —
Jehoi akin</w>
Ene mies</w>
Baal- hanan</w>
5, 400</w>
rea ps</w>
hi ps</w>
Pad an
incre di
cala mus</w>
groun ds</w>
fee deth</w>
Z ep
Pa shur</w>
who les
obs cene</w>
fla g
an ying</w>
wan derer</w>
b ough</w>
6 6</w>
manifes tation</w>
explo it</w>
Te bah</w>
screa m</w>
di ver
bro om</w>
boz enai</w>
arch angel</w>
Wonder ful</w>
Watch man</w>
Sy ene</w>
Jah zah</w>
Ely mas</w>
Ca siphia</w>
2 00,000</w>
' An</w>
encoura ges</w>
dren ch</w>
So l
Asher im</w>
per il</w>
far- off</w>
cha sten</w>
ab used</w>
ter al</w>
son s—
mysteri ous</w>
iso late</w>
depar teth</w>
che weth</w>
No gah</w>
Je hal
promi sing</w>
ing floor</w>
Mahala leel</w>
w ines</w>
visit ors</w>
satis fying</w>
brilli ant</w>
Ke dorlaomer</w>
sub mitted</w>
sco ffing</w>
cow or
chi tes</w>
Be gin</w>
war dship</w>
ste wardship</w>
obs cure</w>
new ly</w>
foo ling</w>
Maa ziah</w>
Jabesh -
Israel —</w>
Hati ta</w>
mea su
hea ped</w>
d gad</w>
bron ah</w>
ah ba</w>
Ne ziah</w>
Moser oth</w>
Mehi da</w>
Makhe loth</w>
Kehela thah</w>
Hash monah</w>
Har adah</w>
Hak upha</w>
' Will</w>
high -
the ft</w>
preser veth</w>
pe let</w>
lean ness</w>
l ing-
des maids</w>
dedica tes</w>
bri desmaids</w>
+ God</w>
t aries</w>
Ba′ al</w>
spla sh</w>
liqu or</w>
ear est</w>
Ma la
le lel</w>
cu tteth</w>
East ward</w>
clo ven</w>
Jezre elite</w>
inadver t
ch on
Uzz i
se —</w>
s cur
p ini
ho enai</w>
flo gged</w>
disapp oint</w>
Ru hamah</w>
Com mit</w>
Com fort</w>
vap or</w>
Se tting</w>
S un
Fo llowing</w>
B eat</w>
wa in</w>
restor ing</w>
Sado c</w>
A ll
ref ining</w>
investi gated</w>
cor net</w>
Les hem</w>
prow l</w>
ca ps</w>
appor tion</w>
zz led</w>
taun ted</w>
fur thermore</w>
worl d—
ta ment</w>
furi ously</w>
four square</w>
defra ud</w>
in ser
ha ′
p ounding</w>
far ing</w>
char med</w>
asses s
tar es</w>
con cei
with holds</w>
doub ted</w>
Aton ement</w>
snu ffed</w>
dele gation</w>
sof tly</w>
conver sion</w>
Bapti zer</w>
twi n</w>
storero om</w>
sna tches</w>
prostitu ted</w>
la im</w>
f fe
bi llows</w>
S eal</w>
thunder ings</w>
inherit ances</w>
cultiva te</w>
Fa ther
' Peace</w>
sha el</w>
ou ses</w>
kne eled</w>
Methu shael</w>
think able</w>
gri ddle</w>
cala mities</w>
ab ah</w>
a sps</w>
Sin ners</w>
wai sts</w>
parti cular</w>
par cel</w>
conver ts</w>
cha ir</w>
Sol di
Eli′ jah</w>
Azo tus</w>
e —and</w>
doc tor</w>
Wa ters</w>
bar ri
ar ight</w>
Tab baoth</w>
So tai</w>
sti ll
sla yeth</w>
kins folk</w>
jo ints</w>
fashi ons</w>
dispo sed</w>
con gratu
calcu late</w>
at tempting</w>
s coundre
open ings</w>
Shar e</w>
beau tifully</w>
Sou thern</w>
mor nings</w>
bapti sed</w>
oc cur</w>
impres sive</w>
convi cted</w>
common- lands</w>
ca ci
G eli
terri fies</w>
astoni ed</w>
Zebo im</w>
Nu mber</w>
Ki shion</w>
Al mon</w>
- pieces</w>
vi m</w>
ra ges</w>
en ligh
ba dger</w>
ar aim</w>
Sha araim</w>
tur ing</w>
sett ling</w>
T rea
4, 600</w>
supervi sor</w>
on othai</w>
Me onothai</w>
ju mping</w>
shu tteth</w>
offer ing
fore fathers</w>
ta le
oph et</w>
bo thered</w>
a lah</w>
T ophet</w>
antel ope</w>
Spiri ts</w>
Meri b
' Today</w>
wal k
ox es</w>
fifty- five</w>
F oxes</w>
Ba san</w>
vo lu
than king</w>
Ab i</w>
fi el
ones el
onesel f</w>
Shepher ds</w>
Arabi an</w>
rai ders</w>
minu te</w>
forsa kes</w>
ter aphim</w>
ma lig
ja w</w>
farm land</w>
Sen aah</w>
t ing-
lew d</w>
Att end</w>
man e</w>
che er
brea k
be having</w>
an d-
Phara o
white washed</w>
ri ddle</w>
ma ted</w>
lab our
imp over
hair cloth</w>
frequ ently</w>
den se</w>
Za phon</w>
I g
Beth- e
re lea
r is</w>
ou twardly</w>
la ir</w>
Z ora
Ahi hud</w>
you thful</w>
sh er</w>
repro veth</w>
r are</w>
peri sheth</w>
mo th-
han di
cho irs</w>
bab ly</w>
S ub
Pu ri
Has upha</w>
un thinkable</w>
suffici ency</w>
brea ched</w>
Soldi ers</w>
Here by</w>
Eli ahba</w>
pier ces</w>
offen sive</w>
expres sion</w>
en or
cater pillar</w>
bea ts</w>
ac heth</w>
D ou
mo del</w>
execu ting</w>
temp ts</w>
tab ly</w>
still born</w>
sp aring</w>
sla ying</w>
ri ms</w>
ga ining</w>
ff in</w>
co ffin</w>
J AH</w>
li shi
li can</w>
hi ra</w>
char mer</w>
aven ging</w>
res our
l ′
cherub s</w>
So coh</w>
B ac
li me</w>
kn op</w>
inten tion</w>
grasp ed</w>
car ving</w>
resol ved</w>
over throws</w>
li cen
atten ding</w>
Geli loth</w>
sco ffed</w>
Naha lal</w>
pay ments</w>
lo ve
La adan</w>
sar dius</w>
Sha ddai</w>
wher esoever</w>
Jero bo′am</w>
vehe m
k ai</w>
Spr ing</w>
Baal- Hanan</w>
house holder</w>
ham strung</w>
Off erings</w>
bit ing</w>
al right</w>
supervi se</w>
def ending</w>
Ish vah</w>
w ink</w>
U phaz</w>
Azari as</w>
maj ority</w>
Merib baal</w>
mar kets</w>
gar land</w>
out goings</w>
exam ining</w>
′ ta
pila sters</w>
d dest</w>
spr ing
s ks</w>
pedes tals</w>
Know ledge</w>
H o</w>
H en
ma acah</w>
fire -offering</w>
U s</w>
p as</w>
con vul
car bun
Jaa siel</w>
E re
t ant</w>
plun ge</w>
m mation</w>
h ut</w>
pro posed</w>
sh od</w>
in cin
her o</w>
g ore</w>
excell ence</w>
en lightened</w>
U r
Ra phah</w>
Ishma iah</w>
we ed</w>
un do</w>
spe lt</w>
sp at</w>
sin ew</w>
repro ba
inter ests</w>
condem ning</w>
c ran
Un tie</w>
Tig ris</w>
Sha ke</w>
Ro gel</w>
Hashab neiah</w>
H ach
Fo lly</w>
Adoni -
wi sest</w>
well- fed</w>
ty rant</w>
spar ingly</w>
hesi tate</w>
foun der</w>
sp ark</w>
li able</w>
langui shes</w>
il ers</w>
Ze b
Eli e
so ber
plu m
g us</w>
colla teral</w>
ba king</w>
un learned</w>
mb leth</w>
comfor teth</w>
su sp
righte ous
mon ite</w>
Romam ti
Reuben ite</w>
watch ful</w>
main tained</w>
in cen
confir ms</w>
blasphe mes</w>
betro th</w>
betra yer</w>
un ite</w>
ty chus</w>
stra te
win ning</w>
r inging</w>
r ented</w>
Av vim</w>
perpe tually</w>
pur ses</w>
d day</w>
allo cated</w>
Sha dday</w>
Chi sl
inten ds</w>
He lem</w>
li c</w>
en snare</w>
tow n
drea mers</w>
cit y—
10 00</w>
ta xed</w>
les ser</w>
bun ches</w>
T win</w>
13 7</w>
salu tation</w>
Shave h</w>
sca bb
scabb ard</w>
reces sed</w>
car avans</w>
f ting</w>
Evi l-
El -
1 :
- a
begin nings</w>
thu mbs</w>
ra tt
ha i
k ly</w>
har dens</w>
en listed</w>
Ju dges</w>
temp es
c ers</w>
s ca</w>
ge e</w>
fru strate</w>
Pri sca</w>
Me -
see kest</w>
Ish′ mael</w>
' —</w>
wholes ome</w>
sen si
principa lities</w>
beck oned</w>
High est</w>
sn ow
marri ages</w>
expe l</w>
assess ment</w>
Re bu
R ender</w>
Gi ving</w>
shin y</w>
proje cting</w>
ga zing</w>
accomp anying</w>
Harbon a</w>
2, 700</w>
1,2 54</w>
ty pes</w>
sar is</w>
bu sy
sea -
lli um</w>
ab u
rep en
gover ning</w>
glori ously</w>
divi deth</w>
discipl ines</w>
sha keth</w>
cra ck</w>
contro ver
annu l</w>
Shethar- bozenai</w>
Sapp hira</w>
C hu
se llers</w>
con formed</w>
commit ment</w>
acknowle dges</w>
To o</w>
Jo shaphat</w>
′ iah</w>
un ti
ti me—
sur ging</w>
pro bably</w>
physi cally</w>
ev i
es —the</w>
dis courage</w>
Bur ning</w>
strengthe ns</w>
sh p
mar i
do chai</w>
de fe
con found</w>
as m</w>
Mar dochai</w>
K ep
sho far</w>
remo veth</w>
grass -lands</w>
St rai
Pen iel</w>
Ella sar</w>
Aholi bamah</w>
Ac him</w>
watch er</w>
stretche d-out</w>
of t</w>
imp ul
ig s</w>
gra in
Sca tter</w>
- tempered</w>
sub mis
pot sherd</w>
a caci
representa tive</w>
encamp ment</w>
K erethites</w>
Eu tychus</w>
Def end</w>
12 7</w>
re minded</w>
promiscu ity</w>
Perga mum</w>
you —the</w>
Wi ves</w>
wa ving</w>
dis quieted</w>
dar t</w>
M on
Care fully</w>
Beth- zur</w>
furni sh</w>
distor t</w>
P lay</w>
C lo
s ands</w>
chi cks</w>
dire ctor</w>
com posed</w>
chamber lain</w>
Lev ites—
sha har</w>
pou ch</w>
plow shares</w>
abo lish</w>
Gu ar
stab lish</w>
G rain</w>
Azari ′ah</w>
′ ir</w>
obje cted</w>
consecra tes</w>
gossi ps</w>
Teko ite</w>
floo ded</w>
challeng ed</w>
t ans</w>
su r</w>
ear ns</w>
m and</w>
crou ch</w>
mi lled</w>
Sheth ar</w>
L at
Hus bands</w>
Barsab bas</w>
mb lings</w>
disp at
proje ctions</w>
sorcer er</w>
ro ar
le —the</w>
S pe
U sing</w>
Terri ble</w>
Bi cri</w>
swe eping</w>
Go iim</w>
tt ings</w>
t ank</w>
s cru
gall on</w>
f resh
administra tor</w>
4 4</w>
soci ety</w>
sel fish
sacrifi ceth</w>
ere th-
acces sor
thea ter</w>
s cou
respec tful</w>
ac y</w>
Teman ites</w>
temp ter</w>
in corruption</w>
ho glah</w>
es pou
devi sing</w>
butch ered</w>
aw l</w>
alo of</w>
Tub al-
Pi -ha
Li on</w>
Hun dred</w>
G ur</w>
steadfast ness</w>
ner ship</w>
inquir y</w>
crea ting</w>
bar gain</w>
B road</w>
3, 600</w>
survi ves</w>
sever ity</w>
pre ci
mm ers</w>
fores e
chi r
way side</w>
s much</w>
na smuch</w>
g annim</w>
figh ters</w>
confir ming</w>
bow eth</w>
I nasmuch</w>
wi der</w>
stiff ened</w>
sen su
Ru le</w>
' Even</w>
ri chest</w>
per tain</w>
neigh ing</w>
gover ned</w>
fl anks</w>
18 ,000</w>
lishi yah</w>
door post</w>
Ano inted</w>
up holds</w>
glutt ons</w>
fru strates</w>
For ever</w>
A din
5 :
op ar
embra cing</w>
' Every</w>
tent- circle</w>
sne er</w>
ru b
accoun ting</w>
exal teth</w>
ex ceed</w>
Th ere
men —
ga l
Cor rect</w>
arrang ement</w>
Zer eth</w>
She muel</w>
t wain</w>
li ter
Jehi eli</w>
Husha h</w>
trea son</w>
o b</w>
S trea
prece ded</w>
me lting</w>
app er
Hav vo
th a
encamp ments</w>
can ker
L </w>
pu lation</w>
lev eled</w>
Be ker</w>
tale bearer</w>
sugg est</w>
over looks</w>
hear er</w>
C lea
her es</w>
burn ished</w>
blame lessly</w>
' One</w>
me ddle</w>
Ra vine</w>
Chel ub</w>
A bronah</w>
thirty- second</w>
sor rowing</w>
revo ked</w>
ramp arts</w>
medi um</w>
dis closed</w>
be holdeth</w>
Hu pp
dur st</w>
Tar ry</w>
testi cles</w>
sa dd
ma tu
9 9</w>
8 ,
ru de</w>
phi </w>
dar kest</w>
Jehal lelel</w>
admon ition</w>
aban dons</w>
Rebu ke</w>
twi gs</w>
ti cally</w>
sett lement</w>
invo ked</w>
accessor ies</w>
— do</w>
nes er</w>
incredi ble</w>
extingu ish</w>
exc it
cell or</w>
Beza leel</w>
' Love</w>
— your</w>
quo ta</w>
ju bi
g leaning</w>
Anti pas</w>
to xi
in toxi
hospi table</w>
dwell ers</w>
wra thful</w>
si eve</w>
la un
kind les</w>
gl ance</w>
fulfi lls</w>
She erah</w>
P i</w>
Malchi shua</w>
Baal- perazim</w>
re vered</w>
inj ure</w>
br ed</w>
S tu
Caphtor im</w>
st ab</w>
ne ces
neces sities</w>
jo ins</w>
drink ers</w>
di d—
can ti
a gi
su stains</w>
stor m-
pla ys</w>
de tails</w>
cla ve</w>
cal dron</w>
bir ths</w>
land owner</w>
gor ge</w>
dr ying</w>
Excell ency</w>
u mah</w>
mel teth</w>
shor es</w>
truth fully</w>
Some day</w>
wre ck</w>
swi r
je opar
fu ll-
de ceased</w>
La ish</w>
C au
ta sting</w>
bed chamber</w>
Z am
mi ry</w>
Grea ter</w>
Elisa beth</w>
ture -
pic ture-
offen ces</w>
specta cular</w>
ad minister</w>
Ri ver
rever se</w>
escor ted</w>
earth —
do ted</w>
dis se
decor ations</w>
sha r</w>
ol is</w>
Sho bai</w>
Shim ′e-
Ja shar</w>
w ls</w>
raven ing</w>
explo its</w>
dar y</w>
embroi der
dishon esty</w>
Re kab</w>
Kir -
stan k</w>
bri ck
an ity</w>
D anites</w>
— four</w>
ro i</w>
ce lls</w>
ba thite</w>
decor ate</w>
cra ve</w>
Sukk oth</w>
sear cheth</w>
ro es</w>
p up
' Israel</w>
fur bi
furbi shed</w>
dar ts</w>
Acha z</w>
hop eless</w>
gro aned</w>
burn ers</w>
bi a</w>
app ease</w>
Re f
ge ously</w>
He ll</w>
- of-
zu li</w>
lla ge</w>
la zuli</w>
armor -bearer</w>
me k</w>
desecra te</w>
sun rising</w>
instru cts</w>
ck lings</w>
be wil
forsa keth</w>
cho ke</w>
cea ses</w>
blosso med</w>
a ver
Em ma
Elie hoenai</w>
lu c
M ea
ten- stringed</w>
re presenting</w>
mb res</w>
len ding</w>
fat lings</w>
annu lled</w>
R ama
Boz enai</w>
star ing</w>
sha meless</w>
lu te</w>
la vi
grand mother</w>
decl ine</w>
ann es</w>
F la
th war
ski p</w>
sett est</w>
lust ful</w>
lo s
her on</w>
edi fying</w>
devi seth</w>
credit ors</w>
che cked</w>
ari seth</w>
N ear</w>
wo mbs</w>
squ e
sque e
pa ws</w>
consi stent</w>
spe ct</w>
sca bs</w>
plum met</w>
Te la
Eliphe le
wil d
strengthe neth</w>
il ant</w>
ces sions</w>
W ar</w>
over grown</w>
4 0,000</w>
' Arise</w>
h —</w>
dis orderly</w>
S ti
under take</w>
un ru
reservo ir</w>
leng the
in stance</w>
hor t</w>
banda ged</w>
posi tioned</w>
mor sels</w>
al gum</w>
Re ed</w>
trans ferred</w>
ski lls</w>
or ing</w>
free -
disp en
au </w>
ambu shes</w>
Eno s</w>
Baal- zebub</w>
scar ed</w>
res cen
red di
in tri
carri ers</w>
interpre tations</w>
inter marry</w>
ba ts</w>
14 4,000</w>
vehem ently</w>
seventy- three</w>
ink ling</w>
door keeper</w>
bar bari
War n</w>
Mah er-
Jar ah</w>
Con su
perver sely</w>
in n
ten ds</w>
Mich mash</w>
we ighty</w>
hor ned</w>
depen dable</w>
bo lt</w>
She pher</w>
' People</w>
ves ture</w>
sh ean</w>
mer ing</w>
g at</w>
Ci ties</w>
volu me</w>
sel leth</w>
T ow
jac ent</w>
fair est</w>
wi thereth</w>
we eps</w>
du mped</w>
C ore</w>
Abi de</w>
KING </w>
F ine</w>
Cre tans</w>
tempes tuous</w>
conclu sion</w>
chamber la
Lat in</w>
Av vites</w>
14 th</w>
ha ul</w>
g ant</w>
car vings</w>
magnifi cence</w>
import ance</w>
guard rooms</w>
dis cord</w>
ban dage</w>
stiff necked</w>
mea dow</w>
di blathaim</w>
appea sed</w>
Lu dim</w>
ki cked</w>
else where</w>
consider eth</w>
She mer</w>
K is
Conse quently</w>
6 :
repu te</w>
redee ming</w>
Gibe onite</w>
Ever lasting</w>
Elte keh</w>
4 3</w>
' That</w>
spi ced</w>
sle epeth</w>
predi ct</w>
over looked</w>
apr on</w>
an s—
Emma us</w>
L in
Juda h—
— his</w>
ten ant</w>
per ceiving</w>
ki jah</w>
excit ement</w>
Beer ah</w>
un disturbed</w>
strea ming</w>
recomp ence</w>
mas sive</w>
impover ished</w>
dain ties</w>
Zora thites</w>
Pi-ha hiroth</w>
Ja mbres</w>
J annes</w>
Hassen uah</w>
Eg laim</w>
Benjam ite</w>
stumb ling-
ite m</w>
it er</w>
i de</w>
he eds</w>
divin ations</w>
As er</w>
wo ve</w>
un harmed</w>
repul sive</w>
mil lions</w>
m un
en quired</w>
them —the</w>
plun ged</w>
per for
dic tation</w>
commis sioned</w>
adulter esses</w>
Girgashi te</w>
Di bla
resol ve</w>
gro ss</w>
env ying</w>
cru mble</w>
comple ting</w>
Pi le</w>
Bir ds</w>
ni shed</w>
water y</w>
hundre dth</w>
every day</w>
af fect</w>
Ner gal</w>
Al van</w>
' Ye</w>
way ward</w>
ou ts</w>
gen i
enthusi asm</w>
engul fed</w>
arri ving</w>
unru ly</w>
subdu es</w>
sour ces</w>
imag ined</w>
ho opo
counse lled</w>
ban ded</w>
val ent</w>
pa int</w>
blasphe ming</w>
— is</w>
Acha b</w>
s— that</w>
ri deth</w>
reddi sh-
over takes</w>
la l-
Ar bathite</w>
sp ri
re paration</w>
win ks</w>
swo llen</w>
for bear
embroider y</w>
ad mi
a fore
ca ta
Ro i</w>
v at</w>
ro lls</w>
success fully</w>
smo other</w>
oppres sions</w>
glea ming</w>
V anity</w>
Ebed- Melech</w>
ti m</w>
inter ior</w>
gu sh</w>
Ber acah</w>
chamberla ins</w>
Ri ch</w>
3 6,000</w>
visit or</w>
pla za</w>
bar red</w>
acci dent</w>
′ta li</w>
Naph ′tali</w>
leng then</w>
alco ves</w>
60 3,
603, 550</w>
re hear
ninety- five</w>
histor ian</w>
affir med</w>
jo king</w>
di ts</w>
Le baoth</w>
— whether</w>
pro ofs</w>
t- of-
cor ro
* the
lli ble</w>
gu llible</w>
deso lated</w>
de posed</w>
con fe
al a</w>
Off ering</w>
Ben e</w>
vir tuous</w>
so vere
she ds</w>
ob scu
issu es</w>
dain ty</w>
cormor ant</w>
Per ath</w>
s ni
ph es</w>
pac ked</w>
drea ming</w>
' King</w>
ston e
sto mp</w>
s sar</w>
pre text</w>
ev ous</w>
Zab ul
Sabte ca</w>
Beth- jeshimoth</w>
wor thily</w>
s— to</w>
oph ra</w>
hand ker
h inges</w>
cra fts</w>
all owing</w>
Phi lo
Macedon ians</w>
H ophra</w>
tre mbleth</w>
forbi dding</w>
Under standing</w>
He w</w>
t —and</w>
sle ek</w>
quo te</w>
mit ting</w>
harlo tries</w>
congratu late</w>
bar re
def ends</w>
ch orus</w>
thir ds</w>
nu mber
min ates</w>
cl ever
5 6</w>
s— a</w>
submis sive</w>
prin k
posses sing</w>
gro an
aven ges</w>
S prink
sme lls</w>
mus cle</w>
floo ding</w>
counsel ed</w>
char coal</w>
Sheph o</w>
Re cord</w>
Abi asaph</w>
nee dful</w>
mer cen
di e—
cheri shed</w>
ca r</w>
Sar a</w>
W it
stagg ered</w>
s him</w>
relatives— 12</w>
r o</w>
in ci
don ing</w>
by ssus</w>
Zac cai</w>
No ti
Ja ar
ti cs</w>
thin keth</w>
sto ve</w>
reddish- white</w>
fain ting</w>
Promi sed</w>
Ha sa
po ets</w>
ligh ting</w>
Baal- Zebub</w>
trava iled</w>
H eli
tion er</w>
can al</w>
wrea then</w>
refer ence</w>
pini ons</w>
life blood</w>
fl ared</w>
fifty- six</w>
bree ches</w>
Mi x</w>
un lawful</w>
ta llest</w>
Rab- shakeh</w>
An na</w>
spark ling</w>
out number</w>
sprou ts</w>
raf ters</w>
ki kk
justi fies</w>
inter ru
def er</w>
ing e</w>
Co lle
dis qualified</w>
ck ly</w>
b all</w>
solem ni
gna shed</w>
eye witnesses</w>
campa ign</w>
Cher an</w>
Ar kites</w>
sigh ted</w>
si ghts</w>
mi su
forty- six</w>
Ha ca
Gi m
sin ks</w>
sca ly</w>
ar bit
a pt</w>
Sal lai</w>
M E
scor ns</w>
repu ted</w>
troub leth</w>
resi sted</w>
lap is</w>
char red</w>
bru sh</w>
T yrians</w>
Jehu cal</w>
Ga mul</w>
Ere ch</w>
redee ms</w>
obstac le</w>
k y</w>
insur rection</w>
fast ings</w>
chan cellor</w>
mor t
encoun ter</w>
break fast</w>
Sto len</w>
sen dest</w>
bra sen</w>
affe ctions</w>
Zabul on</w>
Tre mbling</w>
Li ght
1 72</w>
tran sport</w>
pal sy</w>
nur ses</w>
miser ies</w>
da tes</w>
anch or</w>
Har ness</w>
For sake</w>
un quen
u ded</w>
sovere ign
sovereign ty</w>
fla tt
accor dingly</w>
K al
Bles sing</w>
ze phon</w>
war ms</w>
un ted</w>
st out</w>
spo iler</w>
prun ed</w>
merci less</w>
legi ti
it ching</w>
in laid</w>
evangeli st</w>
en cing</w>
canti cle</w>
R esi
Jeho sha
Bar achel</w>
slan ders</w>
s p</w>
ru ddy</w>
re cline</w>
pp ings</w>
on er</w>
in sane</w>
ho i
handi work</w>
Za kk
Ger as
G or
wa iled</w>
ver ns</w>
mis leads</w>
epi demi
clean ses</w>
anxi ously</w>
Even tually</w>
Ano int</w>
ti fi
ti ers</w>
sp ares</w>
preten ding</w>
infla med</w>
enthusi a
enor mous</w>
e ge
Synago gues</w>
1 12</w>
well- beloved</w>
wea kest</w>
ga unt</w>
execu tioners</w>
daw ned</w>
Gala ti
De cree</w>
un leash</w>
offer ing—
gho sts</w>
d earest</w>
a- whoring</w>
3 9
trou s</w>
ra ining</w>
qu e</w>
per cei
idola trous</w>
convo cations</w>
circum ference</w>
broken -
Seme i</w>
Hypocri tes</w>
A kan</w>
2 73</w>
ra ys</w>
o sp
e baim</w>
Hez ro</w>
1 ¾</w>
ti lled</w>
sn ea
rub bish</w>
mu tual</w>
ha l</w>
gree ments</w>
gour d</w>
er ite</w>
compe tent</w>
Phi le
Jehoi′ ada</w>
A ct</w>
— then</w>
we bs</w>
thro weth</w>
sun light</w>
sma shes</w>
sing ly</w>
mea dows</w>
m dan</w>
equi valent</w>
ene tra
day —</w>
cha ste</w>
bur ner</w>
He mdan</w>
Ba th-
wan derers</w>
sil vers
p ants</w>
mag gots</w>
hor nets</w>
dis regarded</w>
appear ances</w>
shoulder -pieces</w>
s ledge</w>
mar red</w>
ido later</w>
def erred</w>
cross roads</w>
cke dness</w>
Wi ckedness</w>
Iphta h</w>
war ns</w>
Heli op
z ites</w>
po tters</w>
kn ead</w>
four- footed</w>
dra gs</w>
2 ,0
ratt ling</w>
forbear ance</w>
ana i</w>
Uri as</w>
Ba ana</w>
s lips</w>
gather er</w>
cove ted</w>
S pare</w>
[...]
